bryan
##讫
蛤
##vat
sabha
generosity
1869
##ouin
誦
terre
default
繼
groaning
扯
ordained
amelie
##llus
##群
##瞞
finest
tens
collin
##兆
##dorf
russ
##闪
teeth
doin
performing
##吞
鏖
##覃
##mation
amelia
glowing
银
##ก
rolls
photos
jacket
濂
tak
敗
##抬
preceding
gora
てす
##錢
used
roar
approximate
惆
##審
稀
number
bo
sentai
墘
ow
russo
intentions
战
low
乖
黛
##纬
longer
##ʑ
nunez
wednesday
##避
##inton
pba
thin
rotational
your
##节
enforcing
arrays
##弟
reflects
supermarket
treasurer
poker
##plane
salt
glitter
##sier
驶
employment
##柠
##evsky
fascism
100m
vii
c5
ß
bravo
endless
manipulated
權
oasis
##mori
fia
蚀
##岫
weakened
malcolm
dammit
sociology
helping
associations
consistently
hitter
蜕
##果
salem
譯
wish
guggenheim
publicized
boasted
##珙
##鲟
vein
now
transmitters
marche
274
arguing
##wheel
droplets
##lon
1792
croix
כ
backside
tara
腫
rejoined
salad
洮
skyla
liberty
嘸
toilet
##煦
##eb
窠
##杏
party
##rgo
口
派
雌
##禦
峴
stripped
encourages
竞
##鑾
nearby
bedrock
上
[MASK]
lee
##168
##併
motives
franciscan
picket
坯
##濒
##ored
booth
##cona
gleam
##ingly
projective
##verse
##asi
v2
hazard
rotate
鸢
泣
154
pity
pac
士
straightening
room
##哪
##atal
breaks
咗
1280
##ew
lewis
earned
##攤
apron
stalls
##খ
悌
dmitry
knowledge
robotic
landing
##η
##盟
landmark
charters
sundays
hussein
##ᅡ
16th
nebula
##pm
characteristics
##public
##傍
dso
陽
麒
##廚
##pg
acute
zoological
屎
dauphin
chairs
bulging
羥
##靥
oakley
2014
fronts
punishment
日
thirsty
##gil
hood
appropriate
##缝
palatinate
##并
##壬
##序
##窩
##玺
possibly
fig
address
錚
selling
lined
founder
##ller
##瞳
macy
hacker
混
帼
癲
耷
aided
sweeping
境
illuminated
於
産
salute
980
pin
##佯
##釵
员
##rry
##璐
##000
##茵
##wash
city
##प
##弦
vocational
##cation
兒
##積
corridors
г
gangster
##weiler
垭
measured
蒟
lucivar
祢
−
##cz
##鬓
立
relics
logo
migration
宕
##54
smoothed
forgetting
log
lore
crystal
qt
dickson
saigon
##ゆ
克
diameter
槭
reorganized
##case
##chy
奇
fragile
residing
##鹑
ل
ulster
experimenting
##轩
peninsula
##rooms
mad
##腦
##鹘
##炎
脍
##α
##讽
com
##管
wander
夾
##ural
tyson
guinea
humanitarian
authored
耙
nair
爛
poets
receives
η
##詆
斷
##iser
##wil
eagle
甭
dvd
inwedding
chichester
##pired
##嗪
taxation
lungs
s6
inclusion
鲜
##typic
冷
sl
premature
perth
adjective
2800
fleeting
coldly
granada
##pher
##骐
lime
gestured
3ce
##尽
1750
spitting
distinguished
##orm
链
##eet
积
##虐
##wave
##vs
掐
arrogant
##睪
few
##ammed
莊
ordinary
billboard
exit
姚
boilers
iona
thor
娄
commitments
呐
##という
##ographer
##oons
##ople
deter
宥
汀
akb48
ministry
##蛮
jennings
humiliating
##rcle
沙
##犊
ko
incorporated
r11
hammond
##賞
ｕ
##瑕
##贖
##珥
principally
##◆◆
б
tackled
investor
adjunct
prefix
棒
##kr
donated
clerical
columnist
##nac
##鼎
ய
impossible
##半
fate
nora
ethanol
##琮
aramaic
tabloid
##lmer
##tila
顧
cheating
##丨
汶
bahamas
960
ported
evacuated
##沐
##裤
##म
哼
##飚
##種
scissors
##sed
operas
cinnamon
knowles
plus
##eller
##軟
盤
passions
centre
warming
##啃
苗
##熹
##vie
astronomer
##08
ます
futures
manfred
recreated
##ffie
妈
stressed
everton
espana
mo
crashes
##acker
region
sweeney
regimes
kilometre
dukes
##冗
boiling
郷
possibilities
metric
##邵
an
sensual
##舉
scp
kisses
1820s
抑
罗
bp
廣
plunge
columbia
##輸
noises
unity
gdp
already
removal
##kle
gogoro
r2
well
earning
national
medicine
##tance
##狗
颊
##煽
##horse
绘
heirs
##ioned
railway
cheered
ella
ioc
##船
洲
outlook
谈
##刊
conflicts
忙
##hear
য
##hma
却
pamela
ticked
stores
##栩
indians
abnormal
omega
admire
##đ
##橼
tcl
拒
饕
proves
匡
##ston
suffer
sumo
##釐
嶄
荨
漪
##齒
翠
handel
tear
tequila
啵
attack
skyscraper
##詢
##┊
astronauts
theater
jameson
喬
褻
spirituality
cartoons
##餚
##lah
lynch
winrar
donnelly
##evic
##伙
##和
fourth
兽
効
壮
骼
##fra
dive
oblivious
##real
adventure
mandated
moniker
##bug
##楽
poisonous
##escence
##吹
wanted
尘
converted
##囧
asshole
##弑
scaling
##aar
anyway
##tly
##勉
interviewing
204
64gb
intelligence
caesar
圜
绦
縝
减
駱
nova
##埸
¿
useful
偶
e1
lobby
conglomerate
##kala
knicks
madagascar
endured
ᅵ
飚
##启
fae
patrolling
pear
roc
##爷
##38
##惆
wildly
rebuild
reasonably
刮
搏
##17
signals
栏
翁
##2000
movie
##亚
ว
cms
arrogance
##羥
gucci
##淬
##kiewicz
chapman
##蒙
迟
##灭
cowboys
##⊗
cyclic
又
purity
principal
ofweek
##3d
santa
retrieve
dieter
砒
##偈
silhouette
損
05
2765
490
##瘧
reformed
sega
##伶
##thed
matches
drill
surely
には
damien
sighing
芦
ɕ
compassion
jang
脆
##ལ
##ej
ʀ
##ries
鱼
1809
##竽
葚
##﹙
auditor
##衲
kidnapped
##颱
uses
reporters
supplemental
##鍥
痠
violent
snarled
mitsubishi
comune
internationale
tibetan
##趕
massif
accumulation
cerambycidae
king
calder
##諫
##钨
亭
##籲
rounding
per
##眷
405
鹊
wessex
propulsion
##訂
##銭
ک
岔
8591
juice
snapping
##胖
媛
重
##叶
唯
macintosh
订
»
m5
having
搗
spiritual
nephew
##ive
飘
flavor
classics
3t
coal
暐
barnes
##lating
antigen
benedict
taxpayers
pensions
jaguars
ك
##汽
##鯊
14k
‑
##ssed
##瓜
socket
towards
楓
▌♥
starting
russia
漿
chapters
blanket
anarchy
##face
surgical
##phobic
##导
##ins
##撕
##蜚
今
##象
polished
ti
derive
ب
##宕
酶
倫
faye
bliss
hornet
antique
##sel
cries
corresponds
clubs
##恕
痞
hall
cannons
讨
neptune
##fi
aboriginal
reintroduced
sap
袂
##驒
##ft
柯
##慨
##貌
争
shelves
differentiation
raining
##痊
##撤
##dian
confusing
linda
extend
frances
judas
##gel
##铅
coughing
##鹽
showered
##晶
##vani
##43
ｒ
##诫
interception
stephenson
##wick
##こさいます
relates
れ
##箕
炜
##ي
##ryn
##证
mater
southward
shear
覬
headquartered
##芭
斜
##す
##isation
##雀
##憶
werewolf
benoit
brownish
##毋
##tain
artifact
millions
1722
##tzer
boomed
whoever
nonfiction
##ck
##璞
磯
閨
踟
##炭
##va
dylan
##颇
##侃
justification
vaccines
disorder
##thest
##傭
擴
##跋
bouquet
裘
malacca
comments
##ander
咽
diagram
trans
##city
gaius
煊
correlation
##otte
damage
##right
##leigh
me
seven
renee
lakes
disappointment
伢
##tya
##富
ே
kaye
##cor
symmetrical
ᄐ
##薔
##欣
attempting
##rst
##焱
##陸
spiral
##rdo
##org
willard
ntd
##構
##uch
reconstruction
谔
illustration
氢
消
ruled
mayors
##獼
##mu
selma
氈
##nder
cory
buena
##ович
strands
shadowy
走
##drum
##da
∟
##2c
behavioral
greenfield
##岂
##覷
##壶
##weight
##vb
鑿
##grove
松
christensen
##焰
##ゥ
##shire
interstate
207
##此
gripping
mab
classification
ignited
sahib
boston
269
##rada
cannes
absorbing
衹
prohibiting
ng
##岬
牯
##挂
derbyshire
comhd
##慷
##pad
##uram
##慈
样
##ror
antigua
timmy
merchant
underwood
##摄
љ
mcc
summers
270
apr
##tagram
bibliography
extras
hayden
##贍
delta
brent
seine
commerce
nice
centuries
newspapers
membranes
##昱
rubbish
making
municipal
蝕
##疟
鼬
password
meteor
ʷ
荣
judaism
##忽
##踞
g9
northampton
##oj
##葛
##հ
铬
##78
unfortunately
golden
ville
crook
mixer
##兢
mitchell
##rri
bangkok
##销
##識
##仨
##啮
##库
劵
dungeons
chrome
哔
prentice
瑤
再
sweat
妒
υ
aren
##fw
arson
notes
patience
oregon
##cure
奚
##uka
mathematicians
wept
淄
stated
cat
1748
ｼ
##矜
奠
myriad
##lham
##riding
upbeat
issues
explosion
##伎
##region
##严
##漲
whorls
凳
昆
mistakes
兵
proven
commended
xp
kerr
##ない
##麗
##ɒ
cloth
grabbing
manipulation
##ssler
##jima
##nge
battery
found
constitution
##ogan
laborers
2500
桓
傻
experimented
documentaries
1729
previously
sister
800
sweating
##eiro
grass
mississippi
units
richards
assessment
浯
implied
raider
##urus
owls
##厨
euros
##偷
##臾
##馮
##dora
##舌
铺
speaking
##箐
patron
runners
justine
##太
4th
resting
閒
fooled
##葭
ℝ
drawing
det
1389
alonso
improves
manually
##asco
够
mainz
q2
westbrook
##ulu
redis
蟀
mortimer
##tung
ignition
##vot
##iba
##肱
胡
##睐
softness
撮
乱
##关
##咬
總
1810
##ˇ
##tosis
rapid
渝
echoing
285
##贯
訁
##lster
delay
##iable
departing
oem
cyprus
儆
clauses
consortium
##miya
##骠
domes
freaks
##蹺
##sie
superior
﹐
##醯
reject
hapoel
软
rand
oman
ᆫ
##lto
territories
theodor
##ction
halifax
wai
pilots
##栄
##宽
肖
惨
##✪
undefeated
madly
##認
鉅
seek
##陕
袅
##恬
##敍
##铬
##gence
billings
monsieur
barlow
##鳖
##odes
awarding
##耳
述
heal
##pathic
serialized
kepler
##允
alexei
terminology
##攢
contextlink
trump
vidal
scrapped
踹
427
##タ
##テ
becoming
##擎
##cek
insert
update
##wall
materialized
赶
stud
apocalypse
terminates
##嬰
loss
fray
##fera
higher
thud
##荳
ensured
##豇
prone
ii
##ob
##誠
social
toured
belarus
fridge
趣
隈
駿
##row
italians
claws
##】
automotive
##llen
##গ
converts
##拓
crystals
坝
##zers
疽
図
emphasize
愣
钛
basilica
##ioms
runoff
##风
mud
歯
##緣
脣
rmk
afar
##膺
##iom
##屋
湫
##獺
federal
滕
qaeda
##ostal
##猿
familiar
grandma
mallory
bulls
answering
##nable
008
##＠
##峽
rusty
##osomal
alley
honorable
##旃
christmas
1964
##害
knew
硒
caused
疾
consecrated
籍
₇
reds
珮
菓
衄
abbreviated
邻
grows
guo
##mba
##冪
##nsky
eras
##絞
##bold
brenda
蟎
appleton
##犄
isn
wages
##ours
╭
cookies
##nova
慟
county
##炯
##刽
compilation
ruining
##oor
身
##指
痰
jasmine
26th
moments
euro
primera
##analysis
abroad
##lete
tolerate
痈
甕
抢
exceptionally
##啡
甬
lords
nippon
##なから
originally
##敘
冪
漸
instances
edinburgh
熾
##rring
scuba
愤
##數
organising
##骄
craving
渙
##ense
蔥
##靼
ives
defending
question
methods
detect
magnificent
fish
salford
figuring
##hol
##菅
twists
sheen
##nous
reapers
visa
cg
ign
solemn
##ward
史
##cks
##樸
discrimination
眦
superhuman
normandy
飯
inauguration
lithuania
019
ethnic
migrate
api
##gion
##坵
##া
##凶
gesturing
greenberg
##31
pending
##翠
zhejiang
##”
defeats
analyzing
軋
##寐
interacting
##礦
嵊
kicks
awe
##kovich
##铉
imposed
stephane
branch
##eers
housemates
visibility
jolted
proof
brewing
row
sud
flea
custer
determine
##三
ally
ridley
##laya
maguire
##岚
##模
##误
1876
1923
##rians
e3
##gang
##讀
##rey
dorchester
橫
##慵
##畝
howard
##衣
urge
lacks
肪
##data
钴
卉
lobe
支
vigorous
贵
trek
##rtex
foley
allocation
declan
acronym
##ulus
central
##揚
ネ
prick
##還
longed
budapest
subcontinent
##～6
鎳
151
蔼
##抓
##咂
spotlight
##樑
berries
阎
##ting
275
else
decisions
countries
##用
displeasure
coop
pubs
##gue
##iana
thereafter
##logical
basis
axle
##aster
##ratic
烊
swallows
truths
1916
～5
纯
depressed
##榖
scented
vie
##zier
showtime
ceasefire
tan
##驊
揀
chassis
hillsborough
ry
rosenberg
paid
##刎
bates
hosts
supplementary
entirety
##阡
vito
##肘
院
consequence
fl
acquisitions
稜
posterior
##涂
largely
woolf
witches
することかてきます
tre
❀
ma
##澗
mist
##rington
donaldson
##逻
##inda
##ckey
alan
##賈
sauce
mclaughlin
##称
monster
pale
bowing
revolt
😂
460
god
鹿
force
##genase
sculptures
##day
scandinavia
##憚
坂
residences
1736
##恳
mix
洹
danes
##呷
睽
##凑
##nis
plasma
##nally
峯
silvia
consonants
cardiovascular
汤
##橫
philippines
##ᅪ
hooded
##冽
string
schedules
候
witch
geneva
鸾
submitted
workshops
narrated
deaths
dynasties
wrocław
##athlon
tag
volumes
realises
##尘
special
##抱
##hine
##骜
sanders
##锑
挛
銀
touchdown
faa
francaise
anatomy
specify
shouldn
diy
##呤
帰
餃
enters
biscuits
##馀
脯
stranded
##锦
韬
calais
protecting
justices
union
counterattack
stories
币
##eck
##邏
觎
##様
舗
gottfried
refined
celebrities
##nome
ferdinand
##eting
##breaker
reilly
ⓘ
##usion
##ities
匈
##hard
##谊
##┆
ari
speechless
markedly
bartlett
pumping
top10
嘯
apprenticeship
provincial
bjp
彌
##盪
spraying
axel
pcs
##骷
hidden
##迅
trojan
##慚
congressional
welded
treatment
emerson
punjab
inform
闪
flame
##urt
##帆
陟
hughes
##楠
##acious
501
##graphy
##ph
##创
travelling
coveted
##寂
##kki
supper
##rzy
spartan
cubic
unsuccessful
##淑
搶
barron
贊
counties
捆
##锌
誰
冻
##四
virus
behalf
present
fey
nc
疵
penalties
mutiny
pup
##户
異
惕
！
儿
lego
gma
antiquities
gould
cemetery
馋
sunk
messaging
##苻
pendulum
廟
slap
doug
company
闵
pantheon
tyres
衩
##ience
<T>
##sberg
##islaus
building
blindness
asteroids
##狱
dat
hated
am
简
##塘
##別
##淺
motivated
arthur
懼
ל
##衍
##钩
england
##ㄛ
breaths
##脛
09
awaiting
桐
jewels
pest
obtained
money
clock
lava
##zz
##佶
translate
rectory
furiously
infectious
plastic
1570
##雰
kevin
eric
邳
##love
##铎
糙
bishops
##尸
cowboy
carries
seton
趴
猶
expenses
##∙
ン
flaps
stepmother
ibm
##zh
##iman
generic
##沓
##tec
致
inclined
##唱
lyrical
##脑
897
诧
airport
佼
##拨
admiralty
嬴
##易
nadu
##dder
##粼
##獲
diesel
reagan
啓
produce
filming
紧
攙
焼
blackpool
##ome
quarrel
animated
##stein
鬆
355
##及
琨
sacked
陨
tragic
##cam
erica
mollusk
macon
雉
ended
瑞
weiss
breeze
叨
lowest
##握
##lak
##呛
##hyllum
凭
bearer
##唬
##mg
酉
##fulness
wetlands
skulls
##扦
積
skier
side
##鸿
sore
consultants
silent
##rb
abbott
##裾
bathing
unincorporated
##充
boyle
officially
##儆
drugs
requests
##莹
##cat
actual
##sford
glossy
▲topfeb
吏
##搀
windy
inscription
##acies
##line
##湛
##linson
攜
gomez
贸
领
##nivorous
willingness
煸
##麥
member
ヌ
##謊
きを
##兖
drought
wolverine
##rized
闆
lectures
##提
hem
saying
nicola
蛮
festivals
legions
寧
##危
shave
crest
prospects
flag
##cn
prominent
揆
deciduous
grille
##bird
##闻
א
squad
##鵡
瀾
自
asian
##thi
drones
##ates
privateer
disappointing
##読
dwight
##ことか
gin
bellevue
##diment
便
##懋
##ische
judd
proposed
intellectual
囡
jointly
ethiopian
wiring
##买
##rangle
joo
goddess
homosexuality
##tized
1924
rosewood
johnny
27
praise
amazement
provinces
##very
terminals
surfer
##挽
唰
ray
louisville
##腻
squirrel
wrestle
registration
##ful
generators
##dry
##aman
eeworld
restraint
trc
挟
##bin
悟
##佩
##纶
participating
french
miniature
莧
finalized
conservatoire
##史
盐
##脱
##tier
胛
##紳
aaron
intimacy
##alic
##佇
baltimore
饺
brands
harden
detroit
sheppard
##ｆ
foyer
ubuntuforumwikilinuxpastechat
sirens
##iculate
##值
##nza
淮
##鹜
##भ
hotter
beds
祸
##open
reached
remember
leagues
宁
ames
##ort
雍
##arat
##tones
##倬
geoffrey
intervene
##渍
步
##nitz
##ப
cortes
society
##準
1940
##side
billions
buff
theorists
##ٹ
机
閥
##lynn
revolutions
##思
distress
emily
harvey
##chi
temperament
##躊
guildford
occur
colleagues
kidd
smyth
伤
##珉
##坂
usb3
##粒
thirds
salle
仍
##馏
##檄
prescott
rocky
瀘
histoire
defend
angel
mahal
##quent
##趁
energy
tenants
gunfire
unarmed
##苞
janet
##bread
stiff
為
##ᅲ
##會
levels
##tour
communion
##mmer
isofix
50mm
furnishings
謗
mercy
variants
##丼
俑
艙
卫
##佳
茂
chat
##鎗
bulb
alternate
##薈
abusive
##臨
convincing
aero
key
##臓
meet
##66
##坍
cranes
##lo
##肢
##fm
丙
滞
pathway
炁
enormous
analogy
婪
##oxide
283
##ש
遷
posse
##侧
##阕
⁴
##growth
##ნ
##武
##葱
buffy
settling
镐
signalling
adoptive
typically
duncan
pegasus
逻
happiness
乗
glances
remarkably
png
徼
root
011
miles
##鯨
mast
gallons
钟
据
##霭
##vity
屐
##蜇
forgotten
##gne
##rgan
foraging
unfit
##隆
魄
prisoners
留
309b
##葚
古
icy
thames
ravaged
##耦
##キ
1732
lydia
##駁
continental
543
ㄞ
ngc
aarhus
##脓
lofter
filmfare
墟
grammar
dnf
##泉
##圓
output
##闫
sons
obtain
##tions
poultry
obscured
##钓
flashes
oak
zenith
undertaker
needs
gasped
institutional
iowa
ㄟ
馁
auditorium
burkina
swimming
盹
cuthbert
##frame
fangs
rosenthal
nagar
1654
咦
serious
jericho
tokyo
graceful
lately
##恋
rogue
##vre
##哔
wolverhampton
suit
kidnapping
interact
570
arabs
hpv
tractor
##alla
kinase
fk
stove
pagan
absorb
overboard
toss
姆
##取
tung
##頌
cool
##oro
笙
峦
scanner
solemnly
giggling
reinforced
##ble
escapes
##合
##てお
superb
瞅
醜
catch
##quel
蜀
##ized
##瓒
adequate
enrico
koreans
funky
star
妙
gazing
scenes
coordinator
steered
##nta
##６
bury
norway
292
braves
realise
あります
龍
誌
shrines
surprise
stifled
瑙
##荃
clandestine
smelling
##≒
鲑
ig
檜
and
鳗
altogether
1865
somali
扰
﹚
husband
pilgrims
candace
mingled
置
##髏
owner
pantos
##悩
##tv
爲
356
##飘
concord
darkness
camera
##瞻
3300
##א
213
##♀
##伯
beyonce
ahmad
┣
interceptions
v8
##悻
晤
##ations
##bane
##誹
輕
boards
ছ
237
56th
##垩
wow
proper
bertrand
slacks
##kam
##尿
##朱
黏
sol
问
operative
##鐳
carry
cx
##rrigan
##art
速
valve
willingly
facilitated
蔽
redemption
wil
禧
##雏
־
##ago
##ा
igor
teenage
oliver
python
nano
manchester
lucy
cyrus
investigates
luigi
しい
焖
冕
sql
marriages
sect
锁
analysts
nightingale
##黃
surgeon
##atory
平
##inae
mummy
huddled
殤
##硯
瓮
climbs
##〕
lowered
##眉
##zyn
##yler
##เ
均
misleading
norris
celebrating
##彬
neighbourhood
涂
mate
##cave
inversion
supported
sylvester
parasite
楊
籲
##ivate
socialist
kane
accomplishments
##鈺
concentrating
##华
綱
composer
wheeler
ш
nacional
濡
eki
##ate
##蟹
accuse
筏
etf
bench
槳
czech
俳
赐
非
cadets
##bolt
abducted
⒈
defences
##崇
catastrophic
weakness
kgb
##cated
inadequate
resides
interaction
##nidae
issue
instructional
turtle
cheung
讧
##vant
deviation
advances
郦
##示
吆
痴
ھ
##峇
negligence
sweep
##喊
##筝
鹅
take
##砾
siemens
commemorative
mind
luminous
policies
##rell
fashionable
##員
shakespeare
##緑
▲topjun
saratoga
##≤
畸
恍
##慟
guantanamo
bunny
娥
ter
shelter
乩
whether
溱
##oris
##衢
eos
+
springsteen
20000
mla
##dan
fore
linking
arts
1652
靂
壹
硯
2d
delivering
##軽
##rent
tormented
咛
を
##讞
referred
maid
fisheries
cryptic
##ny
danced
kwan
psychological
fortress
##ever
##珮
belonged
loyalists
漁
ladder
##疤
sachs
##其
tyler
easy
atheist
材
##iface
լ
googlemsn
priestess
##lee
cale
甜
丞
providence
grassy
键
##峒
水
##退
alexia
dew
denis
##nh
啻
嫚
elements
narrative
餐
猷
lund
##釧
anders
overcame
katz
mer
遐
##动
stride
屿
##顔
sharpened
abbess
霈
##獒
anatomical
onset
##ere
chasing
front
##袖
##嵯
##裁
##隅
##吴
##椭
reluctant
##√
ultimately
fern
##凹
##哮
醛
##訝
shu
##osa
##ground
vibrating
b2b
trevor
##彿
slope
霓
##rize
趺
zebra
##蘼
current
揽
winfield
lyle
菀
##乎
##yin
##阜
##erved
ala
evernote
being
dahl
##rah
checkpoint
魍
迫
##州
implies
##ya
clade
chen
1v
##win
feb
falkland
mentioning
realizing
设
##nami
maltese
ד
頁
##额
cactus
乓
adult
sulfur
##*
hdmi
toned
doctors
gauge
暱
gunner
乜
##ж
##逊
drawn
azerbaijan
dress
cement
staff
vehicle
370
員
向
teens
faith
treasure
char
叁
hale
ed2k
噪
licensing
##hner
##赅
##闡
抬
迅
##（
〖
##omic
傑
閱
##焙
临
skills
无
depth
##梳
boundary
##dition
##閹
昔
##迎
thorpe
##笏
carmen
##扫
封
horrors
##蟋
timeless
sabres
taxonomic
rodgers
##惰
攻
##适
focusing
##bble
淤
oaxaca
pastry
inspections
ribbons
intrinsic
氫
趁
headquarters
48
嗲
##丸
識
沂
ﾝ
font
suppression
bruno
linnaeus
##捎
##毘
##google
##©
allegiance
rossi
virginity
petitions
identifying
##存
##跡
cocky
##14
##囂
##菓
##ヽ
showcase
damascus
successor
upland
41
girl
##壆
##thesis
coinage
##ignant
trackback
bl
replace
cambodia
hurst
astoria
##cl
##pu
空
dismissed
ན
engineering
##tead
middlesex
fu
##畸
powerhouse
dunlop
kendall
γ
##▍
##赵
forcing
peering
stake
synthesis
##恣
##洹
masovian
莪
骯
钒
...
##侖
mu
greater
牡
膻
testified
献
outlined
胖
##侏
⁷
百
##庞
flemish
crocodile
##囱
##itaire
evenings
willoughby
production
ridges
##迫
homme
##朦
披
##parts
oricon
254
邬
##怔
improve
client
##imum
##毒
x2
見
##縷
barrie
machine
supernatural
##泮
baldwin
煮
roger
##呓
ind
##ho
##拖
games
（
concluding
polo
emphasis
##umen
culture
dangerous
##lman
##備
col
狈
゜
漢
##您
##ظ
庙
##平
##trust
mojo
曄
##mour
恢
##撈
scarcely
朋
banned
sudden
solitude
eddy
劝
##豔
笔
##ifiers
##alle
.
##登
rihanna
姣
纨
##羔
most
hawthorne
##晖
##簦
lettering
madonna
peterborough
hungarians
crushed
guangzhou
freeman
collegiate
琳
jackets
瀚
birth
##ツ
褐
##ision
殿
riches
forensic
拋
diva
この
陝
336
##lved
砷
fri
mhz
すく
ruined
##gating
炭
counterpart
logging
advancing
magical
comprise
軍
57th
芝
1781
inorganic
saul
britney
seaside
##換
unlock
##袭
deny
survivor
rises
##dn
絡
1895
##cut
##92
##には
evangelical
spice
letterman
##浑
絹
costume
survivors
faces
goldstein
invasive
au
stables
##berto
##擋
##ually
heroic
躺
墒
摻
talking
##胯
##moor
##mute
##ɾ
ₕ
驹
60
seriousness
courtyard
##海
karnataka
##ことかてきます
winchester
assured
albanians
证
##阻
distinct
convicts
id
static
revelation
aba
1838
##庹
摯
aforementioned
melt
non
巧
dresses
##cs
incomes
歡
pushes
pontifical
刍
細
disconnected
##jit
雾
incompatible
檗
##愉
flipped
nmi
呷
arrest
處
##於
commemorates
##gon
bahn
wires
##呎
pirates
##生
longitude
##⁰
zev
##篇
屈
believes
infrared
chimney
扣
##wan
interned
jakarta
##峴
｝
tightened
##╚
##嗟
caden
groceries
##duced
罔
##imi
measurements
tying
昂
捷
julius
young
thinks
髮
avid
##矇
肱
italian
脾
##ggle
鈪
cabin
##り
tuna
bree
scarce
髻
electors
marlon
顷
##bis
gorgeous
doctor
indoor
##急
##灝
pre
##衛
slack
weep
暈
itf
bat
##辊
burial
ambassadors
uncover
啮
points
auspices
##颜
蕨
##网
redistribution
##ータ
packed
thankfully
##钿
##⑤
դ
carpathian
ག
tudor
lacey
崛
marjorie
##図
##奉
pace
brass
玻
promo
紛
supervised
rhythm
##てきる
pets
laid
usage
intervals
peach
x5
##sight
鍺
weekdays
税
##ale
曲
lol
##涎
##甌
hertfordshire
菲
day4
food
calm
橹
##宙
journalists
न
亂
stormed
preserving
stewart
ken
##翱
mature
congenital
sleeping
garry
peng
##ift
regent
renewable
witnesses
##楚
份
standards
##遨
##鳳
magnum
こ
greek
##杳
##善
##翦
peninsular
coordinating
骠
淀
##鋅
##宫
assure
##ssing
wrinkled
##謙
houghton
##23
##撂
##unciation
mcpherson
颖
饬
fury
140
##哀
eye
panting
辽
estadio
ɪ
劇
##uf
##狒
##挎
participant
##诰
㎡
##100
##bro
##乱
##暈
##hett
thematic
科
ゆ
撤
piers
bony
##plus
##警
grotesque
issn
nails
汇
employer
##詔
翎
contemporaries
蒼
##lan
441
responsibility
##▶
また
parked
regimental
錐
镜
偌
##侈
统
##bala
##ssen
leith
monthly
##ノ
involving
steal
##朔
##neil
##碼
##柯
opposed
liquidation
laurence
##ﾟ
颂
keith
dissatisfied
##痔
domestically
peerage
##契
fallen
督
東
ship
##肯
##ス
cockpit
幂
咩
##abi
muhammad
composers
##駐
##rated
1690
axial
##卢
rory
streetcar
##茫
峨
protested
clary
quarterfinal
mausoleum
kitchens
磊
##jian
privacy
whereabouts
##卫
##都
户
漯
##ʰ
statesman
##斩
retains
balanced
##席
##bour
##acle
媲
craftsman
檬
##phila
##ffs
##桩
numerical
chi
奄
##ege
##呵
supervision
nguyen
##蜱
##衮
collectors
typical
术
##ｕ
##vard
杨
regularly
anthony
##蚊
拔
→
##xed
##berger
proclamation
emanuel
mobile
undoubtedly
遑
lansing
##rap
ʻ
枯
hanover
1697
024
##莘
##钳
נ
κ
spikes
ha
##蹊
observations
膚
376
waking
credit
bending
bonfire
とは
punta
欧
portray
##純
bolsheviks
ptt
jill
source
##空
facial
##ppe
##bot
wed
news
among
##ula
tale
##游
箩
##琪
coffee
嘧
arrangements
firm
sweets
##ve
aggregate
##愣
giorgio
lowers
walks
producers
##tf
憾
quarry
##翎
modernized
心
博
齢
##喷
##皮
##疒
##蝗
##鈕
##阚
notorious
opec
跺
ancient
##蕤
246
reggie
##屬
somalia
##兴
峰
patches
assembly
##墮
##噻
##蒡
wickets
lz
##弯
predicted
netting
moritz
psychic
婶
lawson
##牲
trend
##3
##jar
##痺
##ishly
##eem
##ths
¹⁄₂
栽
##rd
mcintyre
owns
rather
##systems
usable
##user
蜗
淋
嗜
structures
閹
simply
bills
隊
##nagar
分
deformation
nj
stabilized
chew
hunched
##己
dodged
communications
elevation
##cased
审
##ˋ
volkswagen
##濾
##lier
pilgrim
ა
leipzig
refueling
伪
pressing
blinding
tape
##膳
葛
##著
acquisition
stamped
婉
banking
digest
damian
dime
ventured
槍
##诺
uncertain
burmese
celebrate
waterloo
envoy
prodigy
allowance
恿
santiago
027
ร
琶
fifa
##牽
charley
##钼
wnba
sailing
检
##↔
vetements
坐
##悸
狰
fearful
situated
yanking
peer
研
##领
translator
商
##bha
##vo
airports
haute
橼
managing
because
##傾
##媾
##则
##舆
cbc
borrow
##疊
##fl
##巾
stout
format
##癫
ふ
deep
##溥
aldo
donald
ease
##擬
##tology
quartet
galerie
creeping
statutes
transition
##front
##嫔
蹤
edith
cameo
foxes
緋
酯
##姻
funnel
##沮
carver
##衄
trumpet
implication
lamar
mans
orientation
##後
勞
運
##惹
##挠
##ии
##缅
shine
arrests
##椽
唆
##hire
##＾
蜢
barbados
崽
walk
planted
##陂
##sius
##church
retired
1560
stephens
##下
shower
##坊
##※
##鬧
caliphate
510
assaulted
##畿
haven
bumper
##ᄉ
cleared
##钞
stationed
trafford
slower
等
pioneer
⒉
##脯
旅
wanna
##ʷ
valencia
assemble
##玳
tornado
奔
males
##淹
palais
盃
##藜
##rous
rudd
##ang
window
孱
colored
discharge
##rix
##sman
marcia
lifting
liquids
captured
andover
##滴
趨
镰
inmates
##67
##hing
rowland
eh
##汴
##nail
##普
arises
##bled
manchu
profound
铢
anonymous
溫
##雯
detainees
浣
卑
cabbage
acceptance
##mento
##亡
cm
fletcher
##tangled
爪
荠
準
##atz
photographic
##めて
azure
renewed
tribute
comprehension
##锤
offer
##uance
paypal
pleas
mca
④
51
##watch
incense
槁
augusto
挞
taboo
tumbled
辱
第
##睢
##evich
hawks
fairies
##ught
掰
debated
azerbaijani
credible
飽
six
##圻
##98
##ˊ
sorted
carlson
legendary
marrow
exempt
gleaming
烏
sm
鏡
##嶇
snarl
goran
scrap
compartment
ᄆ
roofed
zheng
能
12345678910
css3
collaborated
absolutely
academies
1994
##stand
borders
shorter
##iro
pasta
##采
opted
preparations
玑
blog
118
##荏
##標
##铐
alexis
early
aluminum
goddamn
伕
禄
##褚
##繫
visitors
##roy
gratitude
##yst
transmitting
##zziness
##怅
##迥
##頃
duel
跃
usa
unchanged
according
achieving
勢
gage
surround
incarnation
済
cl
##berman
粑
retailers
##oux
reuters
##骊
films
brady
##brick
躏
pronounced
##０
##late
皈
##personal
tuning
##氓
##asse
blooms
悩
鬓
##ego
琦
quaker
##麼
elias
disliked
粒
reveal
tome
##01
##raz
amplifier
##妙
pitt
collaborations
frown
##厢
duc
plot
wto
##端
gateway
鞣
##zio
##授
詢
mischievous
theaters
cooking
##綾
colossal
黄
1780
indigo
##lization
deliveries
##liche
##ug
benefited
##鳩
綺
liter
carrot
1932
##么
hymns
愍
##etz
ख
constance
攝
##zcz
dx
≦
iihf
##狎
种
simulations
趟
##直
consonant
##てす
##iff
contracts
haas
supposedly
##cia
##ese
divisional
##ך
tattooed
##諾
##泠
weimar
惊
splitting
exe
kendrick
reckless
##dak
uci
辈
ecology
##维
marvelous
##morphism
嘌
##犧
燙
100g
confidence
penned
flees
▅
mayfair
petition
coordinate
flirt
笋
しており
##輟
revolver
##making
##刪
abd
progressively
batter
##掸
mysterious
##bri
eva
##forth
##蜓
##eak
##味
samantha
newest
whitney
suez
compulsory
amour
##～1
o
missionary
neighbouring
侍
shield
utilized
邈
playoff
芩
pleasant
modifying
oval
domination
b2
滥
##盜
genome
spilling
##700
curtain
pleaded
皇
tiles
genuinely
mapped
ashby
##kers
container
shrieked
蛻
たと
esc
patronage
##煸
しかし
airplane
almond
##锟
茅
haji
hesse
##rem
##eville
late
frequently
olga
##蘭
##瑛
##缨
imperial
translating
demonstration
females
##破
1963
##41
##廓
togo
favourites
##nier
concluded
##袋
wartime
novels
##pr
snakes
騨
tomas
oddly
##欖
##esis
distinctions
ltd
##閘
filtering
musica
呀
sofascore
eclectic
dunn
504
mistakenly
##nese
tweet
resulting
brutal
圻
秦
everybody
pas
creek
alaska
grip
##hic
##纨
otago
index
##蔔
殯
##菠
1779
##擡
glued
umar
##婶
418
聒
fungi
stream
##稍
##时
saxon
鳕
enduring
##单
leyte
groom
baron
##erly
##腳
##ハー
vibrated
##bby
##hly
preparing
嚏
##ps
敘
##盆
securities
狡
##碚
##皰
honduras
arose
locking
openload
eine
nationals
white
runes
interim
yamamoto
緘
exhaled
锚
享
##クok
##urized
##sm
shipyard
住
¹
fungus
矣
outstanding
throw
sandra
newer
awakening
##坐
括
breeds
骇
囝
##花
##ocytes
##nr
##浏
##ky
vanished
transporting
廓
笨
##鐺
celebrity
apple
eta
##鳗
395
##ض
##談
e6
##brand
郧
orders
prima
拳
militants
contact
fairs
##鞍
净
п
##baum
ケ
##恸
collaborator
apes
candle
supermarkets
##但
##khov
抒
prelate
gujarat
proton
perfect
fifth
establishments
bolt
##屁
ᆷ
wrongly
##ffa
289
灬
respects
sharks
bayern
tracked
rosen
cows
beef
##冕
villains
##lika
##须
碾
##鏢
顾
hackney
hangar
piles
婢
##學
##mack
peptide
背
raceway
唬
noticing
akira
鞘
katy
marcel
hectare
樱
痣
咧
##edly
agricultural
protect
##lit
workshop
##✔
##ますのて
leader
##瀕
reliable
storyline
##瑚
##茎
##憤
耆
##賀
lima
鏘
##zuka
##獎
贞
2011
##妄
纬
##杰
livelihood
##犒
##郁
shouting
scheduled
##ා
桀
explored
##eye
潦
培
ban
馭
##yer
##赐
##沁
##』
##菁
逞
lacking
##瞎
##tate
##７
##梆
##遍
villages
##痹
##lles
dared
ve
##團
vinnie
ppt
maxwell
acres
##sor
hell
ه
winnipeg
patterned
##鄞
駭
realms
##placed
敏
wave
婵
##奋
griffin
呈
comprehensive
fuck
diablo
9678
##畅
hue
equipment
baseline
command
smartphone
tier
##ady
##疽
affiliated
recognizable
cc
##009
tucker
slices
##nga
##捶
##筏
翳
bounty
##蔚
脅
dry
assassination
cello
10
emergencies
newborn
##燿
咆
oa
##dos
##eia
pouring
##齐
loren
inquiries
##elle
52nd
擢
易
尷
criticisms
##な
puzzled
##段
##bu
abdomen
##傘
喂
electricity
lagos
萦
haiti
keys
nexus
##膦
questioned
controversies
synthesizer
榭
肢
##統
molecular
medallist
trainers
鲤
tangled
plotted
##tique
himself
##鴛
thomas
crown
##蜷
о
##拴
##燊
##bial
eruptions
italy
fiji
attacked
bears
##₇
##bots
磋
ᅭ
##騨
wants
hinted
joined
泓
predominant
##蜡
eireann
飼
adored
bart
elijah
##lets
##顫
conception
##grapher
55
rabbis
weekends
maple
鱈
##lis
##鹭
house
whispers
箸
##uid
liaison
##釦
乐
##饞
纱
abolished
dazed
##簾
relic
##venor
欒
taipei
expressions
##撻
casually
##馁
##肴
exploits
##棱
獠
##rte
mcdonnell
ww
institution
３
６
choreographed
煌
albion
380
った
##ד
sex
clutched
internal
clinical
vanuatu
unreasonable
##茉
##崁
##糰
##鑿
romeo
gameplay
雳
kindness
hermit
routes
georgia
hewitt
°
medal
inc
knocks
prompt
phosphorus
玺
##钰
##韓
hobby
325
##＝
buddies
菸
caught
抹
rude
orbiting
natalie
tingle
##lla
tennis
##ab
pops
rays
julie
inception
inaccessible
##廿
棵
verity
##埂
##絶
μ
傘
吐
妾
streaks
篡
ssh
advice
v
##dlow
##鯰
瘢
##schaft
taken
diagnostic
瞪
labor
graham
tires
enjoyable
ability
殡
⽥
stainless
roaring
誣
lodges
canucks
random
##遗
oceania
##倫
wma
圧
goalscorer
##ो
comment
##繞
##辟
invitations
linux
##赎
涞
peyton
##槽
temperature
##暂
ranging
鍾
奪
sealing
##ote
##闺
##aca
la
rochester
袞
536
##iction
video
婺
demonstrating
demands
surfaced
比
##貪
50
荔
fastest
bumped
imprisoned
vikings
##get
##执
hc
几
operatives
tasmanian
touching
##伝
existent
##墉
##uter
guadalajara
spa
pancakes
居
point
##总
##蕎
scent
⁶
wells
釜
walkway
##体
##ikh
odin
诰
1903
##阆
slayer
##ncia
ct
屋
somethin
愈
sanskrit
##♠
subspecies
chilling
蒻
鸠
book
japanese
1992
anatolia
摩
humour
撃
ס
謬
306
##锵
##cratic
癱
lakshmi
malmo
惫
##橘
oscar
volleyball
##藿
1715
bsc
debuting
濤
倉
雰
动
跹
beat
returned
commanded
choosing
airbus
##erin
decrease
vedic
##瞿
##ams
academics
##،
##廳
靖
molten
峽
##獠
futsal
溪
thickness
experiment
characteristic
dirt
杵
胄
paler
##门
share
politically
poe
##lary
giacomo
lillian
maori
applicants
deal
##ser
5mm
minus
striped
且
写
dogg
##构
発
tire
##kumar
susquehanna
￥799
claim
##降
ranked
travis
renewal
##酵
##rage
overrun
##nstein
##sma
##lth
nba
##ely
merits
##込
##吳
1910s
arching
35th
stockings
糕
ᵗ
##氰
##cer
芽
hindus
maps
peeked
gathers
piss
陣
▲topmar
##tated
fielded
邹
pirate
patriot
etudes
shit
##整
escorts
##综
溏
##lli
vittorio
frightening
##ь
##恙
formats
##eda
嘿
bolivia
rubbed
vs
spring
lifetime
shrug
esq
for
1839
arteries
bride
邛
##〃
胆
##ylus
◆
##嘔
grady
mechanic
##lok
枇
あ
voltage
heartbreak
##檀
nanny
##岸
##れは
avon
credibility
thornton
##mmy
linden
仲
号
剩
滩
flinders
unusually
replica
tourists
multiplayer
##iad
報
##bbon
launch
moths
淌
subdivided
uhf
##finger
criticizing
##錐
檯
##污
accredited
goethe
##dy
surrey
琅
brighter
##萩
##neo
##甾
sutton
舰
winner
##nock
##rrier
1658
龔
moore
korean
##।
##彼
firms
##寰
nato
hatred
bearded
rn
travelers
##oue
題
##證
deprived
317
##lma
thunder
raided
outlines
quakers
彻
##egan
kidding
জ
##sions
loft
确
樞
トラックハック
札
ए
柠
jonas
additions
异
vera
quick
朐
profits
##hee
corporation
earnest
hawaii
##ired
##黛
##urrent
rooftop
涩
compose
##;
distracting
precisely
cherry
齁
##ete
跨
##钾
槌
distraught
沌
adolf
stocked
inmate
柄
edited
弒
##desk
caledonian
足
##logists
bafta
##彆
homemade
arresting
slopes
lou
ems
healed
粹
resigned
褒
rarely
格
諺
android
scripts
editors
hokkaido
techno
amenities
meritorious
tingling
##錶
townland
inactive
allow
clicks
爰
babies
##纹
drew
hunted
蛛
stray
influential
buccaneers
##桦
remains
rains
shielded
gesellschaft
doherty
compensation
activation
雋
hilly
##ロク
##ories
bars
蜈
します
##洼
##pass
slow
##傳
organized
clash
##虱
dispatched
##哭
ix
establishing
guerrero
resurrected
approved
〕
遂
prestigious
mutter
get
3100
guts
diversion
talks
michelangelo
werewolves
##ய
berlin
loaded
励
##ィ
##rity
##shima
hoping
interrupted
territorial
dlc
click
##fire
##劾
gel
э
nicky
gabon
##lies
congregations
colleague
say
##啊
##祂
穗
閣
hamilton
癞
鎊
restrictive
##规
jolt
##crats
塢
餵
retain
蔣
##lessly
##fin
heavenly
##宥
effortlessly
bangor
fielder
##itte
diploma
##inated
##刘
breasts
essen
頂
growls
贯
hosting
elder
d1
musique
缴
##吏
nominated
disbelief
elevations
silvio
##raya
du
estimated
comparison
##眙
blu
##rries
hernandez
##won
##nar
tapped
##更
姻
##ut
nomenclature
##abia
阇
communal
catchment
##་
旧
tombs
faerie
ʃ
##殘
##葳
##烈
坵
祉
##鰓
constitutional
perfectly
swollen
瑄
raids
olympian
kimberley
☆☆☆
search
##獨
５
岚
showed
##涉
drawer
憂
##伉
bones
ᵀ
##萱
illuminating
н
吱
hyderabad
溃
##ags
capcom
ships
##可
puget
glacial
##祭
する
##聽
berman
utilities
andrey
##mont
##斥
aggressively
genres
##法
accreditation
##雍
##葡
##vao
##geny
iii
village
##借
spurred
fifties
##諦
▋
##深
##eld
##左
例
蛔
selects
grid
impatient
cambodian
cinemas
stemming
ljubljana
焱
##nd
strawberry
carriages
milton
##sden
careful
fire
lengths
508
persuasion
heron
垛
惘
module
##0
tits
##匕
glover
##粤
拮
##ibar
釧
buchanan
##ining
ferrer
鈣
trailing
-
##pact
q7
##茄
沉
div
heresy
覓
mcgee
##敝
dirk
clouds
猴
3g
idf
breathing
ャ
##cala
卸
valle
##lining
dom
##pani
##arable
##86
伐
₆
##髯
wavelengths
geologic
identified
admiring
primal
##aging
裨
swords
dion
##玄
tissues
##ध
##跷
##∩
##含
jace
haunting
##戈
manipulating
civilizations
饯
##es
岬
##λ
gaze
##铰
##資
##捐
severe
侑
depicts
mitochondrial
b3
crack
calculations
铀
##ও
ワ
##oma
譲
##pose
離
##akes
##lub
a5
foremost
诙
meridian
carriers
gently
blessed
##圣
sacrament
##ན
airmail
##sler
distortion
borrowing
reeve
掠
##諒
##rrow
##崎
emotion
rex
sweetheart
nasa
##豫
attractive
zone
冤
woods
##圧
##dr
3m
焕
fist
conical
##tained
waste
symbols
regards
salzburg
##槍
crowley
##敢
##炮
##2016
m³
drafts
aspx
isolated
cheese
##訁
1999
##頁
##褓
##廁
⑤
##鱸
##葬
##襠
##吨
助
ronald
筋
photo
rapidly
預
regarded
##葫
##une
##si
##ip
##掙
emperors
##bain
##睞
dorsal
眙
unnatural
kinship
bundled
excessive
滟
necessarily
##wide
yong
haifa
mc
寫
##枕
prolific
viruses
##喫
cadence
##內
##tana
disagreements
##瑋
online
壘
knife
qualcomm
##kur
##蕾
蚕
kits
##例
##貞
##遢
##碱
##olic
楸
##损
##战
##rret
##tel
showcases
##ᄆ
疔
xyz
##曬
handled
免
##liner
paws
seems
繃
expensive
teamed
⋯⋯
asked
##br
##tial
##ager
1679
壁
hurled
sanford
薑
##陋
##轿
##els
列
蓖
suggestion
##gate
seattle
1870s
墩
##跩
##礎
7866
caliber
lunatic
upgrading
temporary
dots
thoughtfully
龚
braced
petrol
cried
##実
demon
##jord
cooler
##dog
lesions
##サイト
thoughtful
markham
##疝
dresser
##eti
##蒻
crow
mets
##sation
##onsored
⦿
wheeled
benign
##croft
##伐
valves
jong
##査
##礫
prostitutes
集
management
archdiocese
122
##奠
penetrate
恳
charting
liked
悖
##掴
##肌
##par
##dding
rowing
confirming
##檸
unpredictable
##時
role
installing
##gma
barney
忽
##僕
marley
虽
nhk
##verted
##proof
##篙
802
demand
harlow
sibling
墾
psalms
ಾ
##喟
ʂ
##皱
michelle
##rank
##権
circulating
桠
stroll
bordering
immigration
returns
jorge
馄
may
mysore
頜
drying
ideological
southland
tones
1630
##芍
坎
##⁄
salts
##疖
##膝
##bola
##櫃
india
##nny
jenny
玟
silva
1879
##outs
history
persistence
wr
followers
poole
##血
material
apparently
discuss
fueled
tangent
齐
consequently
##had
##辮
##憨
##ui
precise
##wes
rd
cheerful
##`
steering
exceptions
paperwork
##jak
##ை
couple
##amp
assent
cuckoo
##—
緻
aubrey
genoa
ｗ
##珑
hold
beans
examiner
##沅
remix
fades
crawley
赘
scarlet
##听
染
##党
##さ
assists
軽
vaguely
1770
##dran
##队
##optera
varsity
fc2
toppled
##phobia
##铁
##tative
##yna
顶
gael
##cton
officers
propelled
##偵
##kovsky
aws
##gold
studied
helm
##oured
chefs
outright
鹂
蚵
颈
蚓
##踹
foothills
eager
violated
##濫
瞠
##dock
democratic
sac
杷
violet
geographic
耕
##戛
##ᆫ
##stis
##ube
##霜
caste
##宗
hygiene
##chal
reluctance
耿
mice
##len
##谎
rte
稟
##溉
adapt
珈
ａ
ส
acquitted
bono
算
##甙
##棄
roaming
attendance
##ggy
##録
trench
##慶
躲
brilliant
2009
sheets
demanding
handing
900
launcher
kensington
##锡
##祎
maddie
knesset
jim
premio
dutch
##纰
##轻
##sco
gao
musically
纵
##潸
spanned
donations
grenades
heroes
reprised
脘
沫
piled
assistant
##剉
exact
aggression
betting
unemployed
abs
##010
stimulated
orthodoxy
coalition
rhodesia
艹
contributions
reside
marina
terribly
fluent
##寄
##拼
change
panama
chickens
##棺
##mma
溝
believer
bukit
fra
clad
##薩
sobs
republished
flash
handgun
sha
##膊
beer
sharma
fucked
collaborative
书
dan
field
copied
鬃
弱
commentaries
##芃
preached
erwin
##zard
edmond
犯
quinn
瞎
ion
逃
##ulated
obesity
tab
wheelchair
cp
pulse
grateful
absorption
烯
francois
餡
##星
inca
nightly
distributing
1973
詐
##責
lectured
chicken
##掉
intact
##掣
##ania
acer
层
stabbed
##舔
worthy
##750
##彧
萃
##co
1953
##腫
##鄭
##mide
aquatic
##吶
##wu
fay
accolades
##ᄌ
toxin
槓
##ively
waited
contemporary
ashland
仓
cad
nipples
##赔
sherry
##f
cylinders
礪
##對
liability
##∅
1912
defenders
fps
##mani
##ches
##硅
napkin
##bbly
##れて
decline
##顷
##њ
##丑
潸
sense
mammoth
albuquerque
##叡
鞅
園
##iling
綑
cellular
descendant
exceptional
boycott
ו
饮
quran
##uder
##wk
lu
ம
classify
chose
birthplace
lai
##颂
更
##卻
##媚
respectively
macbeth
calculated
##aur
##━
##sto
vengeance
cha
##onis
ufo
labs
##親
curves
grins
trout
##jn
徐
棄
venezuela
##浮
slick
蟲
##峭
sdk
##廬
of
##折
##issa
##º
five
條
proficiency
##isen
既
elimination
輓
spray
##乃
郜
##蚯
operations
304
４
rooney
execution
促
plush
##↑
##bria
疣
浮
推
facebooktwitterpinterestgoogle
instrument
##涵
残
"
delicate
cornelius
mri
weaver
##拯
icon
slipped
sounds
mandate
heidi
orgasm
##gano
##cene
farms
##hers
austen
entertaining
##いるのて
##粘
petra
performer
trillion
skull
##ecure
twentieth
biomedical
姊
lana
##gnet
##噠
##person
∂
雀
sacrificed
##琬
electro
cynical
##錳
nomination
profoundly
##椿
##若
罰
ieee
hooves
##◎
础
##za
ll
clinic
##訟
footage
layered
##腴
watching
established
rejection
cw
tasks
surname
electromagnetic
##｣
##臆
跳
##餘
redesigned
閲
therese
antonia
##cal
tired
concept
窨
饽
##舒
away
drag
##lund
tolkien
airborne
盥
##榱
##iente
##劑
european
momentarily
flicked
359
rican
##晷
##魏
!
##专
##merie
##bre
##臊
protector
dislike
sheila
靡
##氧
turbine
view
pioneering
viet
own
fantasia
##雌
戍
briggs
##tify
tow
肇
##ahl
ismail
##ج
湾
west
##鮮
##sky
##向
slave
趋
gospel
paralympic
##凿
##徇
tent
banda
optimal
support
rq
##aa
nigerian
concessions
凯
警
##亻
shafts
frescoes
lottery
##順
##bi
protests
近
45
1862
姿
103
dean
##钡
attribute
slamming
insulting
ᅦ
輝
gentleman
abbreviation
ralph
canberra
##agne
jc
utilize
圃
##mond
念
chewed
##酊
issued
fund
բ
革
clench
渉
市
life
mercenary
##დ
##眦
彷
##蔼
驳
numbers
砲
胝
ত
tenth
steppe
##癮
##别
##螳
advisor
##wife
##擺
parade
deadly
##ث
##とう
##chaft
##睨
graves
context
##原
lessons
##para
##uber
権
转
138
planned
theologian
##溼
payments
##暢
haunted
ec
derek
xxxx
##mb
##桜
##fs
囊
★★
##ding
##啶
basel
溼
酥
marilyn
##瓊
##otic
##nea
nestled
nand
postage
eun
##籠
##rai
##rse
influencing
##確
crucial
cremated
风
fairchild
paddle
ᵤ
##牵
ض
dolores
孔
substituted
foam
espionage
kenton
仟
##丹
especially
grow
vain
dissemination
##忑
##妳
anaheim
ヨ
enigma
amplitude
蝴
mukherjee
web885
絲
receivers
81
る
hurt
shopping
##?
armando
erasmus
##漸
ㄨ
##悍
##苄
explode
shake
詮
nintendo
hancock
##豉
攫
##傣
moving
payload
##ead
犁
渗
##覺
nothin
##哗
牵
dentistry
bernardo
biotechnology
9595
hips
listener
tinged
貳
##チ
憊
drawings
橘
cumulative
staffed
1111
lauded
coupe
earthly
埔
looming
廠
genera
grit
pocket
will
olive
voiced
ramos
feudal
##tsky
harris
##itis
respectful
餉
##儒
##分
##劇
6500
##base
filippo
校
珞
rent
痪
quarterback
##adan
##衡
mentoring
猩
interdisciplinary
##劝
痉
shamrock
##eborg
cambridge
資
巾
clear
颉
pageant
1935
stumble
fifty
##ght
significantly
##篮
##▅
travellers
##liffe
vichy
graf
blast
jon
粕
##週
▬
necessitated
##支
##uded
blood
accuracy
谆
##uze
##codes
cones
law
structural
prasad
layers
scraping
valley
三
mutually
xa
##昂
assumptions
咲
grange
homecoming
capital
grew
i
column
##aly
ode
萝
##衔
##ket
joins
hindwings
pipe
##iled
##bson
executions
##亭
1982
ninth
##俎
fabric
##歹
հ
##柄
honolulu
嘶
##鄰
囫
rituals
##逝
quadrant
usaf
婭
leonnhurt
owing
##逞
stationary
擔
ありな
mutant
##gong
兜
aide
##ways
##pala
］
generating
famed
attract
researcher
dipping
amg
trauma
compositions
洸
privilege
稚
د
##桅
phil
##run
##wl
crabs
技
eastbound
##orio
lux
ε
##リー
wrath
鲈
went
##液
mental
ъ
##軾
氪
##激
396
niusnews
##緩
officer
mckay
saturated
rick
##范
teachings
##स
furniture
裤
strength
##虏
formulated
##鹤
##tula
劳
step4
##織
簿
uss
spite
蹈
##‥
罩
shooting
##cco
##zily
⺩
adequately
##dez
yorker
quake
vista
routinely
##)
##page
rm
个
council
apartment
铸
aggregation
pry
sanity
紺
relocating
fukuoka
coat
gentle
enrollment
##him
masks
owed
leinster
propose
##gly
##ern
##ㄅ
傾
laura
務
##喳
9000
##vies
butt
ie
unexpected
##ards
##yoshi
partisans
##⑷
danny
﹝
papua
##➜
##腮
##onzo
鄉
heaved
釐
瀧
rap
##锚
vanguard
liza
娉
bastard
serviced
darlington
1086
をお
fumbled
joyah
椋
##鬢
##喇
##続
shell
##ւ
incapable
##肮
##leton
##fus
pigeons
wanderers
##輾
1790
##ume
##颢
##inal
1911
unfair
pk10
solomon
ancestral
##懈
皖
灯
##ics
elf
baker
repeating
##nary
steamship
outfit
##opped
##tag
##taro
167
stint
##冀
provisions
##绒
##oric
binary
occasionally
universally
##贛
##udy
births
##淒
real
##sities
##没
辛
##仕
adele
##栃
rodeo
厢
耨
##撼
big
##sty
logistical
##斎
##aid
form
fiba
transitions
64㎡
jimmie
harassment
劑
掇
ceremony
撐
reasoned
##玑
##楔
##燴
vols
sleek
goats
frederick
excluding
simulator
1825
resemble
##眠
##騙
##准
restricted
victorian
lexie
##ia
##蹇
1756
wildlife
confidently
瓦
ras
##pid
##hre
1656
adulthood
flop
##ʀ
##ible
餚
bumps
apex
##孟
nietzsche
ㄏ
##隸
##唳
惩
deported
##▎
sata
##綫
##filtration
rumored
##dded
##gart
縁
15000
percival
cantor
##urs
##zzle
bounds
##塭
sounded
##kata
friction
atlantic
mclean
cosmos
##有
finals
wrenched
sailed
##氹
##fan
##糟
astronomy
辙
breathed
elections
premises
supplement
緬
cambridgeshire
constitute
odessa
connacht
##痙
##ver
##sa
##mous
shudder
vikram
unison
##占
##阶
bandages
##秃
targets
##聴
wizard
瘙
##king
##lova
益
##ard
粮
providing
専
萧
grenade
##厦
distrust
subdistrict
ross
阉
clue
板
##oes
護
##株
##bei
ₒ
reputation
佤
##瘠
supplying
gov
紮
croydon
funded
ᴰ
##xon
margins
dilemma
##滩
gerais
##↦
##衆
杞
ingredient
twisting
spices
thatcher
emmett
margarita
improvisation
抵
hillside
##76
##ssel
操
註
嶙
##hay
practice
##伽
expulsion
銮
##zow
gg
しの
rupert
cattle
难
##飙
998
##ream
replacement
##rked
feat
##頭
##lewood
##瓯
##igo
suggests
##viere
planetary
trails
skype
瑕
avenue
朝
morse
singles
journeys
lakeside
##郊
desert
##脇
rna
##fx
##摩
lithuanian
##beau
豎
##ہ
##緬
##山
##us
##駆
##گ
##piece
##fur
##ctionary
猿
脇
ibn
kota
dickens
##rian
playboy
##笼
insertion
##橹
distinguishing
##哐
jeep
##alk
##砍
appears
jose
peel
##isto
##oda
advisers
##lese
##tl
expressing
##题
扔
##kell
29th
locus
crv3000
shelters
moderate
parcel
##oof
creation
connell
antics
憩
goaltender
nazareth
mosques
eurovision
holden
1826
##涤
ψ
穎
袱
##fet
ヲ
paper
##眯
kick
འ
standing
brandt
##苡
勇
nervously
拐
##琺
quot
tangible
unionist
collapsing
correspond
alarms
declaring
se
testimony
img
1794
杼
ios9
further
salon
祎
infused
説
停
##oss
買
vol
covert
##簇
趾
扉
衬
瞳
lazy
鞍
encoding
聳
pupils
storylines
spawning
##即
lakers
bracket
姬
##玻
##容
##呸
গ
##走
break
browser
ㄍ
##忻
seventeenth
app
differed
耦
covers
##燔
詡
nascar
sort
##ttered
nichols
懾
驛
airbnb
##鼋
belief
warn
pharmaceuticals
貸
clause
fell
fountains
helen
诛
veterans
##wana
memorandum
1724
##翔
polytechnic
pri
ᴮ
imagined
q
ubuntu
##馥
蹋
parks
salvage
instituto
霞
comes
##酣
窈
spectators
raked
iris
##ります
informs
immunity
fastened
humans
demanded
##tium
##癒
##rial
##魍
##itation
think
レ
attitudes
##falls
condor
politely
extraordinary
alarm
##gic
##擦
unconscious
##rill
remnant
蛙
progressive
##踱
##佥
qq
鸯
顫
瑣
coats
##鼓
hate
tc
blogabstract
舜
##room
##mity
##wad
會
##侥
##区
##犹
##転
momma
decreases
lasting
##骅
glendale
##恢
惮
eligibility
3800
length
##uven
gasp
##毯
##aya
跄
ripping
bwf
mondays
##瞪
secrecy
miniatures
tutor
##enary
金
researched
disciplinary
ducked
##脉
satisfied
cultural
##綻
opposite
##咻
lok
tilt
brooklyn
acknowledged
##娑
thirty
##خ
creaked
##擱
##解
##河
氤
tis
龟
32
##cule
##ヤ
mexican
##kko
##軒
##減
##饲
starred
cloud
hydraulic
薔
##კ
##rval
##ened
##慑
traversed
invade
bryce
wishing
##咎
smoking
banker
yield
nos
饴
statewide
##經
##挡
詹
##珩
mercantile
##賁
##worm
bed
##渉
氾
transforms
jian
##let
dramatic
##houses
dioceses
##imated
specifically
##厭
##令
係
bulldogs
績
倶
acheron
noting
harrington
##隠
##鐮
cured
１
##9
confederacy
##zo
哌
downstream
尻
友
##63
manpower
堂
ⓒ
clarinet
glen
巳
saturday
corps
##meter
##ri
mastercard
##頂
##shed
鲍
##ashi
##li
recoil
##赣
ு
≈
##矽
##ings
##霓
huge
museum
theological
瀑
鳌
带
牠
##skin
scare
輔
蝉
##かな
請
406
marianne
rust
##威
勧
silver
##type
箐
degraded
模
colombia
覃
renumbered
grave
##mat
membership
emery
351
mechanisms
baidu
alvarez
librarian
捣
126
给
㗎
inverse
galveston
ukrainian
pts
buffer
bluegrass
ज
栖
snaps
1625
##哋
tko
guardian
##哄
moreover
giggle
agenda
marta
mannheim
outta
##盧
economy
volunteered
乏
elevators
mono
anguish
##✦
吊
因
members
denny
rooted
##tation
##bler
working
##hor
actresses
##…
fiscal
##95
##瞑
vijay
##ub
##麒
##fight
‖
screamed
##ј
##詮
##妘
indus
refers
遶
sunshine
##幹
##塗
##貳
##mit
hal
##powering
吖
坠
繪
substantive
oppo
mayoral
發
##forms
##柔
##赏
けた
##滂
##inations
～～
narrowed
钗
yelled
##pers
##騏
##缇
##walk
##凋
siren
leung
bombings
madhya
vastly
ripe
64
##跆
piazza
epson
##仲
know
##簸
1774
##dicate
##udged
茭
bois
hayward
##ール
##丙
##lake
##绮
paranoia
commemorate
adolescent
indicative
賓
##feng
keeps
mumbled
wrapped
scorpion
羁
originals
ping
##枯
requiem
##倆
springs
喳
hallmark
##桶
##餛
##状
潰
printer
modify
retained
##∠
34
##髓
ebony
##水
游
##蹄
leaked
camden
introduced
##嘢
##僧
dwellers
humble
yells
dependency
##iness
##梏
handling
##差
##pps
sung
##卑
剛
娠
manifold
##狽
##祜
lucknow
translucent
brittle
鄢
survey
##兼
atom
##dication
flagship
kam
##uation
##詹
贱
treated
wives
##嘭
##蕲
穿
initially
satisfaction
day
##rrick
pour
begun
cushions
141
雹
than
corbin
groan
##蹟
擷
1641
##鳃
deux
驸
拂
played
b12
admits
8gb
prescribed
损
acceleration
秋
toe
1985
fat
涿
##帅
##आ
##schen
##pta
populace
transvaal
##pi
1010
##桁
tao
whistled
fielding
##朗
joint
avila
pitching
shreveport
##ntation
athenian
##ier
##lch
##ntine
刪
##膩
roche
眨
resolved
moon
##nce
flex
##喘
regretted
##釉
guise
hamburger
##eley
陌
##oth
louise
brno
transform
para
tendency
before
jolly
苡
fishing
hugged
engineered
cheer
##くれる
##ι
##獸
##aus
e88
bricks
potentially
##sai
11
棣
##jy
翔
##乞
coca
morley
##owa
伊
brake
macleod
##芮
釗
##邢
swam
insider
olivia
頒
paint
##镇
##bahn
##site
livery
崆
##y
轄
ける
spain
启
gifts
peabody
waldo
cis
backstroke
rewarded
≤
践
屍
thanking
dictated
疳
##优
藜
##勇
##umber
1234
焉
狀
consultant
邢
##遇
靚
scans
##渣
animal
fascinating
##✈
##嘶
ave
##霹
barnard
##buch
##pa
##蟠
鑲
hospitals
clubhouse
muddy
๑
cue
##丿
uzbekistan
##／
##layer
forecast
娅
飙
concerto
palatine
grandmaster
78
##玥
##藕
kurt
lesley
聚
encyclopedia
holdings
criminals
##獰
##uating
crossover
拌
quantitative
penang
哪
sonya
##formed
那
##rris
tessa
soundtracks
##μ
herbs
這
lancaster
ˈ
overgrown
recalls
floating
##idal
tv
##burg
鬧
panic
fable
publish
##叽
sterile
hurried
rafael
猾
rumble
鳖
醮
occurring
fake
º
accordion
president
##ok
##ject
##sari
interpreting
核
##晰
sergey
doses
serra
##phile
##灼
cough
##铀
##罷
はお
##ai
nottinghamshire
faded
reviewing
牆
let
funny
ascribed
##w
downtown
##dur
##ttering
tank
passion
suits
punching
eligible
wetland
##g
mohammad
##hel
wings
sets
presentations
dota
##com
##rance
##mura
knob
trey
##coe
议
superseded
fever
downwards
ː
2～3
shoes
##荻
refugees
tourist
##车
coaching
##執
##辉
innovative
##标
##ij
##鷺
##娃
faults
线
樟
afb
轲
bog
肮
calming
briefcase
##掳
old
telenovela
drummer
##itung
reproduce
activated
bridge
##剑
飪
twigs
##⑨
##謝
hull
ofo
hometown
oils
polka
##漩
documentation
advertisement
##嘘
hole
横
##腼
requested
##蕊
bill
motioned
hundred
hid
131
magazine
wei
##ｂ
dying
others
##呋
off
diocesan
reorganisation
叔
hs
痿
硐
##議
stuffed
wordpress
##醇
maha
236
motorcycle
wrestlers
611
judicial
炎
stat
witchcraft
bear
concurrent
schwartz
##heard
xvi
##fe
alternatively
##erton
suppressed
##啥
##tha
rhode
##枰
##ogo
priorities
鴦
##愚
##く
silesia
gift
##rek
1881
##嵘
describing
鑄
耸
junctions
##এ
冲
刹
forward
mastered
##云
worldwide
1728
##おり
asturias
谌
thump
fgo
##潜
苜
##核
狞
軟
760
##rath
clutches
俏
dancing
dha
shirts
suppress
importantly
biologist
##脲
signaled
pointing
##eman
balkan
##skaya
mobil
stops
als
morning
56
ascent
elton
##stov
cheney
媽
kade
solidarity
collisions
##埼
sanctions
vertigo
##oles
student
buckled
io
##abc
##ior
徉
curriculum
disability
chooses
驒
seam
initiating
ok
##枝
hd
resident
wentworth
##ail
locker
##osta
桢
踊
していると
##ig
##lines
reunite
##iol
##oin
crimes
peak
paddy
amusement
##壇
##輛
vaudeville
patent
##闔
##2017
115
curve
scholarships
leto
financing
##nts
munitions
saint
deployment
##se
expanse
盡
treason
##¶
##o2
cheek
where
##桃
buried
##ण
unavailable
伏
bergman
##das
##eles
仄
箫
##资
dim
interpret
individually
##sum
##氲
##ieving
敖
##⁸
flexibility
##穎
moaned
blushed
archaeologists
repulsed
##ए
##jali
single
##rm
##シ
1660
ե
粄
〓
##裕
timetable
advises
卖
ts
##ty
##啖
##gard
worm
##腱
divide
demoted
mp4
persia
999
##brate
##哉
之
guam
##bber
メ
##ᅦ
っています
##奔
##何
cylindrical
⅓
##扔
ui
##py
farming
amino
insides
weave
笆
##elled
##徽
center
beverley
uh
戬
绮
canoe
reflecting
corners
眉
鍥
redwood
উ
##aka
肿
鸨
##臟
governance
ole
gmina
annexation
uphold
▲topdec
koppen
瓢
kc
apostle
≒
##断
qr
disbanded
諳
vickers
aug
##缄
鹄
##cycle
recipients
##冒
exceeding
ld
蘊
chicago
##ミ
increase
enforce
watford
##tonic
configured
then
delivered
##つ
##oke
fluttering
paradox
##れている
##rl
offensive
払
##萬
corpses
biceps
psychiatry
##許
##scribe
appalled
##shing
##瑗
南
worker
tuberculosis
interspersed
curtis
##け
酣
anyone
偕
fancy
harding
barns
られた
瑩
double
youthful
##永
##吱
##匠
conversely
啾
愷
梗
赚
##break
manufactures
torre
##straße
ecuador
##違
edmonton
赅
calculation
msc
ハ
responses
radically
blinded
extract
taught
mn
rock
etymology
含
caps
academia
##のは
##こと
##imov
monty
##咘
##ii
tue
sso
##態
芜
thousand
leased
wrote
wien
alain
##唏
downloaded
##bine
exclusion
squared
romney
##弘
raise
##18
virgil
潼
1864
poetry
richie
gentry
##so
dell
蠛
weeks
迁
diving
epithet
shannon
摁
##淤
huskies
twitch
##kos
earth
pork
貅
生
##魘
marched
pit
郝
munster
itv
飾
þ
macmillan
klaus
##氙
(
spiked
indie
pianist
prom
brothel
crossings
貰
rehab
expired
##ocating
sneakers
ranks
wine
interviews
angelina
奉
relies
##ョ
##tute
packers
俞
仿
promotion
arid
lena
israeli
hinduism
sabotage
marketing
kidney
##餉
##谕
##攘
rollins
hoarse
presents
µ
銳
##亂
勤
narrowly
##ulating
輒
##瀧
patient
馥
seeing
spherical
ska
##苫
canada
沮
identical
likes
mistress
cow
validity
consular
faculty
##髅
##欢
£5
signed
徕
业
拆
nairobi
workout
sand
##鍾
##饰
stones
劫
‘
知
##驀
##ausen
brodie
2002
##柒
greenhouse
ramps
k
哏
找
鮑
龛
。
nagasaki
traps
humid
bahia
諗
experience
voted
罚
drastic
102
pebbles
##运
lausanne
鎗
##च
擋
almighty
癒
storey
riaa
##﹖
##圖
##全
amidst
trait
偉
provence
##ⅰ
edwin
##惧
alike
motors
6a
trailed
pursuing
agrarian
當
cuisine
##废
fremantle
anger
揹
烫
##tops
surf
wonder
きな
immortal
##廂
沖
##牝
##矚
beatles
##orage
inhabitants
##體
thousands
##擇
prohibited
hawke
gc
##mission
佘
##賬
curated
breuning
ㄎ
##ulsive
##揄
茎
bethlehem
vomiting
##ʳ
##hy
##铲
japan
confession
slovenia
##璜
mobilization
##amina
lateral
橇
##睾
##olved
want
##some
martial
remington
symmetric
##閔
佬
##sl
confines
##拆
逍
eyre
commandos
guarding
##畲
臉
tugged
31st
vowel
##瞠
##郧
##ⅲ
験
ettoday
dwell
浪
##剿
##丞
π
ג
##虞
lcd
achilles
vulgar
##撓
melanie
##赚
摟
lamb
mart
燉
burst
壆
taller
cain
##rued
##onne
lodged
##钎
##ʃ
chamberlain
marxism
burgess
lifts
decision
撈
rama
coping
schleswig
痊
proceeding
fernando
004
##凍
x6
boardwalk
瀕
##nio
cope
jax
upstate
##如
thumbs
blankly
蹣
##ctuated
hayes
##kas
direction
##湍
伝
佟
##夥
reluctantly
##失
existing
inexpensive
##堇
羧
承
formulation
burrows
##跌
##corp
campeonato
##active
##rogated
ne
boot
dyson
婧
頓
bubba
racetrack
cba
angola
unused
遮
classical
voyages
pedestal
courtship
⑵
缰
age
te
##诲
矿
##ough
mauritius
bribery
passages
##攻
catherine
verse
##oid
##價
缱
importance
##祟
sur
##旺
rhino
swing
傷
obeyed
valor
##ooped
##lib
##rina
dispersal
earn
枪
guitarists
dominican
squads
tq
macbook
accompany
##andra
##历
sergio
worship
##yu
##囟
fluttered
pennant
##て
molly
strait
仙
yy
joker
##zumi
dunkirk
##媽
##驕
exclaimed
針
patriotic
##tered
sights
##pour
hardin
karma
##anza
##既
约
goodwin
scrape
eisenhower
bodo
illustrate
鍵
チ
striking
garnered
clapped
tod
##lding
##～20
dig
circled
墅
gossip
harmon
researchers
##夸
聾
floppy
1909
塚
judah
unopposed
eu
##铡
philology
glared
徜
reeling
condemn
##lu
閘
securely
□
killed
condom
泊
##tis
##婷
##躺
succeeds
##叔
##牆
routing
##rca
##軍
stunt
榷
g
滑
baseball
欲
##塬
stiffened
astronomical
endowment
ik
sai
揄
carpenter
钤
##推
働
榮
##目
puppet
nicholson
rebranded
は１ヶ
summon
桉
stripes
irregularities
growl
旭
##凈
兹
##逢
##幔
##硕
谜
⑧
repay
##ann
昕
udnbkk
##eur
mentor
珐
##癬
anticipation
lethal
chatting
trinidad
災
##驷
##啫
consolidation
apartheid
##獣
茗
tai
##鈪
retrospective
satisfactory
audience
##itha
recess
neutrality
繞
##攔
organist
periodicals
##辰
income
美
##碾
reindeer
felix
##皚
樂
魂
##舂
陂
▲topjan
census
##近
ㄆ
seemingly
cursing
½
defect
##瑩
##onga
##jo
##ನ
##劃
enjoyment
victory
rochdale
₍
##क
genetic
maxi
絳
##ᄀ
##麦
##fahan
凱
classified
邃
##馍
displacement
walled
##tr
tenderly
discouraged
osaka
gnome
revolving
cho
emigration
465
##gration
##脊
##haus
##趟
##觑
otherwise
gulped
popularized
forewings
grandchildren
loftpermalink
##嗯
##赢
winkler
wellington
symbolism
greenish
jumping
據
university
clothes
dali
kilometers
urgent
溜
maureen
using
ں
拖
囉
戲
mccormick
鞠
transaction
##rak
袭
jaya
eton
uprising
##蝶
##cht
傚
##yan
packages
##哒
288
凇
shared
fruit
grumbled
byzantine
##鳌
soc
##拒
##詫
##钤
bothering
lucia
2013
∼
combat
very
drugged
##瘘
鄔
factor
singular
moscow
physiology
complementary
fullback
寵
##戚
##殒
##讹
1751
wounding
##嫻
##濘
eddie
prove
##樵
谟
弭
sphere
##hn
herring
gabe
tanaka
drawers
mutation
抗
tram
tripoli
復
##cter
ignored
sip
edible
kitten
4800
##llis
##amen
慑
art
multiple
##聆
##zawa
##棲
##鍛
berger
嘢
费
##鸽
x3
spans
裊
perched
robotics
bias
##讨
styles
peacekeeping
leak
demi
orchards
##氡
barnett
墓
topographic
pacing
mr
treasures
freak
rosa
##plex
forerunner
completed
prayer
น
##rford
##辽
✨
传
cbn
huey
嗅
估
申
##physical
##ick
ㄛ
##逵
dagger
cancellation
蛹
##hema
milky
##mt
turkish
thinkers
399
可
片
gmt
emmy
##啱
##gai
##space
complete
纭
secondary
获
geometric
sunni
kay
窑
services
##ぇ
##ore
plum
##tic
tube
腑
things
##瞩
##鋰
adept
babe
inventor
儋
黜
##roller
culinary
##髖
##מ
##fold
kingdoms
##机
messages
conscious
blinked
illness
troupe
512
juno
##chers
##旭
##濑
镀
##coming
##llation
##creen
瓜
tracker
##援
##樣
##东
instrumentation
壩
basketball
threaded
erase
principles
wedding
##赠
mann
##ade
壳
companion
baronetcy
encoded
mermaid
##ヲ
pioneered
plump
radial
##izations
nrhp
##歷
##家
tonnes
##庖
ӏ
crescent
ulysses
##蘇
egg
暉
舌
drifting
窓
##罹
themed
##奇
geschichte
媾
abruptly
5k
##倶
प
tattoos
455
##鲷
sting
陕
telangana
cables
僅
##钵
急
combustion
lahore
##enko
gpa
imagining
暮
##惑
graduate
撑
8mm
fighting
埵
##朋
arrive
burnett
soundtrack
traitor
affect
kamal
narayan
whose
besieged
ios10
303
throughout
captained
martha
had
##襪
萩
枱
##hur
monica
##女
喘
##衾
##虑
stuffing
nerve
淨
蟑
fluid
kidnap
morphology
##宵
萄
癢
™
##罩
##极
color
outsider
les
construct
richmond
missile
qualification
fruits
lesbian
eugen
##戡
##商
##振
phelps
hooker
fingers
353
imprisonment
燔
##gut
##ভ
signing
t1
##ᄋ
珩
8000
##ley
##去
concerns
fleet
舎
18000
upbringing
slightest
1795
##end
pistons
approve
lorraine
ubiquitous
##オ
075
durable
鵲
##ع
html5
競
疯
271
hemisphere
1747
botanic
##芬
murmur
animals
##quet
##kti
galicia
saturdays
311
continually
387
##/
##ference
##发
##餾
皂
look
33
rose
##hid
##胀
ascension
##dote
micah
p2
窖
##aran
嗰
ottomans
##坤
propaganda
sticking
##リア
britain
greenwood
arousal
挨
##74
livingston
358
##拣
lighted
restrictions
freelance
##颤
ecosystems
afraid
narrows
##rane
establishment
##71
##yria
islamabad
nvidia
adjust
lame
鰭
##ulous
厕
ы
９
ⁿ
应
##砂
joao
##蛟
rome
##₹
撂
heroism
guardians
takes
subjects
plainly
rob
chromosomes
##铸
baba
tres
singapore
lois
angle
≫
##顎
佐
months
##亲
nursery
maker
choral
##ɔ
spectacular
罡
##戶
##unce
mole
##說
##ince
钻
14th
nightfall
consumed
dudley
絆
求
australian
##eber
temperatures
ₑ
驕
##boy
highway
##锥
濾
developments
##套
##fort
讹
namibia
鏤
maharaja
枸
･
##pot
dubai
##xx
##elli
##婺
替
whoa
scheme
##eed
##book
morals
1914
##度
biological
##ส
abyss
##ign
ˋ
鳴
##而
##稼
##う
soft
saddle
bethany
crater
绥
##cko
##rative
暝
##丢
linguistic
##iny
ale
adi
margot
107
##lex
詣
##雨
铃
##cy
pipeline
##ond
##牢
packets
##呼
grande
﹍
aloud
grossing
##琉
##幂
##boro
##lam
譬
##dorff
撥
she
朴
peacock
orton
activate
##乩
similarly
##鋒
qing
控
樣
bakery
352
hacked
##bed
##date
phoebe
labels
##翡
prc
beverages
はしめまして
severely
##翅
##垵
鱿
##焗
##扌
abrupt
##捌
arsenic
猪
額
tracts
##損
韧
ptolemy
tin
##薙
∟∣
grandfather
丰
paz
榛
joanne
##先
titled
campbell
##宀
啖
##嘮
kazakh
deception
柒
评
遴
lil
##ulo
##設
都
ric
reaction
columns
award
鄞
##補
either
ʔ
##ulator
shriek
xinjiang
¶
##enter
血
প
accelerating
涕
everest
amin
閾
##嫩
##氾
##苇
##口
newfound
##佑
hawker
penitentiary
说
hello
袄
pondered
recounted
##anta
##茭
##鉀
dunes
淞
opened
##磲
v9
coyotes
anya
##olo
helps
falcons
recycling
creeks
authors
##grant
moors
motor
dunedin
證
##瀆
##纭
cameron
沓
⌒
cork
##耋
certificate
depiction
駒
##附
刷
competing
##eptive
unanimous
prototypes
##凝
ƒ
瞻
robust
##玟
##pd
##ert
collected
##ilised
##氪
binds
##葩
winston
practical
##佰
clit
##膿
tremor
##弾
depict
chesterfield
specially
viper
evaluated
fulfill
##寒
1860
zenfone
##ვ
##處
髅
##饭
andres
志
誠
##hony
##伏
cesar
insisting
usb
##飽
6221
##凰
flush
##tsa
桿
蟹
凶
雜
##cup
渎
hears
kai
relocate
##粑
brooding
##晓
swap
##窥
瞟
galen
##闷
ammonia
鑒
regency
organizational
wicket
##クセス
custody
##饿
##chfield
outsiders
unnecessary
reproductive
羡
244
躉
##啾
？
##搭
analysis
##raj
好
##hered
mcqueen
conducted
##sau
##偻
##锲
columbian
drake
驻
sioux
connecting
commodore
##auer
braking
疖
1905
calf
##層
##igny
pole
##rcus
cape
1877
etched
robber
cooks
##鏟
cross
encouraged
accusations
##cin
abstracts
beginning
accounted
clinched
##wives
酌
##ndi
##勘
straightforward
18
hospitalized
拥
brewers
##啷
##rds
孩
herzegovina
sworn
norwich
燈
##裝
##jad
##辆
##pole
##nan
剁
clergy
clair
serena
贏
##谗
##arte
mcdowell
pixel
俘
##gill
##忤
spells
##豐
langley
modest
weary
bow
safety
prescription
finnish
decree
##谥
##lvin
eventual
∘
favorable
burnham
槃
奘
##矮
##蔬
yarmouth
connector
##撃
硼
标
##泸
marge
penguin
st
擰
##ょ
rally
gravel
##氨
##咫
殭
onward
twice
173
潛
曬
##basket
somerville
artillery
margin
##巒
parasites
hearts
100km
暗
swamp
汹
##みませんか
柿
##鷗
wayne
gathered
round
sliding
mughal
観
蛋
##未
严
##閉
##流
废
jessica
chants
##淄
##mos
噁
##bek
鈔
##rid
##姊
youths
嘤
honored
##minster
probing
蝙
##cine
steamer
##梶
##█
arrivals
carly
繕
dunne
cardinal
ji
##晝
##４
粤
愚
nissan
ि
##颞
##gonal
angelica
reputed
seizures
433
##rave
応
school
stage
##龊
accumulate
##较
堀
nyu
taekwondo
##崛
##樯
##ost
scars
021
敕
##計
་
##僖
##捻
##矯
呗
琏
च
蟋
sat
則
committees
似
induction
relocation
鉴
醫
##ᗜ
龈
##χ
##hall
涅
泮
畦
disagree
donegal
##力
muriel
驯
噢
purchased
messiah
##邮
##扬
harsh
##勁
##rame
##導
siam
exported
##褔
萌
然
##havan
johan
expeditions
燕
##rong
respecting
綬
##泣
peru
##肤
succumbed
ɔ
mask
luxury
woken
##ｈ
basin
耶
effects
锈
sometime
ducks
pinched
##沌
##git
尉
阵
##樁
豢
##叨
civil
light
stil
貫
羈
蓁
nevertheless
##ب
lark
included
##ied
##atter
rabbits
clement
ो
charted
##；
jingle
##皆
reverend
dough
##終
dmitri
碰
送
##@
sensed
##ｌ
##isson
##惱
##it
void
##詳
frm
##fy
scandal
##yd
##gas
asics
鹵
blow
southwest
##0s
188
showers
massey
realized
pickup
step5
##arns
##仇
##３
traveled
eleanor
药
character
footing
餅
##nm
##記
##嗦
traditionally
alla
paperback
##vian
喚
edouard
127
overcome
planting
gray
##grin
唧
脳
pitch
naturally
progressing
london
clermont
##vas
geometridae
苑
pastor
葷
卍
陳
expertise
##nx
goose
俺
lighter
nudged
嬰
##姑
##冲
##camp
227
kenyan
terrorist
gloucestershire
##喧
軸
##enes
盱
universite
preserve
staffordshire
united
sheriff
##涨
詛
1731
competence
併
##cite
folds
羨
##mons
##hism
sept
莽
##匾
loaf
##绦
酋
##泊
chinese
枭
365
##迂
嘚
##tern
贖
##itor
nonstop
擅
transformation
##nba
responding
##zd
##nden
篠
##婚
##恼
海
##尺
chu
facto
rpm
smiled
soothe
浸
righteous
devotees
denise
塞
狩
##神
##sibility
®
beneath
plague
険
芬
##＋
##惴
um
##₁
##殼
铂
encouragement
welsh
##廊
膈
湮
rutherford
##荫
页
remainder
##掺
tcs
subdued
文
瑠
##錮
##搡
altitude
##伤
窪
##tens
beams
##錄
abolitionist
roadway
cache
245
leaves
##trum
hardened
exhibitions
amman
荒
continues
registering
##oman
ʎ
谪
1836
##饶
唇
##rz
concurrency
##erated
##桌
##sti
场
載
##rrie
##汹
##◤
landfall
##巴
hostage
kicking
superiors
##try
alarmed
軌
麽
業
lizzie
interventions
镯
preparatory
shiva
唷
##ran
敬
sailors
pol
injury
##ов
##丐
##悴
fei
1938
rebels
岁
flower
alex
equivalent
evans
pianos
與
rip
johor
tor
draft
##镖
indefinite
vince
雇
沱
erie
rothschild
wagons
玩
explanation
聘
marie
relationships
harness
##8
freaked
flinch
##誤
horatio
lets
##polis
##rg
##„
##itate
矶
##balls
sparkle
##onte
槟
striker
m
##鐲
thread
夺
##妊
援
##呈
administrator
##蕭
##荽
##亞
slides
##投
broke
yesterday
peas
##究
perished
##lia
vibrant
##被
##vsky
entrepreneurship
##₅
##嗰
##kar
regulars
winding
##ワ
諜
挝
congregation
##shida
##緻
backdrop
coined
⊕
冢
insect
communism
ambassador
腾
bjorn
plantation
ʿ
##胚
##昙
##辻
shady
較
##筒
harm
歌
中
factories
##joy
hove
simplicity
broadcasting
##痿
criticised
facades
substitutes
##涯
drain
legitimacy
networking
##ritan
freezing
c
agitation
##辇
proxy
uganda
symphonies
与
ein
coasts
blanco
rely
convenient
leadership
姉
##oto
attendants
collided
盗
drifted
barker
##sher
yep
pointer
receiver
##2007
##с
myspace
##庇
##嫡
腋
##嘴
hgih
滋
wagner
壕
##坨
①
##冠
soy
hydrogen
elephants
warwick
##翻
seafood
耻
##卿
batch
儷
決
丫
##箫
trained
##books
##樾
漉
##ological
kid
shot
##饋
梢
heir
##且
萼
辕
ʊ
statute
robbie
totals
##鄱
victim
cisco
classes
sec
♫
newcastle
##coll
destinations
footed
楹
喰
##stadt
discovery
蛊
surplus
danube
graduating
amc
desires
terrorism
运
kruger
allegedly
##beck
##燁
dani
##uts
leighton
諏
筒
indianapolis
##椹
hercules
##ன
單
dilapidated
##德
擇
萤
##旨
employee
##垛
dfb
278
##虎
l
ou
揉
serge
ᵍ
unaffected
denomination
##拿
blackened
aiden
呂
釁
huang
tibet
##tua
寨
跛
incorporates
experienced
unicef
##吕
##jet
blazers
apocalyptic
##斧
##থ
巖
unofficially
sussex
esp
络
##謹
caretaker
诃
咨
grand
1970
唄
alpha
wards
favorites
##hering
しにはとんとんワークケートを
hobart
burberry
##than
flap
ж
郤
##ocene
冯
basement
##块
elsa
jung
emerge
##赞
##gg
spiders
gearbox
customers
1993
##ropolis
##咀
conditioning
sudan
asthma
multiplied
拟
魘
barbara
boyd
##fest
subset
sincere
##瞬
##卜
fairfax
##ため
objection
##ts
##傷
##kot
##雄
camps
research
##lb
staples
##ে
graded
san
supervisory
珪
##∨
lucas
1746
##aged
eternal
裕
bertha
朱
諒
lea
417
pomerania
minutes
defeat
##紀
dimension
##sell
mathew
buys
蹴
##壽
vulnerable
##ক
鄙
dumping
shuffling
abnormalities
渴
卟
con
##½
screaming
salaries
kat
cutler
慄
##hak
c919
ь
槽
逐
45㎡2
##ington
##vik
alton
咫
rolling
presided
invincible
喺
joshi
confrontation
joining
##诗
projections
##roi
##眶
##gum
##晋
##脣
red
##顧
guilty
##黝
瑚
##嫚
eastward
karel
##strom
##辄
seoul
exploring
tianjin
agatha
航
##http
spears
laundering
頃
##flight
##紡
##婕
pearce
visually
匐
vox
bach
##骁
claw
rum
fetch
1830s
governors
##hold
creating
##ｃ
##ieri
patricia
##vance
##₊
snatched
讞
藹
twisted
証
##כ
##窗
novel
豊
逮
詔
fox
simultaneously
smackdown
fans
lille
flattened
1850
##爰
x4
imaginative
lumia
##urne
emotional
fernandez
f3
ministers
muscles
##ς
riders
habitats
1737
##lion
ravens
skilled
td
bourne
##庆
lawsuit
芸
applies
##anies
salazar
a3
##脅
吠
heritage
pictures
##kai
yeshiva
hung
##aries
##gf
##static
watson
##ece
##灑
heavyweight
ᅢ
outfielder
綠
档
topic
cards
torches
##咱
青
softened
loudly
##admin
explorers
褚
滸
travel
##sp
gram
honoured
##reen
demographic
aspen
tm
hitch
guidance
##鈾
##fers
disruption
tokichoi
蓓
texture
jesus
heard
proponent
sizable
##bund
##eme
##jure
##泌
##骆
radiant
##蝎
##ました
##啞
afford
ᆻ
bel
##just
institutions
societe
〉
johnnie
收
##｡
searched
##jal
##濁
间
諮
promotes
horrible
interfere
transitioned
##苒
##瀏
##ぁ
老
蓦
ɾ
rasped
腦
##卸
##垒
reaper
##yala
ω
oceans
﹙
##tos
99
brighton
喟
缘
possesses
庸
素
dismiss
##秘
amore
##tu
##齡
notices
whispering
静
##锰
diminished
insults
##hui
edm
煎
walls
swedish
竿
敢
intersect
quantities
node
瘍
けます
##喏
##uj
##hai
saxe
仁
recovered
influences
1764
with
rainbow
mia
##北
chao
asha
##怯
870
suburb
tuned
漲
allergic
関
薏
需
lifelong
spared
￥
pretended
##囉
stitches
##带
##ue
correctional
hbl
cobb
barbecue
價
##ero
answers
vogue
##醐
448
curving
鸳
certain
mick
##iensis
minneapolis
অ
hodgson
eb
trees
island
##桂
睪
defiant
miracle
##︱
麺
##回
haul
##set
噶
羔
midland
88
persisted
doctrine
settles
担
page
teenager
缩
##趵
sensory
maria
##惜
canned
颠
potatoes
##2014
##岌
##浸
鱉
##龔
dame
rotting
isolate
##sis
催
clint
paces
##驸
gr
pine
##牴
fond
exiles
##訖
detonated
胰
##斃
##蛰
渦
##bah
cathy
nrl
##ep
##淀
##稱
abandoning
pathways
##倚
investigated
˙
wembley
##ingham
dewey
##ifer
loves
nathaniel
##ll
experiments
argument
step2
てきます
##係
##瑄
sequel
escaping
fighters
臓
##jected
阆
##achi
##ར
##emia
1977
##less
浜
##線
##lain
scoring
##鬆
##風
alternately
meadows
violate
74
镂
terra
360°
贿
email
##学
uttar
raaf
駛
茯
enemy
circumstance
challenged
煉
dt
canterbury
satellites
##kker
##燙
yahoo
br
rape
octave
indications
norse
disco
reminds
章
availability
##闊
淦
cooperation
ornaments
匆
##孱
705
##ʔ
缨
pig
worms
##turing
gunpowder
observes
berth
marsden
冾
##萊
态
##珞
##lizer
184
bravery
armory
risen
2000
##dson
aachen
agra
please
貽
##疯
།
##潴
avengers
lean
kirby
calls
875
物
imminent
##rio
##賂
のお
sas
「
exponential
rebellious
hadoop
##町
##蒹
defence
adding
blazing
dorm
##确
##yen
##慕
切
1906
architecture
##靂
horton
##箏
passage
毽
恆
minimize
bose
##憐
payne
礁
喃
##囝
##sal
looks
##２
definition
##chua
##kk
ⅰ
taxes
炽
capable
##igraphy
coliseum
hammer
##满
fresco
fed
##zzy
∶
##ination
wits
pl
sediments
蚌
restless
asks
bait
##枫
manitoba
##moon
shrubs
嘱
g6
##ⅴ
##押
luca
##赤
##orf
magistrate
##贡
broker
##誕
尕
additional
hastings
cochrane
celine
internationals
smell
witnessing
ira
40th
voice
##拱
favored
ashok
##nished
nfl
ð
remedy
stumbled
##cen
##烟
belong
looking
谥
maximilian
赈
濯
##62
tian
wool
rbi
轰
my
cinderella
##吁
辍
霜
##邊
feeder
疝
##也
##珀
##logy
49
populations
##nard
dayton
fortunes
##梢
advocates
mikhail
dwarfs
蝠
並
##恺
inner
centenary
断
茬
spelling
alto
##奚
clarity
ctrl
territory
##ل
##istle
accommodated
widows
cupboard
亚
##咭
jennifer
##lic
collision
buddy
##吝
beings
##縫
##徐
chopped
shropshire
1925
##ｇ
##廉
piper
贷
no
active
祝
惡
撇
programmes
隽
##錦
dome
##ouse
徴
celestial
##ees
clarify
##aire
ষ
bigbang
##より
##吋
below
appear
##綺
equatorial
ն
鄒
besides
沿
decreed
##％
ˡ
monastic
named
##前
##sian
dropping
noisy
##義
融
tick
323
##酬
merchants
funding
創
formal
paw
shrill
amd
forthcoming
fb
regaining
emc
##之
##sar
jagger
kbs
##坯
hook
##yal
##槟
empowerment
##偿
##flies
code
##ღ
wielding
讥
approximation
slipping
##2013
pandora
level
bk
labourers
##妤
脈
##荠
magnesium
resist
漳
relational
##150
##vington
coincide
##urg
accidental
##bush
##└
jones
luis
occupying
##古
connie
fabian
countryside
咿
ultimatum
superstructure
artworks
fifteen
bordered
##やり
guru
newark
纓
##谒
crushing
interfaces
thyroid
▽
来
laptop
delegation
08
##衙
maine
ernie
plate
邺
蹿
serbs
minimal
bio
##殓
##蝉
erased
computing
enjoy
##孵
##duction
砣
##挚
discover
##从
morales
criteria
##狹
##决
stanley
adolph
53
⊆
曠
estimate
unification
哉
crazed
institute
みいたたけます
翌
programs
1852
##∇
##惭
機
廬
jamestown
獵
types
##good
鸚
render
##旻
##蚣
##暹
##聘
kanshu
relying
##nsk
dates
wo
曹
demonic
1867
tehran
艰
rhyme
mayo
75
##玲
##紉
arkansas
knelt
რ
santo
##级
adherence
緩
##urgent
火
##徙
##覇
historically
councillor
feeding
##≫
establishes
paving
汾
##病
electric
clever
##碉
republics
ref
yet
##anga
賣
患
捻
揃
##魯
entire
principality
overnight
cabins
晝
##dridge
掴
packaging
tails
债
constructions
they
敦
terminated
barbed
popping
##绘
projected
boredom
080
##dna
ட
hallway
鳥
琲
explicit
hostages
⑶
credentials
##綵
##憔
cult
做
drunk
whichever
eli
##rites
thanked
abe
rear
訥
colder
albeit
##脆
##蔷
jewelry
##ange
coconut
##㎡
蹺
trials
##擞
ferguson
蹇
宏
廖
橙
lte
##蹂
##ifice
medley
forks
defiance
why
security
子
##倍
##塩
濫
browns
adidas
##600
黠
win
patrol
ben
##wny
##ently
eater
narratives
res
怎
drastically
tiled
##褲
酬
##lls
敝
outraged
##頼
##埃
##给
1797
養
not
meaningless
guide
##oder
##ith
摒
骥
recognize
caller
guarantee
広
tightly
platt
锻
beneficial
##酮
dram
stafford
瘁
barn
lent
##heater
tina
irs
8g
super
meteorological
##竟
##猙
reflected
reference
host
knox
rainy
trenton
##組
##護
##谨
─
leaning
##pati
sakura
playing
##症
##dio
spitfire
##arians
##咐
ミ
chiba
灝
##来
commercials
##ama
##acy
外
essentially
oleg
a8
茏
屑
2900
##擔
##oon
restroom
ml
economically
sawyer
##芫
gujarati
hop
hampson
ᄒ
belle
endeavors
枚
##澀
##咲
##vable
tenant
pertaining
podcast
★
##leaf
monarchs
##徘
是
epilogue
beforehand
××
designated
longtime
捎
##拗
venues
elusive
lit
##儼
blitz
躬
karim
preaching
nikon
恩
##禮
moravian
1904
##izan
duffy
chuck
banning
hallways
##莴
prehistoric
##んな
脂
suicidal
addressed
##press
vip
decomposition
helene
岩
t3
butte
##冶
##sc
##dai
##ibility
mom
##贴
##干
##垃
suites
easiest
##zon
s5
##日
nadia
twd600
##backs
lanes
kiev
cancel
apec
##孜
脸
seahawks
饍
million
vt
桂
##era
cougars
term
淵
ks
##rito
##krishna
metropolitan
fashioned
enterprises
##嗎
sentiment
嗪
##牟
realities
ო
戦
1846
brody
##礡
##餵
wrestler
starter
draper
鹭
catalonia
anytime
##滓
newell
proprietary
nocturnal
norwood
intersections
sava
##錨
##nap
gay
诠
##轎
actions
conway
creed
○
israel
了
##gman
##歉
遏
guilt
旬
潭
stares
rig
##ி
岀
剎
##瑟
skeletal
dollar
指
##审
##^
rugged
##演
##ᄈ
##为
##由
combines
##沱
してくたさい
##250
##荔
betray
sts
鼠
##極
near
deutschland
熟
grooves
motorway
348
142
##id
北
stair
guernsey
##效
suspense
鳞
從
##螺
pastoral
peat
bathed
veronica
sulfate
)
trunks
瀛
砧
擦
throwing
句
##銑
##匆
carolina
##‘
bound
##亙
##ust
diffusion
關
##顆
bey
##歴
##虛
##撷
ridden
##ife
##侵
geographical
neolithic
edict
悲
constituted
ignatius
殘
18k
roster
naughty
##iring
crab
篩
霁
refreshing
panasonic
##蓟
likely
crafts
##汩
province
vin
710
シ
blended
johannesburg
rwanda
aqueduct
keyboard
1080p
杂
祷
埋
##摹
manufactured
341
##印
elliot
pastures
affiliates
椿
newsletter
翦
榖
##舜
nottingham
outpost
rumbled
babylon
糹
##亿
##語
酗
##琢
##瘢
精
政
##ulin
bandage
effective
minor
tears
##32
nowhere
mechanics
liv
##讶
17th
wounds
##home
forest
vibe
familiarity
admitting
evelyn
##髪
乙
##kit
analyses
##癞
dresden
ballast
task
hornets
厌
ය
##谟
lining
颔
grammy
##ーク
riddle
テリヘル
##炷
##濮
##欒
##键
capture
##≧
adverse
##歛
##綜
uploaded
befriended
ganga
捧
##辜
surrender
conceal
フ
恕
階
reviewers
hillary
套
group
##算
hickory
qui
layer
mounted
##＆
ucla
##撬
trying
溺
##ᵤ
潇
驗
甫
₅
gb
answer
burns
##蚪
##ind
揶
##dic
lick
litre
##tina
##芦
tramway
autobiographical
瀅
1875
36
bodied
##ix
samsung
marshes
qualifiers
##ndo
##阵
##ה
yemen
##洄
##raus
##act
##music
entrepreneurs
膺
mina
##洱
messy
disclosure
feather
iphone7
##歎
匿
sbs
pascal
##any
##eno
programmer
##瑶
humiliation
flora
parole
intentionally
234
p
annex
##mony
##嶙
##狄
commonwealth
stabbing
昌
missiles
reciprocal
##茲
必
##ტ
mania
scooped
55th
##hyl
kurdistan
##掂
ambient
##re
produced
##zhou
1960
desk
deputy
thrilling
名
杈
##杉
across
##ing
##鰻
##ﾌ
influx
thumb
baptised
##追
coefficients
##ク
跚
cyclone
祗
##澱
obscure
##oll
tropical
##置
##marine
lamps
違
208
intended
picture
facing
burlington
charitable
puts
uranium
conviction
##ンク
劭
poorer
faust
authoritative
##雹
changes
盒
fai
detection
andy
##邱
rested
俐
expert
oppression
creator
denial
##弛
grocery
##arded
serving
##八
魔
norman
厘
mcdonald
discarded
棉
sole
##皓
songwriter
顿
weekend
##隐
awful
adoption
sweater
tf
jane
##猛
condo
argued
谷
geologist
hdr
尬
张
midnight
##哂
realistic
shift
##340
cells
horace
##lm
represent
狗
糟
administer
timed
##esthesia
##№
move
灏
溧
##羊
ctv
cues
直
##羽
prussia
##贪
willis
gun
undergo
moody
##9th
eels
からお
膜
composing
##∧
speculative
squinted
︿
##essed
competitors
##铭
##吖
##勺
##anal
##間
##宾
palazzo
final
portland
toll
replaced
ssr
oceanic
polite
citrus
bankers
terrace
adrenaline
curry
##orro
袁
saxony
##rius
##訊
hiking
呦
relativity
trolley
ｲ
##淙
bloc
cavalry
shore
coastal
廉
levin
s2
vow
鳶
##ptive
##れた
gears
annoying
##gur
canvas
鬍
鲱
缭
parts
##nish
##仍
臺
##笈
##ginal
拧
##玩
##諷
busy
henson
craters
projecting
##∽
brought
economics
爹
##細
##lins
##堅
jennie
篤
##黄
relegated
badminton
resembles
knighted
衞
##uki
1759
fallon
coordination
##dick
嵇
opaque
##sett
breaker
啉
持
##祀
##彭
q4
##教
proliferation
##啼
##mn
てきる
痢
crossroads
domino
##迷
athena
鲲
##ｸ
surviving
feldman
rendering
##qu
logan
##gnon
##ことて
##馬
##擷
##ellant
关
illustrates
##瘾
inter
tubular
leasing
twain
independently
捺
##genesis
colorful
##酚
quit
swallow
bible
1709
##pn
焚
affluent
泯
00kg
##thor
##婧
##ised
fragrance
##潍
josef
##ernel
dallas
rehearsal
dust
筹
騷
##繽
##豢
鴕
卻
##aan
francesco
configurations
shipment
##纜
叮
死
掌
buster
##瞥
##敗
incline
sweden
shaped
##rrado
剿
##zine
##van
##ᆸ
铆
jakob
##晔
dancer
##烯
courts
nicely
绛
candi
ق
##嗽
slaughter
explained
against
##膘
痺
趙
##弔
qualifications
##llas
gre
celebration
argus
ranch
##hart
##hum
fraser
##カー
silently
##ros
##媞
变
若
##橄
##adia
##颯
##bib
##ull
inverted
##萧
瘘
##岐
##祺
捱
##ister
##genic
emile
preferring
顱
spectroscopy
mika
imply
horizontally
##stick
##hila
referenced
fe
lenses
楽
mortality
48th
绔
##馴
outlaws
##monium
dawned
险
silky
弩
parallels
##imeter
##灶
探
##烊
neighboring
沁
concealed
anastasia
jody
##sboro
altering
steel
##纍
upscale
##tiv
##ハ
gothic
abc
乾
isabella
##性
yiddish
##isan
啱
##額
##⺩
炯
ج
##苛
siblings
beirut
goes
##015
gleamed
哐
1960s
discussion
impatience
1941
综
教
smacked
綻
##tre
麼
a9
##阉
##癥
饗
##nt
##cus
##block
┃
内
痒
13913459
effect
##沒
sake
怠
believers
##eger
莠
铝
phone
retailer
##lay
闡
cheap
##ana
perfection
dublin
owners
##%
谚
cinema
lara
wind
寞
毒
##wg
calhoun
栋
barre
cocoa
sermon
cap
##艾
della
rustling
susceptible
impetus
換
r8
desmond
produces
##謐
##eim
concrete
electrification
峻
##ress
stanton
battista
赫
cut
cutting
##paper
strap
乘
6g
banging
broken
##dam
##jevic
282
##eu
rosy
415
football
expo
evacuation
blacks
863
profile
##诅
##賠
elle
432
渠
##癣
苣
later
captain
貂
炕
鏢
##躏
northern
cds
##z
256
escalated
##amps
##式
##lium
│
ash
ritchie
bullet
％
##xin
##呻
edmund
漣
targeted
excavations
risking
##佻
welfare
diffuse
hire
##馔
蕲
mack
##剪
clarke
cal
suffered
##bery
responsive
spheres
メーカー
caravan
框
煞
##捩
##bella
##mbps
characterization
severn
##rella
stella
篮
style
ponytail
128gb
transmissions
##ode
elemental
##უ
##▇
schemes
tough
##鮪
compliant
158
rodents
恬
##ntly
waistband
overlook
誤
##吮
boyer
scouts
1942
##倏
indicators
##隣
##oslav
瘾
sisters
meyrick
銭
consul
viking
迈
肓
##勒
charming
##33
昵
remaining
##87
psycho
##ogenic
##琍
hard
谢
##浜
adviser
##ement
##☞
##莅
枢
hannah
壤
manual
##鸨
rye
em
headlining
28
rigid
##休
v1
##lab
harassed
karen
##句
##ﾄ
stamp
##ல
layout
##谩
barefoot
amplified
kiran
丛
thayer
qs
lumpur
friars
##uli
##ད
威
鑾
tulsa
racehorse
针
dedicated
骏
encryption
##poulos
ნ
##child
##slin
trainer
##袪
lurched
##nsed
174
synonymous
medalist
chairman
疱
##tension
darkening
##燭
##as
aaa
##cius
qin
madman
curious
painful
agriculture
colleges
埕
advance
glucose
drenched
##嫘
yi
rankings
##洛
startled
##符
##話
lamigo
belfast
accompanied
姗
##殊
籟
memories
cio
trigger
galway
##ber
##崩
##khand
nb40
##渡
palace
##flict
sis
##后
##ල
##▼
##飛
旁
##屏
幾
830
preferences
sh
##蔭
serbia
danish
覺
##tree
硅
flyer
derrick
嘴
謔
պ
##锹
ocean
x86
舅
诊
triumph
猫
##า
physics
mode
destructive
compute
##shan
##唰
settler
facilitate
clancy
##襯
篙
romanesque
loosened
##墅
##lden
gundam
##簌
ヒンクテンマ3
circles
match
snacks
royal
扒
7headlines
garcia
##打
nodding
案
##跨
唳
##鏖
濟
##惕
generation
falling
clip
ignacio
##饑
ul
prevent
cincinnati
##⑩
tricks
enthusiastic
documented
kindergarten
discussing
##すか
##avs
##res
##電
sham
##芷
##辫
dismissing
deploy
kite
970
##よう
##hd
reaching
##芻
30
kings
##pes
malls
股
these
lights
##幄
nets
##油
##個
##呆
austrian
##兲
赭
##怼
躇
bean
##centric
invite
##搂
chances
晌
bailey
pcb
radar
##翊
##蚓
scratched
nh
##hunter
麾
skirt
refrigerator
祿
##蝨
curling
solids
oral
忏
##輪
##ur
synth
relaxing
##葵
vents
planning
supplements
##¢
##眨
886
compatible
lacrosse
fellows
##von
kissed
##熊
sheldon
##芎
prose
屉
armenian
hui
400
painter
喲
nike
仰
滤
dyed
memorable
م
##萋
duty
##din
cove
classic
##xious
das
薪
⅔
montane
giuseppe
nickelodeon
葡
擒
exhausted
貿
桎
37
seem
##億
喆
montenegrin
assassinated
do
registered
stakeholders
##へて
驾
lighthouse
##ψ
rockies
fished
##稻
隠
speedway
imposing
拨
##噸
##岗
##橋
1835
mon
troubles
##ey
##uy
##袄
ropes
##唾
##勤
horribly
##arina
殁
categorized
##求
冬
sierra
蘿
##嫲
##ﬂ
津
anniversary
colours
berkshire
valentin
rammed
##嗶
鶴
眈
##５
##bank
##險
disposed
##games
##共
##ril
ardent
strung
workers
##ょう
hilarious
beatty
periods
蒐
##lidae
ee
squirrels
eaten
assist
建
剝
##ㄥ
procedural
41st
沅
racial
恥
cellar
##por
flames
dario
several
訛
咒
jamaica
##grass
4066
arden
mathews
critically
碼
⁺
shaman
sustainability
瓏
領
negative
##ゝ
martins
##妃
瓷
阀
##嵐
##stones
臥
dissolve
shivered
胱
拈
ratings
##ogist
humorous
班
雪
mimi
saints
##拧
freedoms
噻
難
realm
荘
gardiner
1899
霰
landon
##烤
erik
##skie
##行
職
歹
jan
谗
##扪
啲
蚯
jimmy
abbot
leg
reggae
##祖
ferry
matter
deutsche
coordinated
倘
##拦
western
##跻
ethel
柑
##ₐ
##nko
thirties
pad
##褐
telephone
teatro
##脸
読
shop
earliest
†
##柢
sable
camped
retreating
讚
蕩
containers
絃
糸
berber
##pina
梧
desire
severed
dail
headed
exercises
ₓ
岸
monte
shipments
barcelona
##shot
骂
##df
氨
##nton
继
##怜
##本
erebidae
insanity
##pre
gulf
么
carpets
stipulated
##榷
directly
accompanying
alternatives
progression
达
##0m
##ר
debuted
侏
conduct
opening
1659
垂
atkins
œ
acids
larkin
seemed
##戀
睹
##oy
##icative
housed
##龚
##oki
tournaments
gospels
schubert
帮
black
##ح
luggage
##滕
n
烨
seismic
##•
##ट
bella
到
seizing
##胫
c4
##遐
skirts
##漫
##琏
弄
hz
缠
suzuki
31
##ɕ
莴
albany
耍
geese
transitional
##枭
commemorating
##ologist
prevents
coach
1868
file
##iary
llc
consecration
islander
speeches
還
伺
甦
##rano
altitudes
compiled
##graph
霎
##舟
vest
赓
##焊
もっと
armchair
plug
ɐ
batavia
kia
coa
fits
##ike
##賴
contentious
##ban
##覦
##暌
鄱
##il
俚
square
##仔
rapper
hide
brightness
supervising
锲
lawyers
botany
路
lanterns
磷
##贺
lecture
autobiography
还
##鋸
option
smoked
unlike
##鹊
chronicles
瓴
亥
reflection
fear
chevrolet
##靦
web
1866
tanya
##胞
symmetry
nationalism
##诃
ty
receptionist
囚
##film
aberdeen
##赖
volley
prank
##怨
warrington
senegal
mas
kenji
piedmont
ghosts
##綠
harp
butch
kinetic
厂
##歼
1024
##lick
雖
般
amtrak
##52
havilland
fence
##cular
##চ
##兵
冰
citadel
he
twitching
miss
moaning
##麋
barley
smallest
##壳
motion
successive
ｖ
ₙ
music
a
嫣
plumage
nsw
economical
僑
repeat
祺
##村
pixstyleme3c
ratified
zeke
dressing
##飆
surgery
##lad
reza
恵
##徒
stands
widening
##儿
##瀘
kendra
##斑
purification
commonplace
clare
skater
abdul
lifeboat
##eta
##₱
safely
sui
steer
hair
supposed
##泽
＊
咀
broadcasts
jess
charles
##薏
剌
domestic
infection
almeida
##а
ব
acceptable
frontier
mere
##cured
ins
milestone
morrison
堪
##vis
tributaries
rbis
燧
chick
买
added
##谐
##ᵉ
bowl
freeze
##池
990
##迭
##word
蛳
kurdish
corinne
镁
##泓
灞
##祝
##キンク
下
convinced
rubin
testament
睡
idea
calculating
mortgage
##笛
##薅
highest
lucian
gallantry
##folk
##袱
##oi
detail
lesson
##yme
##pio
functioning
lal
ə
runways
salvatore
democracy
##かり
difference
maximus
adorned
costing
duties
eighth
protestant
ugly
##胎
汛
dorothy
布
##lined
turk
1742
typing
##enity
globally
##120
montagu
possessed
嘗
cbd
य
baseman
safari
富
##鸚
##mental
憫
practicing
scientology
simulation
crumbling
disney
embedded
witty
320
##90
darby
##爸
##羚
sacramento
bargaining
deacon
aviv
##厅
strapped
##entes
##02
##cope
港
##憊
##sby
ritual
odi
explosives
桃
flick
deng
虾
嗖
飨
##种
dinosaurs
iqbal
mystical
spielberg
sank
蕈
##uce
rapids
诞
390
##free
##▌
罕
##淆
sarawak
exterior
general
221
purported
击
##癡
vsc
precedence
76
##【
perpetual
##hra
sr
octagonal
孤
##粧
taxpayer
禎
##down
completion
怕
protected
cycle
med
bitterness
masses
##ry
b6
⑴
宗
chant
naive
ᄇ
##饈
1648
始
##64
##world
ா
辄
pierced
gif
daze
technical
##ys
##七
oversized
twins
襲
繫
##鼻
escorting
presses
##飕
hollywood
##轶
ת
择
dozen
tilting
burma
starring
protesters
##兩
1768
crop
admired
searing
##划
##隈
phenomena
实
粼
gordon
##釁
##勳
apostles
perceived
kamen
benito
##假
##osis
admissions
##cey
environmental
noel
ی
penguins
人
紳
##庾
##tering
tablets
za
у
扮
lace
attractions
tenure
##ario
uv
##itzer
拚
liberties
fork
nature
westchester
problem
floats
keynote
堤
##躲
##hir
##嬸
##調
based
##uron
绢
benny
##kled
##dm
##mology
advertised
stench
##卖
##钜
foreman
##ᶜ
filmmaking
ড
sinatra
##远
##楂
nap
moat
pete
##ows
spirits
惭
forgiven
惚
i5
##錚
mantle
elise
inventory
functions
##mis
councils
冗
鯽
suarez
剉
shaking
##赭
##靳
diver
centro
reactions
flanking
799
##vio
umbrella
inland
×
##舶
earthquakes
snow
fung
##毕
jenkins
parenting
##mel
##adt
饶
貓
##istles
tatar
gibbons
unacceptable
##炀
##禎
questions
mixes
##漁
hormone
wreath
喀
ferrara
##hop
ps3
##聒
嚴
##d
##粟
##录
悚
跎
晷
drilling
kangaroo
notice
檐
##こ
invest
buildings
俭
##burn
##met
absorbed
wang
fees
宴
戏
##扩
apprehension
dealings
hays
regrets
##蘊
thwarted
local
occurrences
弓
expected
name
schmidt
therefore
##ל
ක
imagination
stick
##曲
passing
##吒
napoleon
儲
compounds
##gizing
optic
525
##鏞
##lem
eponymous
lister
##烁
fivb
swallowing
##束
##菊
connection
##鲶
malaria
##材
simultaneous
党
##lge
对
pledge
##rwood
##wley
coins
##den
掩
##㊣
andrews
##lard
##မ
2008
distribution
冈
##oteric
労
mk
halves
##迁
牧
##信
##钠
posts
##联
consistency
percussion
##脏
uk
蠶
copenhagen
muslim
confront
##ched
##3c
##遒
brightened
bunk
appreciation
##zy
isa
##amo
houses
goo
##facebook
median
##rwin
##enia
てきちゃいます
algiers
cbe
##幅
##森
quincy
repairs
昼
##狠
shipped
诏
shocks
1971
pitchers
孿
چ
##jm
##鉉
辻
greta
archduke
flopped
##暸
6s
ₐ
著
foreigners
1725
nehru
##lash
patsy
##kic
currently
##拟
rotary
捶
##庶
##tted
##茬
frowning
problematic
##祗
screw
缽
##芯
perceive
harper
aus
polymers
commentary
eminent
demographics
communities
garments
##郸
##ential
##賣
shuddering
粱
##罰
1989
猥
歴
save
弼
subscription
##峻
##傻
##bt
姨
lennox
introduction
##哈
##扳
##繭
##ং
窜
諧
##upt
癣
##修
enoch
smack
##枣
om
campus
conquered
tremble
##抜
邰
##槌
膽
##盤
howie
307
vatican
advocated
##‑
##名
claude
##jan
walsh
cdc
aiding
##δ
phylogenetic
gareth
##rons
worsened
##metry
##歸
bosch
408
spark
clouded
carnegie
accusing
rocco
##荷
##ག
1777
133
##する
##妖
##due
bra
affairs
##icle
trembling
晒
swift
帆
norma
counselor
##念
bell
##絢
ama
##water
##谤
##舱
hanging
測
燻
##ष
tower
妻
primate
##chus
clearing
##泡
##mies
杭
｜
##ュ
rhone
盯
##盡
plots
渭
##胍
仮
##helm
##肉
04
monique
axes
##fat
coarse
##妩
sparks
涤
##辶
nah
slapped
nasty
##酰
ae
忌
ah
##羣
##ᵇ
褔
chief
empty
撒
spotted
##阈
苏
diane
##欺
rented
subtle
##荀
prevalent
ᄀ
winners
target
favourite
labeling
ob
listen
##泼
html
##said
##bara
confesses
##鄔
mir
companions
clearance
determines
嗑
##κ
##镶
costello
folding
田
partnered
flexed
flavour
夫
##砒
granting
panda
##呜
##quil
##⁄₄
総
##烦
rashid
follower
dangers
##趙
face
##俊
猙
渚
延
##station
dod
##vious
westminster
technologies
##彻
melancholy
##笑
籤
devastating
logos
樹
##ast
喇
parking
瀉
偃
sg
ರ
##疡
sophie
弈
##鲫
seventy
幔
##itan
##旮
webber
released
430
wilson
europa
rmb
wonders
objected
alleviate
turner
##钉
brilliance
augsburg
inaugural
railroad
##labels
驟
flying
##son
unlimited
naacp
##突
realism
##མ
##数
##璎
##mount
bastards
interruption
gives
escape
residue
election
ho
##◢
##貝
minnesota
##鼹
neville
##頸
##档
integral
fridays
chiang
全
##靈
pottery
monitor
assignments
tactics
differing
գ
archival
ᅮ
##尝
environment
alias
flores
鹰
##騷
##戌
slogan
manned
coe
##奴
ankle
hopes
scorer
programming
##使
just
##案
##締
##菈
451
transcription
accurate
proportional
変
reigning
disappear
damned
##cola
##鸥
drills
414
呜
hereditary
chieftain
##挪
hm
##渦
##ments
稔
##rke
##ating
过
##vation
筍
sport
eggs
败
lyman
鲫
彧
mafia
profiles
uniting
輪
##¾
##阴
##cm～
castro
そ
##秩
線
tensed
press
##彦
brings
nuevo
##fu
motorola
sticky
##颓
dark
壽
##atus
##謠
##毅
upheld
thank
attaining
##茸
himalayan
##脩
##撐
spending
原
##嗓
##ella
1805
##鉗
reclaimed
##架
藐
axis
southwestern
##sso
1816
arches
ruthless
兖
##park
price
##遭
₈
specialization
攒
漕
##枳
katrina
##袤
refer
##rigues
##营
##nant
##尤
繁
baja
##vocation
trent
frog
interactive
##hem
napoli
逆
##د
铰
wilcox
﹞
weekday
##挥
##擒
flynn
demeanor
unitarian
dye
##itical
supreme
manhattan
compiler
lauderdale
lens
researches
crete
munro
##dberg
欖
##敖
##well
gym
schwarz
はい
攔
co
posters
retaining
浊
somewhat
publications
##we
叹
1902
##箍
屯
regiments
tuck
##ी
##槲
sociological
centered
##nai
adolescence
##ბ
krakow
vanessa
mbe
flushing
鐮
奶
##news
6l
貼
丢
emperor
welding
applying
thomson
透
inspector
nestor
nes
fpga
sly
ripple
烬
constituency
injuring
##翁
##珲
smart
##ity
##男
screwed
affecting
disturbance
##ares
##vere
円
屆
幀
yeomanry
assisting
craig
##亮
snowy
##俄
nelson
matters
飄
织
autonomous
巔
##從
##gles
鰾
registrar
are
##凯
″
kitty
##bian
##cted
##reate
次
蚊
##“
庫
##嬅
disregard
鉉
字
defective
अ
worry
hounds
吳
##宏
mickey
jin
howled
tripadvisor
fortifications
##piration
##hiro
pressured
##扣
√
nana
specification
calculate
##ious
##ee
##dier
baggage
₉
organizations
冼
##nberger
拯
389
钢
professionals
ruiz
苄
offences
95
meetings
hating
fertile
##ming
##ak
##诽
carmine
##shu
puff
##重
hierarchy
癸
肥
princess
##eka
everyday
rouse
酷
invites
货
bequeathed
physically
旦
##蟎
goldberg
revolves
##涼
workforce
riga
##每
gaming
kettle
##籌
alone
##強
##ids
distinction
substitution
blasting
billionaire
compared
嶼
##酝
scattering
kannada
bulgarian
罌
pollution
181
sculptor
##鑫
##鱼
1733
head
伯
work
promises
霭
powered
jokes
emptied
碩
pretend
advanced
erroneously
憧
觊
flat
辆
畀
##滾
##路
##ango
vornado
綽
flashbacks
radiation
redesign
匠
##簪
浬
##氢
佰
recruit
##farlane
##宿
mariana
paisley
acted
##沿
##ture
##nting
兮
fiddle
##矛
graz
3s
terrorists
insight
##anu
臼
##諸
booming
fauna
poison
nazis
speeds
legalminer
military
泰
覧
customer
##vel
辦
considerations
strengthen
舸
##fighting
tray
##ほ
keystone
amara
##潦
##絮
3a
##biotic
渣
kaufman
waterways
##籁
##邪
helens
prowess
headlines
午
##ados
build
##99
fibers
enclosed
aggregator
subject
maya
##ג
酚
naval
sylvie
嘆
##岘
##熾
outline
bangladeshi
栎
peking
##皺
tomorrow
弗
·
mouthed
賤
mrna
綦
##icles
╱
multitude
permitting
##頗
##彩
##jin
##盲
##量
ren
summons
1609
窿
鼐
骷
ache
悴
1853
皙
##痛
anton
designs
##pc
##溶
rolled
##劫
contents
manufacture
怂
⋯
seminary
automatic
prior
thrive
庵
card
franks
螂
##ra
咭
decker
罹
seats
gia
##getrelax
删
##や
seamen
脖
##鯉
billie
remy
##ato
detained
##育
soldiers
##ge
要
##练
##疹
alternating
acquaintances
##4
onslaught
¥
谕
boxed
disorders
murder
anthologies
accused
negro
沭
##lar
snout
##bach
搵
##婀
tackles
lucha
##潺
originating
##嵌
rendered
lair
戡
##九
elaborated
嶽
lineman
##鬚
##hide
##anne
կ
1646
されます
信
raft
した
pharaoh
钥
smashing
fibre
##榴
longing
煤
##կ
##袂
demise
秘
##┅
abu
##gb
##rus
##sov
hendricks
故
ultraviolet
##zbek
##ghan
threatens
hydroelectric
barons
boys
##ant
ideally
treats
##fying
##上
nu
listing
##耿
##怒
°c
arab
ying
cruises
##測
颢
sculpted
谎
##软
handcuffs
tarzan
##鉑
ryu
揍
vi
dependence
curiously
1919
吸
談
##滝
##訕
##校
wishes
tasha
艮
hopeful
晖
left
##fted
sized
vegetation
homeland
銓
allegro
highness
tailored
bets
nighttime
overlapping
386
should
recall
##芳
weed
##vine
divided
damp
##8th
##nais
gems
mama
##饥
兰
fold
reptiles
punt
how
trieste
ly
##芪
grant
turbulent
媒
##莓
dante
様
##牒
efficiency
laurie
##検
cord
##ffle
##阇
seminar
elastic
subgenus
亮
##top
##妨
##ter
developmental
雞
serial
backwards
##汪
syed
##诞
紡
popular
recording
mateo
##enham
##娠
reduce
刘
onwards
seating
##loe
baffled
门
lucan
狼
##sonic
silvery
##痣
persist
loki
##斂
chrysler
earrings
朵
##ability
艦
tumbling
jamal
##寻
ahead
##扰
portion
brows
de
screens
##竄
risky
屡
pep
旗
commitment
##縄
蘚
desperately
259
輛
涣
##台
##pressed
laude
##lights
##篤
clinton
ferocious
軾
诬
marko
86
haste
dealers
##cic
##咪
68
depicting
##oper
afterwards
bounced
啼
##baby
homes
clapping
孟
parker
pyrenees
##赫
488
##bang
##肃
##−1
declared
uae
##eer
jacqueline
infrastructure
sienna
borneo
enemies
##歯
##荨
##鱗
吼
3000
##凡
armenia
##dial
aristocracy
##〜
##姣
stopping
199
pentagon
1892
instinctively
depictions
埃
gathering
embrace
trail
flown
sighs
尔
prophecy
liberalism
renovation
funds
computed
occupations
տ
moderator
wesley
##ssion
##hh
拙
佳
proportions
##初
##lke
antioch
##biology
##weig
dd
jammu
##lase
assistants
yen
嫌
leather
c3
enable
救
km
rash
bassett
瀞
##挤
辫
vinci
philips
interactions
botanical
cote
dev
creole
david
cancelled
##英
sausage
bestseller
##菩
1703
jail
##nnis
##nie
lulu
alcoholism
##while
determination
##枸
wilkes
creditors
##甸
##hiko
savoy
politicians
bios
cell
trilogy
##慄
literary
biggest
orchestra
歼
decides
dyke
齋
constellation
1775
##roids
becker
##岑
##傑
padded
羊
specific
##募
##乖
earle
孽
孖
##愛
watched
lids
駆
##策
tremendous
將
monde
lila
sarcastically
wrexham
巫
##杼
methodology
##蓝
##辙
aurora
##驛
##drick
##鲲
governmental
coincided
##finder
##endez
筊
葩
allegations
楮
紋
overall
##plicity
##〞
謾
brow
##han
##谈
仪
settings
integrate
nelly
plumbing
unpopular
crowded
##蛳
铠
##lane
短
榨
里
##噼
##扇
apprentice
##icing
劊
autopsy
##romatic
夏
##nery
rushes
3200
##価
逾
lang
##ह
##絆
##light
nellie
create
responsibilities
##虹
##旦
##rocity
##md
莅
屏
繡
囍
##ᵣ
continuously
biblical
##跤
##荆
但
##taken
nikkie
##蛊
chapels
gymnastics
檸
##寞
smash
義
rom
##rook
tiger
##相
毅
猝
remade
331
stellar
squadron
militias
deposited
browning
zol
##毎
emi
cancer
tornadoes
驱
憐
##曳
finishing
##rrard
mv
signature
赣
nightclub
sockets
糗
connolly
storm
廝
洁
blend
##怆
grades
谧
##倩
stayed
諦
penis
chiefs
cantonese
##注
n2
angus
ambitions
sheet
gillian
ruth
zach
辯
##碌
consciousness
oblique
##删
আ
grayson
剥
mounting
misses
¡
performances
contenders
餓
thoroughbred
villain
ligand
bellowed
cassidy
warm
1833
##mined
##thing
copper
##答
##悔
##爪
呵
m8
apology
##ℝ
僧
##桥
##命
浅
##甄
receipts
coated
prakash
orthogonal
温
##桢
##辩
album
##車
##eras
##糖
panther
鐺
caressed
##ular
dana
暹
##格
##ʲ
emission
thug
苞
fenton
##hell
豺
lure
##氐
苒
sinks
vim
portals
#
montrose
##際
坏
cosmopolitan
addict
bermuda
１５
##坝
milling
unconventional
roam
elector
##sio
##պ
##剌
跖
##ے
窦
blanca
汁
495
claus
earnings
##诩
volatile
wd
eliminated
shadowed
∅
veil
thrill
##dia
联
barred
centers
##攞
噜
##lver
##fect
hilbert
朧
##ivity
誉
##har
嘈
unreleased
##sam
hee
##uard
##ole
砰
##献
謙
goodness
jurisprudence
##los
racecourse
##zation
驀
treaties
##鹌
驊
##ceptive
d3
##唯
紫
##珊
##字
##岀
抜
##咳
sheffield
##廟
##哇
laden
阝
##培
tess
sd
royce
extension
∩
##變
価
trivago
materials
倔
绵
galileo
##诈
separated
蹼
cognitive
橱
##そ
proceeded
##mad
neighborhoods
##酗
##ctic
hats
pile
health
1891
##讧
譙
##疮
##ulia
octopus
##驰
泥
##咿
俸
##备
trade
reprinted
恪
amendment
##木
foreword
##ave
睾
##鳞
##曉
tobacco
祀
primitive
##卞
时
##⒈
injustice
007
##等
malay
##继
xiao
voluntary
assurance
plane
##dhi
##フト
ra
embarrassment
routines
##鹵
crested
川
publishing
##ad
taxi
lower
shimmering
meiji
imperialism
##bling
##へ
##滑
borg
equally
jude
conflicting
sequential
##弥
##悦
midfield
##脈
##ব
##查
χ
##dda
##ˤ
integration
赋
罂
##モ
##遣
fledged
biodiversity
honoring
goalkeeper
oaks
##礼
##肄
²
##俪
##餓
tito
吶
##cytes
insurance
co2
alfa
##ʎ
##ր
郑
dragged
encompasses
tomato
inspectors
cemeteries
##eving
##chu
缸
窩
##pace
##补
apps
仨
##抨
ascot
labelled
山
##sw
##頫
r1
##萌
氷
##bic
favorite
##pp
##ta
##dis
tracking
##bruck
稻
ourselves
ia
bard
hahn
捅
prime
##庁
highlanders
dowry
蛇
##狼
##sr
castles
haryana
酿
aviation
##沭
certainly
freyja
550
祖
##溴
reassigned
##鲜
##lates
##sts
憋
appointing
furnished
mansions
猎
##bit
##霧
##athi
peripheral
climates
felipe
flaw
◤
atmospheric
##気
computer
dip
casablanca
lan
bitch
##spar
sanjay
##｢
##炫
https
gonzales
释
horned
蝨
mocked
##ending
毗
finer
##hl
##lusion
lane
acidic
neill
##姥
息
flung
##晃
绅
##po
mechanism
##27
##nation
rfc
##聯
stanford
爍
contributed
ᅲ
mary
twin
##gs
somme
鯉
definitely
winds
##贼
鑰
ciudad
孚
argentina
些
釵
past
瀟
##簽
first
±
analogue
##秀
##横
獾
##ata
father
sally
gypsy
##圜
reprise
solid
utterly
css
##戍
砸
##rama
##estinal
慘
მ
##inge
##愆
##mouth
##萵
kellogg
##ʻi
##歙
癥
##舸
戻
ᅧ
瞩
projectile
##venting
选
4d
##nessy
##iam
梯
##稚
828
##姨
##腸
jerk
##瘙
guzman
illusion
alistair
coloration
า
##yed
鮨
story
##龙
appalachian
middletown
sa
badger
睇
##ices
##垣
weighted
creature
∕
##06
licked
茴
##验
bs
##々
judged
sadie
washing
##紹
##います
奮
yacht
flaws
ultra
heels
x
饼
confusion
weathered
classed
martini
base
agent
##奎
interpreter
meals
##zer
backed
##ント
boxer
堑
freshly
yougou
慈
##金
26
insulted
friendships
錮
finite
泸
##蜗
頤
##ark
sunset
蜷
facilities
侶
##稟
りの
brackets
##鎧
gerard
纪
芊
crows
繹
償
##aba
temperate
##舗
霹
##嘰
##ましょう
como
##師
拿
姹
##ง
##bla
choose
reversed
shark
##牡
##坑
捉
##粽
vinyl
α
##綱
fists
鴿
maternal
boar
##癸
##ipe
##栓
##n
strangled
blair
瘀
tends
agreeing
##one
##馒
appearing
1a
grazed
textures
orson
sun
畏
##歆
##uc
usc
##插
plurk
screenwriter
loco
##域
overcoming
uhz
囧
##觎
##峡
zones
##けて
孜
##stered
盘
饅
##盼
saves
budget
cdp
slid
panthers
practitioners
undisclosed
凤
##mini
咂
woodstock
foil
骛
artwork
1761
##伸
##孀
amiga
takahashi
herbert
isolation
shocking
generalized
侗
serials
penetrating
##tri
1843
halle
薨
##のて
luxembourg
##erland
汩
hardship
vertically
髖
outrageous
##uate
由
##描
##论
##bh
##tch
##革
brazil
smuggling
portable
4500
##養
沛
繽
acca
──
##刃
maximum
yorkshire
##屜
mountain
remark
eileen
magistrates
gough
halo
sk
gases
bypassed
##燈
##耗
敵
叉
covering
##kka
colchester
##astic
sogo
抟
pressure
obligations
vive
##肋
traveler
##鋪
ह
weber
剣
145
##痈
fellow
legion
excitement
broadcasters
##oran
##掌
潞
basil
##jack
phonetic
uninhabited
batted
##的
##堺
kowalski
##播
nbsp
##閣
denver
militia
甲
##wice
坪
##哩
battling
##brush
sonata
##edge
tuba
senator
##舛
##ა
handle
##嬿
protest
ware
desirable
entertain
plateau
tanker
誼
嫲
simeon
colby
dietrich
cleaner
##簫
smells
##緋
pagoda
占
##kie
visiting
journal
curled
jeff
##ても
pumpkin
##mia
size
posed
stamford
way
##内
hesitation
##ducted
##书
##痨
籃
捐
reacted
dear
crime
indices
pinterest
sterling
▲topaug
##箝
woshipm
biographical
municipalities
contexts
##殲
饈
winslow
##复
avoid
containing
##rani
summoned
keyboards
##erted
wam
outdated
紹
##l
jocelyn
：
nakamura
##rup
簪
##寵
relax
shorts
counterparts
镌
須
##惋
reeves
１８
##莊
annoyed
pip
忘
drums
segments
腴
corn
deserts
profit
lordship
##宛
柩
jars
jug
scrubbed
##脾
賡
処
##fleet
##iciencies
##踮
##爛
##rel
##¡
comic
publishes
modelling
##早
##ת
厉
خ
amber
suspect
bounce
##濯
danzig
##rled
benson
辘
##卉
幅
years
instruments
##hiff
镶
neighbors
苁
commodities
descending
parramatta
व
##planes
##rsten
michel
イ
71
hatfield
区
promenade
turns
release
ricky
lastly
porcelain
##hoot
louder
1888
称
chanting
##败
depend
mundane
##ake
##ness
饱
##&
representatives
supervisors
humanoid
##羌
coast
埸
novice
##穀
踞
律
樺
褶
##ね
fledgling
371
営
succession
##cate
##样
broadcaster
mare
announcer
cracking
mandela
coco
##壘
##搬
saxophonist
empowered
##撮
grape
leaped
##詠
gasoline
leicester
darkly
currency
燼
1965
sumner
##rman
##谔
ex
僖
胍
缅
eleventh
✿
##ろ
nouvelle
glad
disadvantage
掺
maximize
石
根
燒
綢
retrieval
crimson
corrugated
casper
seconds
##im
润
##驿
##nal
犊
帛
徬
assyrian
insurgents
breakthrough
store
##沪
##曖
訂
wp
##饅
默
backpack
頗
intense
fred
##yad
##cture
nearly
ensemble
goodman
##廈
roadside
枋
4g
▲topsep
hemingway
gazed
##script
##鹦
##哼
##ord
燦
cs
##亳
迴
镣
嬪
獄
sent
develop
darren
alloy
themselves
##钺
names
in
beale
砥
auditioned
hostess
##锁
膠
conversation
tesla
consisted
ufc
ecclesiastical
ligue
岫
##腈
rifle
requirement
deserves
tweed
##mler
瞞
commenced
##sche
miner
ト
claudius
彼
##cha
bei
randolph
㈦
##dre
illicit
bautista
saunders
锋
##涪
浓
宛
漱
flew
销
higgins
nb
guy
dead
mister
##wd
##ius
##賃
刻
casino
manufacturers
invalid
##税
diamond
chaired
documents
##杞
dreamed
intends
##歧
jews
##lder
##09
drowned
bentley
meters
##晌
piracy
shea
reunited
##研
##ʐ
transatlantic
accidents
溢
fair
todd
pleistocene
pictorial
cma
妃
lev
botswana
隘
shipbuilding
##ricting
亡
honda
爻
ذ
辨
financed
##鈍
##cini
undermine
##菲
megan
tie
##灾
厮
着
tvg
bye
##▂
andre
亿
97
scarred
continuum
severity
##llum
##ᆷ
stuart
##埤
warily
##nology
versatile
╞
plc
##promising
盼
forbes
arya
injection
contractual
additive
##ᄑ
踪
謨
##老
浩
major
弥
##藏
outset
planners
ｅ
##情
##89
##up
##瞭
庆
##j
efforts
##љ
today
paths
桔
avalanche
##our
valkyrie
owl
椪
虻
咋
閃
##25
susanna
149
meyer
项
luc
orchestral
祛
##汐
俱
蜆
##ich
##count
perform
れる
jcb
##団
盾
ventral
locomotive
##鵬
ceramics
費
##际
operational
indicator
1754
##邹
tribe
##鳄
boxes
##耸
fellowships
boom
airspace
##aia
##馗
芒
璎
crate
##nee
迎
burt
davidson
prisoner
turnbull
铵
commissioner
bristol
獺
influenza
reyes
lincoln
purcell
birch
york
syn
politician
##悬
ruling
幌
##圍
##腭
错
completely
ammunition
palestinian
##枢
##麵
crept
時
cassie
##plate
##actic
##方
阚
##door
昏
疥
crouch
multimedia
p1
chain
峒
lodging
嘎
##mal
燊
佩
##烩
##ene
##mobile
詩
罐
cecil
humboldt
mule
circus
regulations
dl
forte
恭
翰
annoyance
lush
##隴
mirrors
raf
##wi
##tw
##俏
##媧
##浅
##因
##евич
雙
journey
assert
鎧
いた
##俘
nick
styx
##mans
rubbing
invasion
##翩
001
##舰
henley
戎
bee
catcher
##oe
considering
remake
##urai
##赳
inherently
murdered
扶
呢
##肅
sherlock
foundry
andersen
##11
filly
intercepted
倭
hawk
come
##mann
hilary
##hawks
napoleonic
##磡
##p
幻
cruel
bothered
pencil
sapphire
wavelength
##tm
camille
rai
##五
##tma
##檻
pursuit
grey
diversity
hannover
strips
##巍
##纸
fool
##編
conor
curator
bucks
wii
##绰
噗
##媲
##ives
combatants
长
troll
##痠
belts
##紮
brick
dade
##ifolia
##双
successors
branches
pie
emptiness
阐
1772
梨
tulane
crust
powerful
##∆
##vert
込
carbon
huts
##廷
##癖
extracts
##champ
##riation
１６
##荞
dac
##eus
##zzling
體
battalion
choices
孬
##说
diagnosed
聆
fisher
dominance
bunker
读
##戎
##ah
##豚
##gawa
grimm
##摞
cheerleading
譎
honours
gardener
estates
yunnan
ruse
trois
##植
flickr
##rgos
palma
features
observation
##laus
##紫
productive
xdd
scares
##mei
菟
##固
191
⑦
writ
devoted
鋸
##wing
mascara
tasmania
##扭
畴
〞
indian
mention
ɬ
rivers
##★
##360
flats
##瞄
middleweight
##昀
vertebrae
##彳
##life
##uo
瞼
grapes
vacant
recovery
priced
##sley
##杈
resisted
##ably
telescopes
garner
輯
vast
##谶
##erson
climb
biography
##all
捍
##租
conservation
frost
183
velvet
henderson
##抛
teams
6606
##市
cartridges
bump
##gga
relied
reprint
hugo
##bourg
confirms
fictitious
２４
ℓ
##nell
々
余
gods
晴
replay
osman
adaptation
歛
##sle
formidable
##＃
县
##图
擼
johansson
revision
##ν
##魇
##gu
graphic
##✖
occupy
相
##姆
supporting
笛
securing
zur
burgundy
##ometer
breakdown
tokugawa
##邈
##轮
mobilized
immensely
狠
qqmei
robin
ore
makers
booths
transmit
package
elliott
harrison
lab
voodoo
penetrated
geology
伫
wes
啷
floods
##nya
籮
theorem
cradled
##ₘ
hudson
##bag
掙
婴
raced
supervise
ambrose
葵
7000
##譜
revue
episodes
patterns
tattoo
lawn
##sant
ludwig
nan
cia
schooner
団
cody
訳
聖
carnage
暴
##ik
pays
kapoor
##施
roderick
##ケ
observing
##ucci
bum
1645
begged
migrant
durban
explanations
equals
##loading
##迪
glue
##⋈
232
buddhism
stunts
##倡
potential
solely
plagued
##strel
molecule
tamara
anxious
##>
excitedly
##dent
flanks
1920
凡
贓
##藍
beak
quarries
##dict
##sb
##犁
##coat
##倘
##姜
revenge
##难
##誰
wrapping
cycles
formations
##uin
壞
dax
monitored
overhaul
禿
##吧
##ja
vertices
stryker
##币
､
snooker
##蕻
##ysis
##ㄢ
vu
##lers
embroidery
doctrines
刽
extending
##悲
surveys
kappa
driving
##el
noir
coincidence
philippine
##します
##∶
bites
氣
blogger
##蹩
屄
毀
त
##刁
##llan
oldham
durga
remind
##uses
bore
shawn
##relli
現
accession
listed
sought
傭
##通
810
##鹞
ʐ
cease
floated
careless
wiggled
172
mocking
ר
《
pamphlets
##梵
1665
##险
##饒
shah
肽
##鎬
##试
diary
rhea
网
greene
##ᅣ
fundamental
hackett
##蹤
##anonymoussaid
transcript
bhp
mmorpg
herbal
anterior
裏
##36
划
##僚
##alis
焯
loosely
randomly
vile
セ
youth
##xp
##钻
cuba
##氷
##熙
##ony
uc
##gua
ncc
ɴ
schumann
妞
##趸
##供
莢
呓
##see
##鹏
##ニア
baby
bargain
palm
blues
glory
掏
##蚝
##eep
periodic
narrower
十
min
lots
从
frank
##tron
employ
sheds
hilt
##rmi
mysteriously
##豎
##陪
##砖
枷
##志
cheyenne
##讯
##谬
⁸
柏
1944
orphan
##rization
hunters
fingerprints
chevy
矯
scandals
##沙
试
variance
folks
courier
##ori
fabrics
電
downloads
##了
royalties
##ま
utopia
豆
acknowledge
momo
鋤
jordan
quasi
¬
aerospace
謎
##暑
圖
interview
dragon
n1
outing
cents
canopy
cooperative
fireworks
##ʂ
挫
newly
1738
##mc
袒
##孛
marches
babylonian
modification
capsule
正
accountant
fluffy
prevailed
nantes
betty
360
##醞
##鏗
unanimously
frigate
##亩
julia
##曄
eve
fulbright
邏
##輯
3～5
##bb
##ivism
##溜
receive
##tet
焰
##thes
sharif
盂
harriet
##視
##mpton
1623
慎
##竖
##聞
餮
##tes
##igate
tub
irrational
##辅
uncovered
josh
##tight
1817
##bard
mound
tapes
limit
##n2
帳
迢
minh
publicity
brook
##拳
##殴
##续
mixing
##厚
##嗣
##瞧
震
ecosystem
stereotypes
noble
fishermen
##魄
##荖
georgina
##賑
鋼
##釣
stagecoach
##喝
##fighter
720p
stronghold
offense
茜
mess
##elin
forestry
philosophy
fused
eighty
government
like
alexa
unhappy
gm
intent
譜
shirt
##rned
poisoned
busiest
敲
##沢
1785
267
⑷
namesake
霏
redundant
##黏
terry
斌
##hosh
finance
notoriety
##憩
bullshit
£
spoke
##錠
khalid
captive
绝
taxonomy
##bai
##涅
devi
samba
偿
楨
spies
逅
虫
鷺
单
匀
浆
庚
##訛
##girl
meeting
50ml
挡
r
rampant
₃
jagged
##腾
##stad
estonia
##れ
##eca
titular
rss
cocaine
##孙
##長
repetition
belongs
##lter
joe
##坛
over
##hil
tau
耐
afi
##貔
guatemala
##弁
museo
##看
sami
圾
l1
raped
viewing
##her
costly
1842
感
##caster
contractor
justified
##惠
##used
##gaard
貧
##boys
并
##猜
berg
restarted
华
fbi
##遶
醴
##ari
##母
miacare
窍
##諮
##社
219
case
##✿
knockout
obscene
##হ
嫖
colon
mail
##懼
lasts
aerial
governing
私
minnie
evening
cared
ever
jozef
##覧
emergence
unsuitable
##plify
joel
##幺
钿
##next
tn
malta
tam
挎
conserve
倌
1
mata
##綿
障
##麟
##gre
朔
backbone
##腺
##畜
stepped
##ennial
sox
seeming
shrine
morgan
quoting
recapture
leaned
clone
##ト
瓯
##cake
##捏
##cian
kathleen
garion
closure
snyder
reddish
##erine
logic
item
nfc
##譙
stranger
##mut
aquatics
訓
1991
##pts
locations
纔
exchanges
##lative
##ening
祟
booklet
rewards
marco
##京
warsaw
煅
papacy
cone
##寫
##tee
femme
hangul
##⦿
gatherings
##gle
##olar
总
possessions
汎
怙
230
activities
photon
稷
submarines
##dc
##軌
##lka
hospice
textbook
訟
##婊
cite
##gaon
##公
prospective
rank
papal
ョ
祈
clothed
##良
##虧
蓝
##ص
##cula
838
1998
颚
rosario
疇
##〉
d5
度
骶
cousin
undergone
投
##♣
madden
##蒼
descent
##鎔
crap
苯
coded
necklace
sticks
sweetie
##乙
芃
##ury
causes
ak
揩
##浒
sagged
does
频
##帷
ida
stimulation
surrounded
nicolas
##箋
毆
з
affiliate
wilmington
ledge
asserts
carbonate
##獄
1855
堆
##su
##posted
徨
##賡
##ს
绑
pass
駅
##廝
##ios
##なり
当
惬
##按
##賭
奏
跑
撸
諭
bankruptcy
##頜
loop
##輔
yer
##異
##2011
##frey
##ciency
##斫
meaningful
xiii
牌
reynolds
##覬
soaring
destroyer
##itarian
warehouse
わせ
##kon
##sume
##f2016
##撥
julien
yearning
carole
alejandro
initiatives
kin
aliens
##ㄞ
smoke
勾
涧
##私
dubious
皿
##嬪
24th
财
albums
bowman
##⌒
##叫
battalions
##勞
river
flags
##布
##iac
1682
halftime
劃
mcmahon
傳
娲
prevalence
##mbling
﹏
goin
弾
統
plenty
organise
topical
adversary
湿
rafe
occasion
hunan
寂
##闹
##edd
##tan
##延
radiated
##労
shipping
timer
underside
##遵
constabulary
##忘
yoo
pleased
:
thoroughly
ny
饷
sp
reins
点
math
唠
protege
caress
貔
601
##陟
礫
airing
admiral
vegetables
brothers
##iers
prohibition
artery
##畔
##駝
##iss
pound
##臘
##梧
latvia
##剖
plastered
chemotherapy
轉
蚩
loneliness
overview
debut
valiant
钰
railways
rhythmic
confiscated
讷
cleavage
##亥
persian
飒
##氫
##rland
佛
recited
##rich
协
amnesty
##kling
冇
surveillance
phase
1990
叫
hindu
告
bihar
kan
preach
靶
##bate
digger
alumni
tempting
opium
##坞
frankenstein
crambidae
received
propagation
discourse
##mming
##‰
##遑
veteran
moist
dormitory
講
farmhouse
##璇
##姫
##柚
##蟀
1540
derivative
experimental
syria
秩
agree
waving
economies
##し
福
##57
饲
nas
##cting
imaginary
挖
demetrius
##巻
upwards
≪
##vice
##窟
##koff
##sity
ₘ
ferries
##lais
##kes
attacker
##ues
牺
織
##瘟
linkedin
atv
aidan
1716
v3
underground
skate
##拉
collapse
heaviest
direct
radios
goat
##萤
##notes
旎
tumors
夔
##м
##释
invisible
##der
##urer
scales
correlated
务
##赓
##唉
##agawa
##orestation
娓
慵
dogs
辩
forced
greer
詫
fleets
##øy
wainwright
lobster
extreme
##报
drown
煽
ｃｐ
depression
vancouver
具
buzz
civilization
representation
##埔
technically
immortality
advancement
kobayashi
##馆
erratic
accomplishment
##stituting
tore
頡
崖
##勻
meanings
toxicity
驅
abduction
47th
down
1644
tata
sep
##邯
broughton
##¼
##型
addressing
transformations
##腊
gentlemen
耘
##挑
##阁
##m2
odyssey
##おります
ʋ
##绛
swamps
##∀
1970s
枝
hack
melville
詆
sweetness
##ssar
132
悔
##课
praying
messing
introductions
roe
sunlight
christoph
248
sporting
##,
##ador
fling
##靠
intending
陸
colliery
ｈ
scotch
泄
sinai
mammalian
##ight
##gall
prepared
間
snatch
sugar
hampton
battleships
resultant
##顿
60s
mediation
purple
vegetarian
sparkling
##color
parchment
furnace
##盐
##nl
逢
嚥
绿
隅
invitational
brutally
pioneers
roasted
##汤
谲
##υ
immortals
exclusive
lsu
overthrow
wichita
even
must
gather
congo
prayers
marries
ひ
##奶
warlock
##玖
elvis
aegean
vuelta
processed
##ungen
##ᴵ
d
leap
啜
pet
liang
fulfillment
rest
choi
謹
expelled
exiled
parkinson
##輻
strongly
阪
##sef
1818
##蜜
##♯
##裨
climax
鑽
昙
grace
##環
quicker
臟
ju
##star
##鷲
##bina
north
doyle
##璃
jumped
##₀
##eli
mike
superliga
despair
inspecting
bmg
disagreed
struggled
##rgh
##rea
##甥
immigrants
##壺
##众
2600
##som
徹
##檔
##槿
orphaned
##rnier
懈
guerre
##ذ
##乒
imitation
spines
杰
cedric
fiercely
byron
conservative
##よ
##yr
executing
van
warfare
##嵩
##铜
计
兔
##乔
##觐
所
ள
educators
xander
yu
buckley
bitten
regal
##ocation
2756
｣
topics
##working
jerseys
煲
grinning
##ump
##itating
##ades
##👍
hezbollah
蹭
##☉
a2
gene
disputed
credits
maryland
##虻
cartridge
induce
modulation
轻
##蠛
##raction
虎
concentrations
##boards
吽
ethnicity
##ify
複
##嘹
attached
legislators
os
##衰
##urable
##署
##rth
##瑣
##酒
##谀
bomber
##リ
##ignon
##stro
relieved
ordering
1721
欽
leaf
唱
岱
##ided
intensely
##ո
sonora
##⑴
##収
terrible
##錘
lattice
##敦
き
walton
◎
ponce
谒
davy
interface
##phones
##兹
##溃
anywhere
1896
縴
茨
麟
praised
kenny
peanuts
頌
##睦
wraps
##bant
biographer
exhaustion
‐
welch
##丧
##將
processes
##ow
表
robertson
##喆
##imus
岡
pinyin
願
1954
##ı
offered
殒
archeological
fairbanks
telegraph
##欧
mahogany
bae
outnumbered
priority
mankind
physiological
euroleague
marian
currie
##伦
kit
sardinia
stages
##鄢
nasal
##tz
1b
gesture
negatively
##ף
injunction
168
lt
##vial
coefficient
椁
##きた
##gies
##ined
bombardment
weighing
まて
##闽
屌
もう
##apple
china
##├
buckingham
羅
##dra
contestants
evidence
1885
ⅲ
accounting
revolution
##sław
麂
##眈
focal
spectral
昶
##hal
##sible
smile
dialogues
菘
砼
##珪
##當
audible
誕
layla
maclean
directs
counsel
gables
##beat
dutton
↔
##pal
singled
testosterone
##諺
##经
##ws
##轭
∪
##sons
財
##荘
oz
溟
apologized
elite
passenger
anxiety
ย
1mdb
ɹ
heroin
startling
syriac
economists
##ras
##谌
构
baha
windows
怅
昀
錄
blame
谁
770
padre
##孩
##协
fellowship
239
##俠
##≦
芡
裔
##喉
hank
##ock
manages
reactor
嬸
##过
##闸
accountable
##玮
e2
events
##击
ս
樽
##ym
##lyn
##mas
崙
##ncies
101vip
consists
##蝦
dish
##table
##uk
##tively
##mmel
玠
tempest
acid
pius
personalities
允
tile
verbal
钝
##肾
##imo
sealed
slicing
哗
animation
123456
ァ
powers
慫
def
鲨
stairway
transparency
搂
ز
feud
##eil
##咽
arrow
tentatively
blockbuster
och
reforming
##shaft
##胴
phrases
吮
colloquially
##烃
キ
facebook
bass
suffrage
##rch
##揍
fan
future
夢
##酪
##nz
aspirations
她
蹊
‡
prep
锭
states
##襲
script
51st
geared
##二
lot
avoidance
婀
ᄂ
josiah
speedy
morocco
hmm
someday
eugene
##抽
appreciated
##绯
distances
bitter
partnering
rat
convict
##ndy
##utter
しく
##针
ウ
cerebral
psychology
builders
##姚
##侨
321
curse
enforced
##gis
え
wan
##ous
leading
achieved
exams
ortiz
泌
宫
nutritional
颶
##俺
nak
##⅔
単
##镀
遭
##worth
frigates
wehrmacht
admit
navarre
sesame
padma
agustin
ratification
petit
allowing
examination
trucks
builder
whereby
##kshi
crank
壢
##kel
commuted
segunda
problems
##liness
凌
肄
showcased
魅
##ythe
basically
bird
##柩
resolutions
##涓
endure
kic
##谑
carrying
notation
褓
##歡
manager
burn
cornered
lg
ott
easier
##敞
quantum
congregational
egyptians
##adi
consultation
idiots
##幼
vp
芹
1886
rallies
surpassed
祐
і
嫔
species
ћ
室
喫
蠔
asleep
keeping
score
straps
##scent
##襁
exodus
##cape
答
##urities
quotes
clarissa
##貧
5m
arithmetic
photoshop
townsville
梳
##chen
deteriorating
massimo
handball
romanized
№
sony
mustered
1939
##類
項
##ox
377
##絨
##vati
##芙
##cens
bangalore
剃
##殺
prevailing
##贩
taped
took
average
donna
##鶘
赖
##գ
##蒿
æ
odisha
##nob
铜
##轅
穂
棗
测
1gb
agitated
2010s
prem
##懊
erika
causal
##奂
confirmed
warning
luciano
microscopy
caliph
##7th
mutants
舵
##bbing
cfa
hitachi
卅
5kg
narcotics
policy
watershed
picnic
lucrative
agile
##该
internationally
##薪
##淼
maturity
##便
##侦
##抒
entries
bing
##db
##ply
##ated
林
antenna
lincolnshire
棘
##～
##繃
dawson
##zed
magazines
braun
savanna
##lford
ப
韩
43rd
titles
褲
tracing
▎
##癲
##绸
unpublished
##亏
##☀
##墘
##＜
contrast
bbq
worrying
kindle
harlem
##sn
telegram
flesh
##ime
##煞
##suke
##rn
##ｅ
##たい
##ゃ
##桐
##铝
##伞
##炼
ps
unidentified
endorsement
##叱
albans
##ified
f
closet
解
釀
sequences
##pin
unix
屬
裸
dating
§
##rted
calculus
##悪
reactors
jewellery
monuments
aristotle
撷
∽
2gb
missing
modes
preserves
exemplified
be
laurel
ritter
pigment
##嘜
##cord
keller
tpp
leningrad
##唸
磲
exo
##lc
##-
##诡
##鴉
caribbean
circle
skaters
shooters
##稠
urine
enlightenment
i7
medication
颼
seminal
##lly
formula
sir
mozambique
279
explain
climbing
汞
##30
归
decreased
torture
##シャンルの
ministries
##imating
majors
謝
##騎
mcnamara
trophy
##湳
##er
##嶂
og
brushing
##驳
rake
dividing
##邃
晶
递
##mata
填
updates
##檳
encounter
platinum
magnolia
deadline
##禾
##呱
nod
##bly
##眾
arpg
driven
checks
withstand
align
295
astrid
锥
##47
consciously
habsburg
︰
multicultural
mohammed
503
偽
##逾
惋
##ъ
bollywood
鑼
##妥
渺
碴
prevention
m1
酵
approximately
鈕
辐
##～3
##鞑
featherweight
绶
compelled
archaeologist
##ང
burials
chandler
藉
impulse
畹
popcorn
shove
有
##usa
##µ
poorly
sanitation
##舅
drained
libertarian
lodge
戌
##浄
##･
memphis
designers
驭
铿
##nism
诱
##翳
conductors
optimistic
walker
spectra
唐
substantially
benjamin
enamel
尾
antibodies
sylvia
plaque
##tania
鼻
禺
##dim
##dar
crowds
fading
坨
##泱
pleasing
riots
##菸
published
trust
filtered
galilee
##rva
welterweight
affordable
risks
advise
##放
##pres
##顏
啦
pronunciation
sexes
raid
following
##folia
word
##xley
bind
##販
johnson
kimi
##rew
claudia
achievements
chargers
matteo
##けと
achievement
##oped
剪
##缠
fiancee
##瓷
austin
539
exclusively
##tarian
##刀
cot
cringed
##擅
parasitic
critic
freeway
﹂
票
premium
湘
ryder
曜
纏
jeanne
##詭
honesty
##坎
挪
夥
##▃
##剁
##靚
##莆
viscount
submissions
##45
tunic
##攣
槐
period
cooper
gifted
beige
##earing
contrasted
##聪
##ricted
宸
spinning
29
珂
711
similar
warring
愆
reich
switch
stripe
cfl
##吃
bryant
##脳
##icient
绡
registry
##dley
验
maiden
roman
pods
##mara
腎
##佔
mindanao
8cm
guys
綫
bb
##zu
盧
粪
colony
##mania
忄
##ddy
栀
eliminate
##惡
sinister
##ven
taps
habit
##春
smallpox
##噬
dowager
sheng
drop
##roid
##land
furious
##test
##島
inspect
臭
##椋
maxim
sessions
clifton
rogers
euclidean
##笙
knocking
媳
##uit
かお
roth
reunification
##燜
fjord
##奄
##还
kelley
##穂
##蕉
watts
daily
delegate
愜
ₚ
##熟
notebook
cy
status
fiance
notwithstanding
411
##iaceae
pediatric
##籟
consumers
envy
premiership
northwestern
牲
##諧
signifies
##绑
islamic
##鏘
ש
pipes
carvings
##捂
##氏
璇
hides
##96
##丕
siena
渲
賑
deleted
⊂
hissed
##wat
ı
croatian
##ия
tempted
hammersmith
mvp
divorced
yankees
##宜
##ament
##я
ao
舱
竄
##ies
fundraiser
礼
転
liable
judo
residual
september
boat
叟
蟻
##vr
##镭
228
affected
psychotic
##濱
suite
佶
曦
claiming
gymnasium
twist
##ash
chronological
殴
1857
cupped
##职
replication
や
pursued
##菇
##话
鶩
挥
鎔
staging
##lty
厥
111
##擘
蒞
marathi
##爐
##ong
1900
哋
##ogy
##hala
##inho
##缘
##豈
绣
狹
die
vampire
##hora
##秣
citizen
ivory
##│
匾
##品
##澆
##r4
##渝
##最
musicians
##夕
carson
##癌
jet
##贷
downing
engineer
bis
##赶
寺
hr
367
մ
selecting
##膈
鞭
velocity
##伕
凋
losses
##兒
##holders
substrate
姝
︱
gravely
##殆
caution
sebastian
tooth
滌
barber
##任
規
缎
续
##醛
chris
##摟
##gible
pm
ellington
##岔
##縴
connectivity
##愈
arguments
dhaka
##哧
post
##iza
reply
isles
##歩
nhl
##焉
compound
paxton
inaugurated
##als
voter
user
behavior
瞑
364
enrique
令
captures
ᄁ
##talk
忪
champagne
spp
led
h1
federico
##vitt
說
spartans
娑
egan
##槃
segregation
popularly
oldies
fabricated
modernist
instead
committed
archer
urged
marcos
##ᄁ
儉
olympiad
transit
saas
##臼
greg
evergreen
##lore
##託
##ξ
capacity
glazed
##amine
spirited
蒙
##掷
intensity
犍
##mble
jessie
のこ
zagreb
盅
蜘
engage
recession
##陨
transferring
呆
apply
centred
slavery
##oga
casinos
csi
##謄
紉
##29
tailed
璃
ate
locks
recreation
vhf
##輿
##eau
##quist
饰
晓
桧
forgive
archaeological
digit
overlap
##攒
important
缚
spaghetti
饒
排
##羨
playful
wellness
##拐
镛
denotes
magnet
stimulate
##tat
乔
coup
famously
150
##▫
鬚
annum
##bl
lorenzo
adjusted
##洲
1713
##宪
##蜍
##dle
##塊
accessibility
誇
##ties
no1
##邺
曖
##客
bourbon
##謁
vance
rivalry
disneyland
##蠅
債
##thal
##veda
ci
##ต
stein
differences
1832
criticism
话
locating
hazardous
##ada
ramsay
祇
হ
clapton
悠
ヤ
##知
ष
boxers
waitress
vacancy
音
##.
providers
secretly
圳
speed
##hedron
magnate
ballad
stems
砾
タ
intervention
seychelles
##ni
blasted
stalks
this
choke
春
##娓
remorse
meng
duet
##‒
##綴
objectives
seasonal
screenplay
mario
persecution
##鲤
grandson
##§
lublin
horseback
£10
##minating
夭
1927
contrasts
idols
compilations
mcu
respect
##ccus
##osh
rests
programme
廳
##works
##佈
hilton
а
tex
##uz
##riz
幽
860
##antly
哟
﹒
##靶
蔬
eternity
##ators
かあります
boiler
conferred
帽
249
practised
泪
##ines
spear
##:
智
metropolis
敎
蟠
惦
africans
鐸
##畑
盆
graffiti
##grave
##heart
##₤
convinces
1968
##煥
landscape
fishbase
##頻
peek
kari
plan
##<
nazi
exists
叵
##獭
面
gloom
隧
##ush
traction
swelled
##酶
##樊
##擠
tortured
moffat
礙
##臥
淅
purposes
sanchez
镖
us
ina
撞
callie
vcd
debbie
##port
##unes
songwriters
sliced
prequel
蒸
##inkles
emigrated
朗
腺
forcibly
##粮
1649
##犍
##移
maintaining
fixtures
酱
途
garrett
moonlight
##qing
gps
sexual
韋
advised
weasel
にこ
samples
##rna
intelligent
transactions
##ulton
outputs
chennai
##報
vocal
155
starved
##rge
##防
agnes
##rect
tall
consult
煥
##scope
餘
allied
賴
heating
boss
1806
##搔
##に
##cial
1664
tuesday
blossom
畅
先
嬢
峥
##ラン
⁹
##kan
拍
燮
folk
shouted
confessions
encouraging
montevideo
咎
##avio
illinois
dsp
ginger
parlor
surge
##镍
tt
innocent
lust
end
angry
##minated
##髂
##跖
flee
##lle
蜥
myanmar
##嗝
resin
##mail
##masters
煦
~
柴
翊
##钮
##kg
wearing
pump
##ちの
##絃
##rable
defensive
schizophrenia
hoax
flowed
鵡
##箭
##uche
198
attracted
##叁
锺
denied
##琳
土
edna
##瘡
regulating
腱
began
equity
##虔
friar
##tment
鷲
huron
纶
##ள
##stead
terri
锐
fourteenth
sponsoring
1667
瞇
##～5
least
##帜
jo
##镰
##荐
unesco
##scu
##術
entity
宽
后
##刨
drinks
stock
norwegian
threats
traveller
隙
❤
threat
lion
freed
stefan
低
angled
##醬
澈
辣
##荼
tally
wines
initials
麴
##elling
##膑
續
埂
##秦
prominence
zambia
##kney
chuckled
蟒
ล
orion
##漬
synthesized
陞
drowning
##谙
fis
飆
丐
except
湯
dancers
##熱
abel
claims
##擄
commendation
economist
##堵
serve
跩
##てすか
##岁
talked
誡
##糕
##屹
obstruction
ley
cavaliers
indiana
vintage
train
koch
赝
鄭
gutierrez
##铃
punished
embraced
unprecedented
commissioned
vault
snuggled
nee
##达
exhibited
##owing
mesa
##舊
甥
imsean
##揹
modifications
##arian
##taka
##tom
vietnam
ranged
甘
##gat
recommendations
##oun
decisive
##俳
憔
drainage
##ggles
dismissal
##跚
##chev
擎
##ffy
wrought
遢
sleepy
猖
dissolved
luftwaffe
spade
sidebar
##莪
##かも
administratively
turkey
##ctor
##onale
ic
е
懲
desktop
insects
僚
醺
##cket
哀
punk
##哨
viva
##400
繚
ventilation
accompaniment
tunnel
##ield
##皈
comet
誅
##yman
probation
##齿
redeveloped
##颍
reproduction
##燉
梶
##曇
conservatives
補
強
典
いてす
##餃
1845
lowland
situations
endorsed
##漾
##除
tufts
luna
volta
v4
##ear
hodge
peters
dialects
##棒
converse
market
##吵
##斌
contempt
arrangement
##醍
vm
暌
##軸
zombies
##iidae
negotiating
##bn
extended
donetsk
thinking
apartments
wynn
歸
ns
##绪
prefers
ngos
clive
##oese
exotic
##遏
revival
ukraine
congressman
tuscany
torch
##沸
proto
##sters
啞
vowed
shelf
bribe
##岖
martina
violating
whitehead
##克
pounding
guiding
json
锹
##谅
##dou
##urian
##edging
dial
serves
郢
fines
##該
1758
audrey
牍
##）
media
rolf
shin
##彗
##盎
applicant
spit
navigator
##奬
##嬛
brussels
rhine
顽
##pha
vertical
slapping
37th
##立
april
##comb
##淇
##绀
窃
britten
mainly
outer
finland
debts
cam
櫸
belonging
woke
incomplete
##fine
timeline
##cloth
##鎌
##tile
colin
頰
##榄
carr
neither
碑
allison
mid
ㄋ
cb
distinguish
##eki
comfortable
贤
protections
norton
numbered
##esh
##観
wrap
膦
troops
lissa
1951
##oz
象
heartbeat
mounds
条
娘
逗
felicity
caine
₊
歲
independence
##竊
晚
racks
闢
錨
yue
opener
fremont
碣
preschool
pussy
##uting
腹
芥
safeguard
zac
##皂
裟
##统
unlikely
basal
##ested
mechanically
笹
诋
pretending
breast
caf
truly
3d
collectively
##砭
byrne
turn
唾
1550
にも
fare
glance
##ell
##霾
苛
vanilla
##凳
deceased
yukon
poems
less
welcoming
description
茵
essence
admiration
##rter
theoretical
cascade
expands
##ouk
parental
yawned
##權
pointed
##ttal
##lini
treat
##屿
cardiac
鸪
armistice
secluded
pathology
guarantees
crashing
fuss
cleansing
rhythms
bari
relaunched
##999
筝
rios
farewell
monaco
citizenship
rustic
fuscous
discrete
不
112
薇
版
literature
##悄
##alia
marked
##may
friedrich
睫
##cept
parent
corporate
##滦
1936
##戊
ㄅ
##互
biting
##菏
##glass
alcohol
砭
##ｰ
zion
bromley
##rex
兆
neighbour
は
艋
贬
tourism
##gnan
##烫
##rc
directing
feet
##閡
鐳
troubled
##徉
tighter
滚
齒
##lland
##イス
鸟
0l
swatch
##vil
郸
##ize
watch
dire
cobalt
smiles
pavement
wali
gnu
friendly
increased
##儀
##op
growth
tunes
豔
﹡
walsall
fraud
##啸
penalty
have
wanda
husbands
扈
##tman
bmw
styled
avail
##ept
holster
196
##rates
chateau
竖
flaming
##悱
##lysis
phi
##mian
airplay
##ally
极
##pile
谅
maintained
##hone
库
##猎
##荒
feedback
##uted
##屎
峤
glasgow
ties
1711
delightful
##嘌
brewer
##竅
##asurable
1814
##苦
grin
秤
##謎
championed
##ヘ
hepburn
激
announce
runaway
夯
##旗
jurisdiction
coma
promoter
##镌
giant
薰
##蒸
thanks
belarusian
☺
##纠
##∮
##ى
writer
wealthy
##2009
##漿
##lett
bathrooms
##elia
originated
cheat
基
harshly
messengers
sumatra
##lish
promote
##ｍ
##捅
rhys
##讼
farther
##扑
##ine
scores
只
##mate
##ε
##ucible
##末
##羅
糍
hi
25th
antibody
minsk
诶
featuring
##颔
查
critical
monitoring
nickel
1803
##祸
斋
##堀
shaky
163
perkins
扦
##llins
##腎
medicines
骐
跌
kicked
##rika
##ety
##蔵
pantry
##glia
infections
broom
wash
ned
harder
oro
felony
tamil
leans
##汝
wiping
喝
膀
decorative
のないフロクに
拎
tune
range
salsa
襠
secrets
mmm
##க
invaders
hadn
seals
1730
ashe
called
khyber
avoids
鑣
circulated
bulky
hiv
1689
athlete
allowed
迹
##gul
##たけて
##橐
munich
痨
荷
fatigue
給
falls
##grounds
pulsing
箝
缪
##ھ
boutique
##彙
沟
##篡
##ira
contestant
gus
evenly
##鉅
寬
meadow
duration
dracula
delivery
##踌
##漢
cautiously
##蓉
##ₕ
##rating
##icum
ogden
admin
##ase
千
398
mostly
ain
##邋
surrendered
スタッフ
许
interpretation
cycling
busch
1612
assaults
auf
##share
clones
suburban
懇
##摀
improvement
textual
storing
##di
maintains
goddard
marin
2007
戟
##ative
herme
worthless
髏
null
##castle
##禺
optional
barges
lori
advocate
snake
district
spicy
##攬
excuses
##喎
enacted
awaited
waller
曰
core
##ading
reece
miscellaneous
taluka
projection
represented
##lz
裝
z2
##dt
##埠
##war
drone
chilly
banjo
##yev
殺
autocad
拴
炅
##电
##巅
austria
tags
negotiate
濺
genocide
paradigm
horne
stale
摧
##孰
##辐
##炔
驥
徳
##貢
##化
##balance
77
fx
entrance
nun
菡
##帕
scrolling
吕
##無
react
pulmonary
品
settlements
bringing
dcs
ソ
譏
survives
阅
ava
stool
喵
1626
burnt
##dled
border
blasts
##恃
##wa
##論
叩
filed
1889
harrisburg
mainstream
乎
interchange
327
334
##薊
shelton
floral
##斋
昇
厨
des
盲
<S>
##▪
禾
雕
motel
腔
223
勒
##ms
##ᅨ
delayed
drilled
victorious
hailed
succeed
condemnation
cairns
##otti
echo
16
##igen
##徴
declares
##捷
尺
##虚
arnold
leaving
##lev
羟
##柳
oil
##fide
duff
yards
sacred
##my
##╳
floors
きなしソフトサーヒス
##粗
lost
##舷
whimper
dot
harmless
##pit
hopeless
auschwitz
35
琛
##丘
##ota
##紓
interval
feasible
account
historical
cabaret
卒
##腆
鉀
soluble
##墳
##谍
mead
##旷
crippled
merlin
farmland
##鵲
烃
leslie
roach
visible
泳
seal
scandinavian
##故
意
##饵
amplifiers
煒
opposition
hang
kpi
everett
强
覷
qa
fulfilled
parcels
corbett
##riety
嚓
##裆
authorities
曼
zoom
growing
殃
305
staggering
ripped
gaga
##聖
willy
casa
len
##uman
##dance
deities
↑
delicious
聪
##愫
wired
relieve
##製
##逕
ballistic
episode
∣
rattling
##曦
羌
##ment
ussr
wilde
empires
##ition
##cano
gaelic
м
elects
宠
##‐
##滞
hurrying
漂
1704
nolan
##炁
disappointed
aeronautics
torah
rise
##chan
complained
trends
1788
aside
省
bundle
priscilla
锉
##atable
胎
029
##硫
##甭
砍
plume
forbade
##疏
vary
cannabis
mohamed
boost
梅
draped
downward
orchestras
highlight
wonderland
##zek
textiles
##賊
##₉
surprising
variety
po
##sun
##閃
##莧
athletic
beam
ud
wee
芋
蕙
appliances
amounts
##む
##泗
bop
sous
擠
ㄉ
mongolia
寡
feminine
卿
duchy
ォ
##適
##bner
##ک
swans
嗇
奂
fourier
through
fallout
##儂
##涙
chloe
##ᄂ
##褪
##筹
summarized
##ｲ
##giving
kate
polgara
裡
##scoe
ص
篆
gothenburg
放
##ceae
夹
alam
variation
##ː
##⟩
杳
dolls
##vary
##iv
賃
##綏
现
woodrow
ron
蚱
revolutionaries
happier
▲topoct
sloppy
scene
atrium
contacts
huh
tearing
carey
852
##装
1766
##arty
efficient
碟
##ｽ
wireless
turks
breed
kingston
##arm
provoke
marshall
pci
executive
##ci
gloves
##壤
##rney
莓
rotating
##izer
fired
standardization
##スト
##奪
smirk
compulsion
##踟
aden
喊
ladies
ᶜ
ᶠ
執
horrific
100ml
##甘
呲
right
responds
cora
inscribed
weeds
breath
defining
brain
bronze
ribbon
哂
unlawful
##gee
数
mahmoud
staged
independent
##tie
1966
##cms
beta
##he
enslaved
grains
series
372
##謗
dorian
傅
##察
emerald
租
hoop
480
neutral
##come
##步
exactly
衾
況
拜
ellen
neglect
码
##udi
袪
##अ
strikers
洋
簽
胃
惧
##wich
cyrillic
try
costumes
rents
result
armed
flooding
##綬
さい
##鄺
blaze
##緝
##随
marissa
thicker
荖
##る
##っています
hartford
##tai
mozart
lockheed
吭
bits
certification
嘘
##蹬
##糬
亞
initiate
∞
育
##膨
winery
settle
ア
##咒
ⁱ
##耍
lyons
bleak
261
##片
disk
16gb
忤
##戒
shi
kitchener
cappella
kiss
bonaparte
statement
butter
蜱
##稷
##ton
carrier
clusters
firearms
##ɨ
liga
嘰
ordeal
##徵
negotiated
tee
mohan
烘
daytona
蜃
##zano
helix
署
missouri
##hia
newsweek
almost
戴
萘
##2008
##夔
辖
unbroken
##囚
660
↓↓
##栀
壟
沈
##rt
1918
chords
exited
零
deafening
engagement
##ulio
ད
##籍
58
连
proteins
热
讓
feeds
##на
ronnie
##tum
##樟
tech
打
##楸
keynes
potsdam
##舞
##鬃
80
##薯
empire
hash
courageous
sportsman
⇒
neal
2300
##з
anchorage
cafeteria
##芊
gettysburg
146
##泾
##isi
expenditures
芈
fast
15g
owe
ᄃ
certainty
##wind
##鎚
assumption
cordoba
##tsk
soaking
##ə
1922
pat
##杠
holly
mandates
##weather
june
courthouse
voters
billed
militant
‥
##軋
簌
擬
##cana
篷
biographies
concession
骈
alice
##ova
pier
逶
differs
fights
##写
similarities
##mise
没
##vera
pony
1778
##580
##瞰
##詞
##eral
spores
##醺
infiltrate
pedro
once
kris
新
##來
intuition
锑
gail
筑
shocked
posthumous
ax
##璉
innsbruck
##ф
augmented
moba
##崙
##sf
衢
斫
winked
##婪
authority
champion
殇
##ナ
hiding
subscribers
chad
lenovo
##趣
fabulous
形
reading
bytes
adsense
shots
怵
泗
怦
嬤
##湮
libel
є
訊
##遜
##sday
##填
gohappy
##履
##茴
author
半
##貽
fried
蕭
inward
僕
##临
##什
poured
##窯
implant
allegheny
medallion
virginia
gogh
##娼
##athic
previous
sunderland
stolen
##per
brushes
latvian
康
##骯
behaviors
ನ
mistake
resolving
mecca
₤
mustafa
adjoining
灶
hills
2
鎌
##峋
hints
headwaters
aspects
jewel
hunt
eyelids
₎
entities
hartman
流
##nged
ge
##enay
sped
macdonald
27th
##bia
##桨
ʸ
##醮
1890s
##緯
headlights
##哏
mara
##eron
医
reception
##cio
撼
##対
肏
terraces
onto
codes
plaster
quilt
##锏
commemorated
lands
bodily
54
『
##ital
pedal
##ala
asserting
appeals
streams
amalgamated
curtains
##ars
fanny
bubbling
炫
nobody
##聋
rack
圣
涉
##ˢ
贴
מ
producer
dockyard
aging
calvin
shankar
infancy
蒂
loyalty
紂
systems
fixture
subjective
violence
##ner
fc
timber
##ט
measure
motorized
##ｓ
arrows
ᵢ
daemon
##莱
xddd
##穫
ideology
arsenal
available
##磋
invariant
骜
豇
writings
cups
胜
鶯
##彝
##瑾
##rnet
##foil
ministerial
fathers
##舾
partners
junta
regulate
##臃
・
##hausen
substitute
taking
suggesting
ｑ
##铿
outward
cornice
paragraph
㊣
##釜
##婿
##敲
emotions
provost
##garh
gerhard
leafs
爱
073
breathless
kant
organic
ambiguity
##typical
significant
typed
##理
algebra
##惺
squeezed
go
##愍
tractors
productivity
##莖
##拾
##傩
##宣
##4th
honors
judge
訶
pal
potato
虱
dotted
##makers
##wt
photographs
tapestry
42nd
##ᄎ
mathematical
forget
##暇
eyebrows
##oire
##吡
##ᆺ
motivation
饑
noticeably
jay
fisted
populous
squeezing
##asia
clothing
irwin
haze
cong
slater
##hampton
4
燄
##扎
##画
##旬
##禁
song
cleveland
restore
##inas
stigma
类
peeking
也
21
去
citation
##闭
##喋
啧
ste
討
遼
##长
1796
yusuf
##嘱
paternal
portal
spying
schedule
##trick
utilization
##潇
coherent
介
##﹡
allies
immigrated
heats
public
tricky
theatrical
digital
##breakers
difficulties
directions
treating
##ede
脲
##囪
encompassing
##詼
滴
madeira
童
觀
ա
475
mango
##啟
##竞
##科
铩
##ы
##mics
msn
##甜
t
##绚
犬
migrants
撫
契
telescope
fitzgerald
friend
pilgrimage
hand
torpedoes
aim
##洽
##uri
beverly
sperm
grounded
townships
貘
crouched
remarks
##緊
actor
##邓
quest
##bet
parsons
yankee
lonely
ᄎ
##rs
##毓
envisioned
##־
##蒟
quartermaster
##factory
##庸
curb
eight
baird
##thic
蠡
cafe2017
諷
##澤
infants
1739
cruelty
platform
augustus
lest
##遠
parades
##ac
##叻
##觥
hopper
unitary
厝
##助
sigma
盪
republicans
armored
barony
瞥
交
yielding
昉
tae
waterford
grabbed
##sue
dub
##ﬁ
termination
coil
##氯
##zin
ideals
glands
##驯
limerick
su
##rith
##oat
卤
pensacola
##sling
helmets
##慎
##borne
##uated
禀
philipp
1726
potomac
##quisite
##愧
verification
distant
驍
赡
##lou
altar
permitted
txt
武
##hari
uppsala
hint
324
johannes
3～4
isabelle
##agger
╯
wrestled
dismounted
happen
careers
硫
##gp
chronicle
indexed
millie
learners
dumped
olds
倖
minister
accomplished
sediment
pc
##谷
##灣
versus
##vate
50000
##馋
##检
##∣
##x2
塩
participates
suspicious
##ч
##ima
firing
##诠
##辛
mbc
造
vicar
歓
accessory
sympathy
template
riding
we
##┃
违
382
襄
##狈
##桧
##钣
##嗚
lock
##°c
##cript
##攝
293
holmes
invited
parc
##vu
vomit
butterflies
##vin
pope
##鼾
marquess
1624
##顶
##puri
henri
攥
110
marquis
becca
##⁴
##law
鈍
stepping
protein
voivodeship
ms
猜
reform
peppers
presbyterian
labrador
propped
download
bathroom
generations
##忄
齣
tactical
stresses
atari
镑
jeopardy
aerodynamic
reaches
traverse
blessings
accelerator
馈
##耽
waters
neural
熒
1755
dung
bulbs
##efe
污
barked
##00
##篪
brigadier
upright
##cards
衛
baku
00pm
嗟
sweetly
forehead
械
subunit
guided
357
##酩
bush
890
defender
##nos
ballads
##ᶠ
##lin
##李
##鲈
刈
wi
掘
20g
une
cancers
##倪
謐
festivities
谩
##icated
##咏
lau
馴
罄
cmll
chewing
picasso
泫
200
kazakhstan
沼
beast
##u
jacobite
##救
##hole
harta
robb
inevitably
export
##ael
坦
欣
vantage
##awa
♥yoyo♥
conspicuous
▲topjul
sparkled
₩
券
esther
socio
pants
giving
collingwood
##崆
##illon
cotton
everything
amassed
grasped
##aina
##氵
痛
subtropical
lengthy
##bari
##鮭
##wart
vic
##ㆍ
##ⅳ
##rp
虹
飢
##50
龄
裾
##wire
fossil
##堆
##訪
东
disappearing
##pur
滁
##inen
irregular
##dae
troy
##jic
熊
nyc
to
##ensburg
##檎
path
encountered
heck
fitzpatrick
##⁹
marine
筲
kosovo
##tle
technician
騏
府
##遊
prostate
containment
城
耋
dodge
##秭
##沛
##gens
goldman
铅
anchors
assortment
蹬
10000
eastman
alberto
##戟
fencing
越
赵
##定
##們
##ｏ
##tyn
##hs
##徕
蛾
loading
##氈
##朕
qur
equation
csa
rating
stunning
##涌
汉
shredded
214
around
1685
##塢
簸
jubilee
banquet
镕
297
mayer
ს
secretaries
mayhem
accessed
substantial
戈
truncated
portugal
dee
glaring
踱
##utz
stepfather
##mes
##抿
language
##skip
rene
##ound
qi
methodist
##なら
##护
act
swore
招
徇
##踴
烛
乌
杖
sensible
saline
science
##钦
continuing
钓
till
##ます
softer
炬
frames
﹔
whatsoever
##nik
ursula
ang
##孫
during
partridge
sue
ensuing
unsafe
##框
##钗
紀
##輝
harrow
pike
criticized
follows
##avia
##sten
vocabulary
files
exports
antennae
##rogen
orioles
hearings
022
鄲
豚
##ɯ
abuse
##詬
##儋
##栏
繭
widespread
##莲
thick
trajectory
勁
##磺
##kato
1915
electron
patrick
won
sweeps
##攀
服
clerks
halt
幹
rar
bandits
bug
grim
mori
warner
##曙
枉
niger
յ
碛
蝦
鳅
##肛
intellect
守
correspondent
apache
7500
unwanted
鹤
horst
##瀑
##hed
skeleton
擘
以
##湃
##窘
##osing
colleen
##⇌
##53
池
##莿
仔
kaladin
##or
clutch
##ₙ
agents
grimace
＜
月
椅
族
ab
##icz
its
gaines
癇
辭
guarded
碎
grandparents
##蛙
##class
oilers
##tting
##弓
昊
grease
彭
伎
辅
搔
carried
##ₜ
##なった
##惯
cores
##bill
##ᄃ
抨
orchid
turin
define
##珏
櫃
ء
reasonable
##飪
letter
rave
襟
discussed
錫
曇
坟
τ
偷
harmonica
backup
m4
allah
312
hermes
牙
kv
racer
athens
##zell
瀰
dropped
sleeps
##oked
aztec
dissatisfaction
##芜
蘑
##饗
interrupting
##en
gavin
dictator
devote
##vana
excelled
##勋
##簡
fuels
⒊
nonprofit
committee
ghz
蕃
without
solve
revealed
resolve
lineup
寐
##sey
stemmed
##lts
kraft
claire
##{
reinforcement
捌
243
youngest
pau
##manship
める
peaks
titanic
##縁
intersection
奕
##コ
enclosure
珑
fixed
誘
奢
褫
pang
衲
towns
##ezer
##band
##zak
enclave
usd
##hri
##饌
秒
##佘
donor
unicorn
##ﾉ
##wski
0755
蓼
##甬
##勝
##真
absent
##pore
##搵
strip
怨
actors
landlord
##陆
markings
##乂
##nator
fated
##韵
竇
shutting
皓
##快
贩
妹
##missive
##结
termed
##jana
狱
mfa
mccain
帘
dans
帖
繳
lambert
rfid
sputniknews
導
##争
##蹶
##龟
frankly
凰
relatively
##laze
still
##喺
該
1773
untouched
polymer
yuki
johnstone
nicholls
jailed
remembered
鎚
blows
detached
necks
sgt
peterson
工
焦
韵
methyl
sudbury
nobleman
帥
wand
擱
##480
##zman
green
complied
unsure
瑀
##ito
泛
征
##qvist
##till
则
fitz
strikeouts
international
yang
##弹
dioxide
009
carleton
itself
unto
drug
##蓄
questioning
ᅬ
h2
intel
コ
gallo
spokesperson
amadeus
资
perimeter
vial
##eg
##待
spawn
র
videos
##卡
calgary
僵
minors
housing
flights
##tched
geometry
涟
##ㄧ
compliance
叛
foster
kindly
basalt
敷
pages
moan
##碴
枕
ninja
playback
banged
##饯
indonesian
limited
162
latham
##hin
##啵
cosmetics
verdict
哇
##fp
drummond
##噁
竅
##驅
colombo
##pled
##ule
planes
锏
尝
##ischen
driver
resign
coke
ˢ
贼
##匈
##龄
fortification
offs
metre
嘮
##91
痧
element
warmth
predictable
挙
詠
ラ
corporations
pm1
##疾
firmly
挑
鎖
great
geological
##dina
monterey
presenter
增
竭
彗
脚
##path
##轍
commissions
贡
weir
message
##ych
ark
orbits
##enburg
添
eyes
##夷
阴
bu
##患
figures
apologies
##頤
1tb
oath
concacaf
existed
adherents
##岡
##咛
dakota
摆
範
thought
bournemouth
ちてすか
pornography
gale
compares
し
##unk
vendor
examined
##sure
##涝
assets
1897
##═
銃
##惦
747
##睹
rivals
vamps
呎
##粱
##oic
奐
sargent
繩
blush
##芾
740
cited
尽
』
##lling
##翟
shrink
##鳶
碌
戚
1782
ecole
##攫
explains
##13
##抚
##奖
##扯
flourishing
##颳
accommodate
cosplay
crossbow
濠
froze
meat
もみつかっちゃうかも
逵
carlton
##昊
dwyer
##浯
##沧
zoo
##儲
妘
santana
##屡
kinda
dryly
sporadic
blurred
temptation
★★★★
pumps
granny
豬
consist
weak
computational
police
prisons
##ons
##tem
##鲑
挂
faculties
##chel
jed
##nian
##裙
滬
romania
ignore
rb
卓
dynamo
1621
yourself
##ane
##quin
##遽
blocked
romero
瑗
ivanov
辟
myers
垚
1873
sickness
##财
沦
##蓖
taut
##ᄊ
宋
enhanced
gartner
impairment
闾
ㄧ
rico
presentation
offenders
urgency
quay
tomb
scratch
annals
印
抖
guild
rail
radical
lingered
鏗
mwc
greeting
摇
##ately
##writer
##圳
斟
afrikaans
挈
##鸞
sensitive
盛
伞
##isches
##edo
privileges
##笺
absently
妝
another
醯
paralyzed
调
痫
'
sim
transfers
1882
##捨
cleric
hundreds
medieval
##ou
relate
complaint
nostrils
bam
bender
##sworth
蘸
guitar
glasses
fluctuations
plains
pulled
鹳
grade
46
##」
hana
##efined
follow
yerevan
authorization
guestname
temper
cosmic
ollie
aux
##問
##陇
pune
parana
net
##bbed
艺
##変
##毛
待
##铆
##积
1893
達
kanye
##嫂
commercial
embodied
136
##工
overwhelmingly
##rase
烙
educational
longevity
316
琢
##律
儀
182
淺
you
##坪
laurent
professorship
hermitage
quietly
襪
##tus
##手
inventions
f5
jaime
kunst
蜡
##﹔
freaking
##aves
yin
##麓
causing
meredith
##ⅱ
侈
军
##誓
upstairs
##瀋
darmstadt
pedersen
nbc
##湧
いを
slowed
goth
镍
design
beth
migratory
abstraction
##ナー
##趴
##ching
angrily
##邀
fringe
t2
b2c
##罢
缝
〃
1976
##阔
##栉
##守
七
wasps
robbery
##haling
##駱
＞
•
萬
##城
reclamation
copeland
ᅴ
reigns
streaming
cos
competent
##points
##孪
奖
##楊
街
sarcastic
娆
##ｊ
羯
計
cooled
##inga
##封
５０
helpapp
##鈀
fiction
##⁻
bosnia
pounder
tanned
turtles
browne
##犯
##umb
leaping
##peration
audio
##pan
ニ
dove
##踐
##扁
##殉
hoc
023
##、
collect
purchase
namespace
##sser
ely
sculptors
blackmail
east
flies
creations
##程
bachelor
liquid
恶
gs
forearm
##aha
rescued
kildare
onion
stalin
buying
discipline
environments
恺
##ju
steam
##きます
##紙
needing
艘
children
鎬
assuming
murals
volcano
烧
worked
cologne
zhang
##饷
primarily
##偏
pointe
##gata
mavericks
rachel
赛
八
##oza
pradesh
衅
產
##ユ
##泞
##cp
##督
shiver
##illo
##敛
##iq
sneered
wasn
tangle
##nty
##雛
##orn
##绕
hume
resurrection
颤
##bil
哑
201
champs
implementing
sant
circulation
〜
professional
hotspur
gas
##美
##炙
unique
mendes
germany
hirsch
##邇
crane
##bie
##rling
qualifier
query
##∘
##ₗ
〇
enhancement
nasser
rights
##懇
##owed
靈
adventures
##yas
dock
##って
always
caucus
hedge
馒
ornate
acting
肌
split
playable
habitat
liu
shortened
##街
wounded
1907
import
nwa
##侗
嫘
##|
##75
##逼
crates
flooded
##bolic
1957
娛
personally
gershwin
獗
##coin
graphs
begins
syndicate
castes
##徹
1997
lambda
##জ
zu
##ception
##潢
紅
##蠶
馬
essex
smeared
##唆
腩
outreach
##nzo
揸
扇
##😎
sentinel
##痫
##rka
##phus
柬
louis
闘
val
c1
maharashtra
##sies
belize
illegitimate
##wise
##朝
ი
heartland
corpus
bouts
哦
stir
marion
1701
iranian
proposals
##嚷
##倒
angela
nationalists
##煤
global
##皎
heidelberg
halloween
##torm
landfill
##ml
ր
devin
俎
森
stacy
distracted
夠
defamation
mormon
##moto
##汾
餞
##周
邪
##砲
mobility
gritted
windmill
##ished
outlying
##滿
##钧
carp
knows
錦
90
championship
hug
tubes
rebuilding
##and
attacks
peasants
ian
cochin
喹
grown
kathryn
##ffled
comprising
##orted
coral
briefing
bhutan
mckenna
##′
learned
##ul
ヘ
##∼
##ot
sparsely
珠
mcgill
ashton
134
এ
responded
##姪
spreads
mcgrath
psalm
candidates
conditioned
cool1
##np
operation
singh
relentless
activity
##碓
grafton
筷
##uso
##ghi
##伴
##rnik
穌
held
##せ
##dicated
##zes
適
adaptations
##い
accepted
atp
greco
##ড
768
teddy
##擀
##岷
farmers
##erence
に
##gar
mining
antennas
##寛
marius
˚
pinch
budge
##wyl
marino
##添
eating
≡
##劉
##嚓
##臬
勛
##條
34e
##饴
greens
reginald
##骞
##渊
ending
bestowed
chaplain
##止
douglas
柚
armour
sirius
copyright
##eses
##蚩
playstation
任
遥
飛
##輕
聯
inference
##碟
##rdan
elegance
naga
industrialist
fatty
poland
shia
##た
maris
ditch
horseshoe
浏
##rti
##昵
segment
posture
ass
##擾
strike
诿
deals
offshore
crafted
renal
##常
##lellan
##饕
##朧
珊
bleed
##卵
##着
##仓
،
humidity
honest
##orus
##韻
coding
榈
##拮
lump
crotch
##bos
##唧
failing
##ₖ
##飲
dazzling
龐
citing
copa
и
绎
涇
traded
regina
collecting
terminating
婦
##rad
##彌
##铛
brian
坤
1950
strain
cereal
abstract
1930
##itude
##hoff
slant
責
ে
eagerly
##扉
inspected
chunk
哒
羹
へ
##漯
591
ٹ
pod
##逍
involve
##料
##卒
julian
暫
##པ
##弄
##配
呼
nomadic
terence
##hei
sedimentary
往
##酋
怏
rec
##unch
exchequer
##81
nashville
##部
##vertisement
spec
##疫
囂
##37
tradition
味
啕
2200
abraham
drive
gina
鞦
wooded
澗
蔭
her
##gus
mistaken
builds
dictatorship
bd
residency
cook
bt
##匙
##ivation
##hog
掷
裱
掳
monetary
糧
暂
##溱
lyricist
倆
seville
crawford
perez
##贾
們
bull
##cles
until
も
billion
therapeutic
yellow
##ɪ
##嶽
mayfield
##喂
##かる
collections
betrayed
attendant
瞧
驼
ought
025
salmon
##roud
ked
anal
11th
unmarked
license
##stown
##qui
at
back
##熒
##ido
逛
##americana
##獻
royals
22nd
##鸡
##釀
unbeaten
522
moods
works
fingered
het
greeks
##霆
diseases
5g
##筱
employing
blizzard
楝
mixtape
##lip
##ｄ
仏
honey
hostility
picks
assassins
sold
enter
locked
earl
斬
footsteps
syndication
evident
苋
##勖
enhancing
monterrey
鉚
eastwood
frustrating
gibbs
tracey
隋
marks
riverside
bassist
##rok
1808
##ian
##ressed
蔻
394
confess
##iver
##質
divine
397
prematurely
lashes
bruise
##holes
judy
##eration
园
mined
seduce
buck
dysfunction
##ld
peeling
經
##hang
##。
deputies
siberian
submerged
latino
postal
chow
##bad
intervening
aerodrome
mountainous
##ulously
woodland
靛
##籼
ganji
##缩
weaknesses
poisoning
##²
##遞
##迦
10g
##scia
chord
堃
archipelago
##异
掲
烷
kim
皎
##ville
##场
妳
##誅
sentimental
footballer
caroline
cleopatra
musik
topology
##rran
##erik
##⊕
borne
榻
##↘
step3
##忍
##aft
bragg
##⑶
designate
##沉
策
submission
gustave
nape
##to
who
agoda
##thorpe
lindsey
embassy
streaked
避
shadow
##偌
##肪
##邑
instability
蔡
worcester
##oted
##bus
aces
##煊
##岩
zinc
鬥
circling
leach
conservatory
limbs
museums
##bles
bavarian
##59
possession
advising
##inator
521
singer
匮
##lberg
595
降
flows
##繹
ghostly
##zko
osborn
insurgency
##稳
tread
龅
頑
無
225
continued
adjustments
designing
cyril
337
##瘁
##験
illustrations
chandra
##潰
inspiration
recovering
teaser
electorate
kristen
resigning
##litz
frenchman
parameter
憬
##衷
诀
doorway
deposit
calabria
##慰
鸵
篓
##霊
##ique
actress
##ettes
⇌
acoustic
absence
##aud
tyrol
##onate
templar
anticipated
##‧
vows
stefano
skinned
##য
##ш
139
ef
residues
adjustable
##otto
玫
interpretations
female
##ones
##冢
陆
prophet
##缆
lawrence
髒
unspoken
##尕
##杭
viewpoint
嗡
ｎ
shuddered
makeshift
gold
嗳
干
##ds
##嘉
｛
scarf
phillips
諱
bronx
##nut
##head
##离
宮
##受
cramped
trumpets
棚
573032185
##濡
##vinsky
paranoid
prints
腸
vines
ahmed
leicestershire
qualified
danielle
##ʿ
##灞
胯
##ས
winged
‿
edition
##laise
##栖
oder
creep
蓿
##zen
engages
giggles
序
relinquished
pollock
cautious
nilsson
anglican
blogs
legislator
moth
creamy
创
##踊
##冏
##founded
landowner
歪
##焯
##睏
periphery
hourly
renovations
setting
##uria
5cm
ª
ebooks
##圄
##妆
竊
##坏
crumpled
##｛
##恩
foreigner
##绿
恤
creepy
pe
藤
javascript
##竺
fought
phyllis
倦
##ica
道
deployed
drafted
凸
##蝌
慧
##梟
##骨
benefit
needed
晦
the
##した
pact
runs
##藤
##uro
##nu
closeness
纳
##rgeon
mathias
champ
##๑
shortest
telecast
aid
icp
勋
ordnance
indirectly
lured
redskins
puzzles
knitting
resembled
treaty
nutrition
title
plantations
decent
520
属
舛
duval
thumped
##ulate
arenas
44
p10
##tres
##du
lip
’
##招
raul
##載
stamps
taiwan
##oned
130
##狮
unmistakable
##翘
prices
##尾
##uet
literacy
watkins
majesty
##轧
torn
asa
##鵝
##咄
ta
bane
##rified
gan
ね
flourished
锰
«
91tv
human
スキル
##控
瘤
##恰
ownership
action
##arts
脩
赢
拷
##mah
噩
towers
蔗
protectorate
##筠
finished
massachusetts
庶
2020
specifies
楣
balancing
waze
designations
##茯
sen
##腐
##tablished
stillness
cochran
subsidy
residents
here
##柴
oboe
technicians
sneaking
grassroots
handwriting
聶
郴
##lov
燿
php
diplomatic
##now
triggered
332
histories
crude
1642
##鎂
##苔
མ
forth
##鲛
rocker
##tail
charlie
獅
patting
mats
侧
bypass
##鑣
trenches
娣
pt
ymca
##膏
momentary
quiver
##興
##佛
箇
slot
organization
##achal
塊
communication
villas
shifts
##嗔
灾
ｌ
##les
lamp
譴
stampede
##嬴
jobs
##fun
manning
##emi
健
熙
##円
##hr
##杷
discontent
##》
##哆
源
膊
鑑
##汕
recipe
##kova
denote
rejoin
##喚
brandon
##lat
hines
##marks
artisans
polish
shielding
rocket
catering
唉
encompass
淒
flawless
歙
矢
實
leland
恐
果
##cent
##阀
strangers
monsoon
sikh
analyze
刑
##kei
##氦
スホンサー
##亟
guess
##rand
sf
##mple
zurich
stallion
equality
##入
##健
##tery
##檐
stripping
##code
##吽
##icular
administration
airship
favors
蒿
disrepair
##θ
liberated
##fo
犄
迩
p9
##丝
尤
详
倡
澤
reformation
psychologists
蔔
tempo
blanche
gl
##靜
##raine
##mona
闌
toby
憚
##马
other
mm
pchome
fleeing
cassandra
闻
##sol
sad
tyne
##榈
refrain
sometimes
##uta
disturbing
ellis
bi
##踏
assimilation
粽
grove
##elo
chemical
##mounted
倒
##声
入
lovely
palaces
璀
platoon
wholesale
##koto
瘓
##侄
thorne
northwest
avoiding
##nist
虏
cushion
##坠
canine
##eto
洞
##鬼
萋
##hort
wu
evil
श
##窃
##遙
investigate
##ardo
explicitly
##llo
##cher
salvador
##壑
top100
christchurch
mandolin
tx
bit
downhill
resentment
venerable
##old
opens
##蚀
rp
闽
competition
wiener
marseille
opt
tolerant
##夯
##镁
訖
##壊
##鲍
buddhist
##薇
coronation
filmed
龋
guest
hedges
##耄
している
鳃
specializing
##佃
electrically
##瘴
##润
雛
##繩
uneven
wwf
melodic
豈
琊
##bscribe
jackson
##cuit
last
##～10
counts
惱
##tori
improvements
##oku
commencing
瀆
##膀
uncanny
gills
preparation
##幕
bloody
paulo
obstacle
##holm
##搜
phillies
annexed
##tooth
##titles
peshawar
##ʒ
苔
##嚇
feels
dreamer
swami
kei
##毡
yearbook
up
curt
hugh
tackle
interior
parisian
懷
crystalline
ford
swung
underworld
1955
##－
godfrey
役
hound
masjid
##dus
1760
talk2yam
contributors
queer
encore
macro
##厩
##簷
challenger
##のてす
##撞
##焜
petals
hike
##partisan
##戾
gomaji
##潛
malabar
bankrupt
##rot
##硐
厚
##shine
##盱
##tical
horde
##onus
壅
##銖
cherokee
legacy
##iving
maintain
妖
##窮
dread
shortage
bingo
2022
##蓁
哆
iced
slams
gubernatorial
5500
flashback
侮
swings
##薰
##onal
perry
embarrassing
##纵
##峥
方
##ographic
lass
早
happening
undertaken
b5
##胡
twitched
圩
##唔
蹉
alps
ⓔ
晃
##請
潮
奴
##沂
disastrous
嘻
controversial
##uality
##碳
##阱
restrained
manage
##醒
##項
##gia
cloudy
##豁
##tyle
89
er
1980
##ef
##颧
rang
crawled
lily
somebody
bubbles
fragmentation
obama
竣
duly
blue
classrooms
destination
$
##vir
暖
##のお
independents
filing
皰
figurative
##ease
contradiction
敞
##dman
嗚
roast
ego
##畀
##tric
surroundings
plates
dessert
##睬
bedford
##抄
employed
##庠
##酱
smithsonian
ぇ
蠣
##靴
##乐
culminated
↘
176
vernacular
##neer
##tale
jefferson
##籃
e7
milford
##ᵀ
##显
ecological
stu
##nction
inactivated
robe
夷
converge
しています
observe
##520
##rh
closed
暇
瘦
熠
##hore
ewing
塗
atop
tongues
weight
there
handicapped
砖
##か
‒
##ロ
hesitant
栃
##wear
yields
breakup
##vey
mysteries
##vah
muscle
urban
##薄
##ｼ
graphical
thirteen
gpu
sturdy
055
##master
##~
synchronized
monograph
pee
jonny
棋
##pia
毡
判
##nage
traveling
##悶
dominion
stirred
walkers
##writing
theory
##蜿
coached
##cken
1871
##uga
country
妲
##府
katherine
diplomat
##sfield
##绞
##lta
camel
噼
##ced
renew
熱
##獷
引
muted
##捣
guillaume
jett
rajasthan
##嫑
laszlo
##sitor
##riam
myrtle
莱
▼
sided
嘖
摞
##嗆
resorts
##汙
academic
mic
lay
嫵
ন
overseeing
impressed
brien
basins
瀬
implementations
5c
##hua
##鷹
laser
grandmother
gloss
labour
##銅
℃
throws
suspended
地
tsunami
valet
##魚
##kley
盖
##～8
##uno
镉
##洋
jacques
愫
##ლ
##掃
friendship
##ע
mandir
horrified
x1
since
##26
sensations
burnley
颱
纣
threatened
##葯
##uis
sector
##bing
bike
##叭
##→
踵
loving
##ution
dynamics
卜
iteration
##沽
乒
##itz
概
##anian
maestro
machinery
qb
mach
moderately
convoys
##鈞
##200
investigations
stricken
lagoon
莹
束
hola
feed
perrin
忠
tricked
dia
implemented
囿
incoming
rub
paso
liturgy
concentration
lightning
sooner
gore
bust
annie
bedroom
mammal
ignorant
dual
##phon
##claiming
鹑
flawed
thesis
##mina
緝
##lich
出
destiny
👍
##tics
##驴
##剛
##槤
疤
q3
##钒
##馳
education
predecessors
destroying
宜
##驱
open
trance
freddie
##刍
maize
scanning
dated
blamed
唏
##苜
##弧
developer
cyber
microscope
southend
tribune
mouths
seasons
##蜕
verve
##nger
薊
岛
airs
稲
spokesman
ས
叶
からの
##姹
##谱
malayalam
sabrina
＃
cursed
401
##fig
每
##鸵
櫥
##16
viola
揪
systematically
behaved
##啕
…
tila
aimee
disks
sicilian
pablo
ness
##楹
眼
##kal
ordination
ferrari
shows
willow
榆
transportation
##ㄆ
##诵
閩
ी
尖
cdma
洽
额
##摺
肃
功
prestige
davenport
keyboardist
laying
hauled
##eke
reykjavik
炀
🔥
commune
novella
掸
clasped
bikini
object
谋
u
weibo
##過
unmarried
lord
##妇
jesse
mi
free
battle
heightened
##形
subsequently
cube
lasted
##pura
franchise
##琛
瘧
astronomers
##铂
##揖
##pis
bathurst
##rie
爐
ต
tonight
接
kylie
sprinted
##份
柵
surveying
##pire
suspected
##宋
##勃
陷
##茏
vigor
##叩
lp
challenges
##嘈
##₍
marker
##递
译
stade
muffled
andrew
delgado
亦
swell
recently
storytelling
##醴
seminars
蠅
parishes
birds
anthropological
illegal
implicated
##xi
##谢
傣
釘
##鸪
##oop
strategically
manifestation
landmarks
##憲
##童
inserted
庁
venice
##脹
##屐
nautical
##ovo
##雁
shri
窮
onstage
碉
##斐
崂
##ilde
##叼
holding
fourteen
consolation
悯
blackness
￣
vacation
esteem
##繕
hacking
simpsons
球
strode
##蠟
1250
payroll
chill
sixteen
includes
mint
##８
vladimir
theatres
蝸
##mon
recruits
aligned
##草
gui
recommended
##gin
##井
compartments
nosed
ascending
##ented
##炳
theology
嗷
魁
##圾
idiot
inquired
massive
chases
dealt
afforded
##嗬
##烷
frantically
##浓
strengthening
south
mclaren
##nson
##web
哲
250
subsidiary
socialists
temps
indochina
しました
##鈣
gloria
##ili
contemplating
attended
sato
##葺
##bat
##rit
recurring
嫂
用
##ᵗ
vmalife
internet
karin
##tower
tonga
cheated
##д
##idge
##烙
##berg
cbs
舫
shown
include
benfica
worcestershire
changed
mortals
##瓢
疏
wcw
stills
##挞
##پ
bali
绍
##芸
##ᴰ
##闯
yale
wildcats
##˙
##藐
籬
debuts
栉
铭
##cked
clemens
娇
tottenham
痙
mosaic
skimmed
##对
unite
ink
殊
eighteenth
computation
⁰
癮
##izes
holt
療
##鱉
mcconnell
##竭
陛
鴨
##rlin
##漳
nash
transformers
⊗
##嗒
disappearance
##hane
exercising
cerro
##矣
х
।
traces
##孽
##坷
italianate
hope
standings
##bound
davis
浃
囱
arcs
rotten
##zzi
guadalupe
counter
##各
nielsen
##瑯
bangladesh
odor
songs
<
##蒐
frowns
##vy
炊
horizontal
しているから
屠
##τ
７
##cultural
nginx
iraq
constraint
british
motifs
da
##acion
彎
麦
occasions
##姝
##绽
##帼
slightly
probe
蟄
##roved
女
##ⓘ
mused
speak
揣
鵑
server
琮
永
arcadia
simulate
##誡
gracefully
swept
##濤
##窒
afl
##饱
絨
rite
wary
##05
baptized
##济
氮
满
feathers
##殁
殞
strokes
misunderstood
pounds
醣
寝
##ーシ
##咔
##惮
updated
袍
73
researching
##疲
priests
charlotte
bidding
溅
positions
##懂
yoon
[PAD]
persians
wyatt
##箸
electronics
surprisingly
registers
renamed
渥
##覆
saetan
108
pigeon
##淋
opportunities
##⒊
##iji
##撇
third
ই
780
insane
chapel
##誨
374
晗
##滁
1844
patty
soil
railroads
##wara
##и
armoured
lough
666
tracy
legislative
women
alliances
##採
huntington
##纂
缜
footballers
窗
p2p
totally
畢
intensified
藕
擺
##劏
inputs
##応
##摸
齿
encounters
noteworthy
dir
served
珍
##kota
craved
##鲱
##craft
##佞
gandhi
淆
純
hadley
by
##懦
##昨
cyclists
##肚
##ae
螳
410
##號
giggled
midi
glenn
arriving
madras
##aceae
nearer
##orough
assigns
4k
##暗
abandon
##resh
##瀛
汰
parted
h6
##畴
stephan
tw
##蓓
pistol
indicated
秽
atomic
topping
##萸
covent
##nen
##lice
risked
avenues
bobo
che
##湾
蝌
##烹
棍
篇
吝
damaged
framed
##拂
##吟
asbestos
progress
editor
せます
5d
##nberg
✪
224
休
limousine
americans
##bags
cracked
##のてすか
ceremonial
700
##cca
闰
##nosis
##鄒
##萁
靼
##罄
##韬
gmbh
##吓
thereof
##ups
迂
##閨
##щ
噬
##册
greenland
##いて
redding
彬
##85
##００
##嗷
##邛
nodded
mothers
##iz
gestures
whig
electronic
##驗
triggering
miniseries
blank
##鬣
exhaust
endurance
顎
exemplary
##窪
collaborate
##cuting
##跪
к
せ
envelope
￥2899
##ddled
expansive
眾
rebelled
##able
宣
granite
凄
lives
remnants
margaret
135
jensen
##兔
黃
1840
##谣
##dles
leah
noon
##rations
vivian
initiated
1802
partial
##ɹ
graphics
##凸
blockade
filmmaker
affects
see
##链
mineral
1931
螃
##剐
promised
vis
弟
阑
をこ
詞
##園
茁
tirana
##珍
depart
mechanical
茸
disappeared
淫
ｙ
##贫
##規
##陣
bodies
opportunity
##那
##far
lad
系
closes
嫩
##49
##餌
规
approaching
##crest
confronting
远
##drome
greatest
ed
##兌
stammered
彤
##∕
indirect
concern
##摆
厅
；
##搖
judges
##uca
ara
synthetic
undrafted
contest
retire
tribes
##錫
espn
fusiliers
##荚
readings
##007
leukemia
dart
massacre
archbishop
faint
iso9001
stakes
lin
multinational
deer
埤
##鎮
system
梟
爺
看
##捉
soloists
cpc
institutes
honorary
rubble
##鉄
prompted
ashford
丽
largest
##rle
turbines
##gging
##巫
basha
hong
##max
##باد
##途
toyota
session
##糜
feared
g4g
##body
斡
error
alta
た
##冼
brethren
congress
##賄
malibu
entertainer
##tter
##nse
##驥
##osphere
grind
##tries
跋
##uke
hoffmann
痹
##牍
lying
厩
settled
##軀
locality
property
##nti
e
personality
妇
##茧
瓣
阮
arising
cyclist
annabelle
genius
##安
uefa
##cm
doom
domingo
implements
20mm
rifles
nat
缇
##ゅ
##ites
1752
明
鋰
nitrate
representing
麥
charms
##otide
framing
騎
##淡
##tor
after
tons
gave
kobe
##緒
##隕
partisan
obedience
vans
俟
##罂
disposal
ahl
talented
##bies
gilles
##恻
principals
##摊
淼
receipt
怡
親
##嚥
accumulated
outlaw
peered
mar
ても
nathan
weights
patna
u2
abbey
trader
bullying
onions
mcintosh
##♫
##屆
習
words
conjunction
slip
enabled
腌
marijuana
贍
tighten
deeper
cavendish
jillian
vanderbilt
recipient
##ɛ
綴
libre
referee
subsided
◕
sodium
摈
##qq
absolute
backseat
pro
cruising
##bm
ₜ
腼
┌
##t00
punches
涠
missed
perpendicular
unsigned
narration
赌
apart
语
##襬
traditions
264
genes
jayne
一
##ں
jesuit
gifford
##郤
outcome
completing
蕪
缈
hasan
deck
particles
叭
cadet
gaul
##т
rushed
expressive
novak
いいえ
籁
##驍
##encies
pinto
guitarist
##隋
consoles
##ect
##扈
撕
lullaby
胸
##濃
manufacturing
amazon
夜
gaining
poly
warped
##ets
abolition
##imate
spat
1801
stole
juliana
notre
纜
colors
##ᵍ
supremacy
urgently
awards
剖
##ᅭ
shale
diana
##垮
shootout
姓
##韦
ք
prize
princeton
convenience
##苍
##冨
##river
##tish
##pants
##澄
entrusted
##tell
illustrator
##啓
⋈
臀
##缸
damaging
##kus
tickets
salary
築
1872
##馈
compliment
क
lama
##郵
retiring
homage
eduard
鯨
legend
声
##rion
indy
mammals
dorsey
realize
ali
0800
erection
wendell
james
その
plymouth
诟
patrons
pits
##tou
##磅
milan
##莢
delaying
choking
programmed
socialism
##ᵘ
racist
##濠
##储
unrelated
♭
comply
串
agency
垮
1727
850
captivity
ide
semifinals
tory
utter
##ass
schoolhouse
nominations
##tb
decoration
decade
dino
噹
expense
florida
nw
tolerance
イカせるテンマ
guerrillas
##屠
mabel
gretchen
wen
individuals
##屄
particular
##き
genuine
colorado
##鈎
ㄢ
inheritance
褥
phased
verde
relief
ensures
##stic
notably
ramsey
sing
canteen
thou
catholicism
spoil
钳
##dah
溥
##around
##腥
sloane
thom
lobbied
gambling
atoms
voyager
cox
##icide
##孔
organism
splash
reservoirs
##य
瘡
hepatitis
リ
##apes
薅
氧
50g
insists
flux
徒
gradual
husky
were
##ब
夕
##洞
##懲
焙
skyline
##nche
##殞
shandong
潤
##浩
微
stations
此
##燧
##嘧
##劲
catholic
##trix
limiting
兩
欢
##瞼
isp
##面
telecommunications
##ura
##¥
defendants
nz
馀
##郝
##cta
expansion
坳
guaranteed
##银
1952
##ove
##跎
blacksmith
burr
matthew
##rting
с
##餡
rocks
southeastern
olympic
equator
##飄
pixels
evolve
thinkpad
叽
╰
marsh
##購
edu
##罗
potent
1979
期
##nah
royale
attempt
mackenzie
otis
snort
activist
extensions
鰓
##猗
##胺
##ர
lap
uttered
incidence
##侶
robot
frame
季
##炸
✔
cultivated
显
##nus
1763
2nd
inparadise
executives
performers
complexes
©
##缜
peoples
denying
expects
なお
##樱
departmental
bastion
456
empathy
ᵇ
larry
##れる
cinematic
sociologist
##ette
锦
幡
底
exploit
橋
231
manly
##kari
shillings
unnamed
咯
temples
##rda
theorist
dolphins
growled
##rno
##lage
weaker
mood
lurking
##道
脉
奎
##咣
##蕴
##赴
psychiatrist
roi
darted
殷
##筐
##bba
稠
entourage
饪
blossoms
##蜴
hague
庇
drank
##卓
##dge
trusted
##swell
##tral
yes
clips
菽
haggard
随
royalty
##tadt
幣
marlene
packet
##渲
咳
francoise
##裊
composure
capturing
##uising
shrugs
##搅
roxy
coordinates
##oh
omaha
寇
讽
rumbling
sculpture
synthesizers
futuristic
##ˣ
##isch
hampered
lex
##緘
interiors
##赊
liz
##ff
vent
艱
fun
##钏
##炜
##傅
##训
##﹝
r9
hush
##翰
darker
代
##th
cheryl
sponsored
暧
嘣
##ła
hired
papa
eds
審
native
ナ
選
20cm
preoccupied
indira
betrayal
##lists
hubert
sparta
poke
側
monopoly
##lind
讀
wardrobe
##iec
##ᆯ
##อ
comparatively
##臻
specimens
##圆
accessible
巡
##铣
##ais
##酷
kerry
factual
traditional
armand
instruction
##its
##ator
gilbert
劾
韶
轶
capitalism
##guide
蜿
ड
##rton
纽
jeffrey
误
maia
2030
nordic
##cock
locally
moved
josephine
sprawling
monastery
nec
紐
##het
诡
##fies
##班
##hya
##晦
##蹙
bail
界
westward
ces
practitioner
##蛛
more
##筵
##骗
##nam
lunged
轆
interests
谏
##第
cages
芾
promise
potion
##謬
##bilis
阙
##郑
repealed
crush
millennia
processing
enabling
##鹈
republic
##tock
##61
構
##list
incurred
餌
骨
stump
牟
##琴
##►
ether
closing
##緞
nightmare
礦
32nd
degree
harpsichord
investigating
s8
12345
edge
iso
##nica
202
scenario
coptic
##ーム
##ena
骊
212
怯
organize
1950s
travers
1958
##なと
swirled
它
matching
medicinal
##銀
hairy
##仗
niall
cruisers
irene
艇
##016
ং
propeller
blushing
##悵
##猶
parliament
legally
shirley
wholly
匝
##55
##祷
灌
yugoslavia
valerie
afro
##繪
侣
lantern
tour
failure
grasses
欺
笏
schools
别
memory
irving
銖
谨
advertisements
1980s
emphasizes
large
stylistic
ached
cara
never
恻
##ype
pub
挤
lizards
##ists
ᅩ
弛
cv
biking
唑
##穴
dramatically
##wled
##その
gland
##扱
gastropod
##grad
repeal
##ino
##莉
assignment
exemption
##lation
##pins
##帑
##舖
##oulos
endangered
attackers
invoked
dump
##bury
##tings
##镉
make
##撸
ellie
##饍
robots
车
##ning
瀋
nationally
comb
1978
##loaded
play
羣
steps
examine
burden
忿
##version
##onic
duran
samurai
掂
households
slung
##躉
##gna
##类
ndp
##iard
bharatiya
criminal
thorn
##参
myths
娟
##yck
flyers
pleasantly
bon
##騰
##herton
晋
zoe
##die
##莠
##鑽
##trics
paula
sire
americas
##晩
##dity
921
##螯
exploited
forearms
clinging
explores
燭
fishes
嘟
amos
##aks
釋
##愕
beginnings
##ganj
आ
膑
##ᄅ
1604
胫
袖
懦
##钱
##骂
lists
plaza
kiara
religious
宦
笈
blunt
stanisław
bribes
nina
dm
##震
##訓
九
##isse
nepali
dept
anthology
operated
warmed
tool
shack
ce
varied
擊
beating
anglo
##喙
##dern
boats
son
walden
##柞
1765
susan
volcanic
娜
influenced
xxx
跪
excellence
##013
laird
251
##蕙
editing
cola
##硼
##傲
##ignment
deciding
myth
冒
##court
trio
##缢
##tten
##ｔ
##月
##姬
oblivion
homosexual
挣
welcomed
##菘
対
類
helmet
熏
颁
##遛
maintenance
guerra
##ivision
palestinians
ᆨ
values
tiny
##jas
烩
corrections
##lus
crimea
barnsley
faction
÷
##耶
##llon
julio
種
##煒
significance
119
悍
旮
rebuilt
＂
##ม
yielded
maroon
signal
semiconductor
stare
##ga
##寬
possess
assess
##vision
嚨
##ンター
seeker
embark
##uil
##匮
upward
##靖
correct
狽
##角
multi
##伫
sampled
##sho
##往
##雒
蕊
concepcion
js
##箔
##窑
##vale
reinforcements
schuster
﹣
volunteers
姑
insignificant
beard
##简
##襟
愧
##tip
orchestrated
##嘍
closer
punishments
##rred
瞿
aftermath
嬛
12
presidential
##弱
sewing
shareholders
derby
conqueror
shifting
氲
幫
葭
external
##uba
vascular
artificial
langdon
循
##ization
reductions
unclear
patriarch
##erus
burned
##chester
patients
區
martyrs
accusation
graph
##dl
synonym
joyce
bobbie
sentence
perennial
##ered
##埵
sykes
##瑀
1830
malaya
hitler
romantic
蜚
%
determining
anhalt
##霁
泡
怒
##蚵
insights
incidents
耒
yoga
册
ip
variables
##イン
虚
840
##嘚
parkway
ignorance
貨
##艇
internacional
whales
##侯
locke
tap
##筑
wars
southbound
##匍
possible
pvc
歷
dried
郁
viable
balthazar
##k
mega
##你
brentford
chesapeake
扬
elected
andrea
eureka
senses
threatening
##蛇
titans
賄
survived
sigismund
reactive
semantics
##辗
##ط
啬
fur
##ड
belt
synod
嘭
級
ও
vivid
exposing
1720
101
enterprise
sutra
##垚
##چ
絢
##using
獭
broad
however
##傚
鹼
bwl
453
槿
814
##洸
delegates
navajo
doubles
rosie
death
える
倬
##tails
##责
##post
墨
##强
al
##rma
思
涮
legs
crawl
peeled
诸
leeds
sails
##tang
invading
quad
salty
##say
##tax
เ
##aga
幸
ottoman
interlude
丶
筵
mustache
##⽥
ة
滓
扁
industries
premiere
治
ᄑ
慰
##lson
们
fight
deluxe
##蜒
##anda
adriatic
thy
both
覦
##闲
##连
locals
hovering
mansfield
rites
##牧
nursing
##rag
gmail
##tech
mundo
駕
腻
嶇
ι
##ska
induced
gardner
creators
##蚂
freeing
##⑦
soloist
simulcast
torment
##丟
overdose
rabbit
4600
ago
撿
antiquity
牢
routledge
夙
##001
##chrome
##才
ana
taxon
##陞
hermann
financially
levant
##笠
lankan
蔫
##煖
haitian
amend
该
##承
1771
slashed
observer
inability
ag
someone
statehood
##瞇
laughed
##ｉ
highlighted
survive
##eson
monday
i3
ム
##澳
##cast
##亨
berkeley
downloadable
潴
##紐
bearings
callahan
徘
咸
cause
##rkin
##usions
截
m2
holes
##ink
expand
438
educate
terminal
specialists
##泪
issuing
reign
〔
边
纲
##嗖
eng
cloak
肆
嚐
yesstyle
healthcare
帜
##惫
northbound
freshwater
喋
##啻
##覓
quickly
lineage
behind
reviews
delhi
##mic
顯
broncos
comedic
錶
team
generate
saxons
headline
sections
编
##証
##鴨
corey
##昕
##驾
leary
##禹
##umatic
##裘
unearthed
诤
雄
##嗅
boulevard
##黎
cannon
electoral
yates
bloomington
599
合
##linger
##ц
祚
桜
speech
氟
risk
engineers
movement
ম
gorilla
鹏
pristine
genus
haydn
悪
commercially
clenched
gust
patiently
##rly
decor
domains
fins
2k
attacking
胶
adchoice
ads
bolton
moroccan
curtiss
遞
awhile
##成
##矫
409
##tad
##肝
juniors
##ন
developing
⑸
##ₛ
溉
next
佃
梆
celtics
handsome
##sburg
culminating
hungarian
##╱
##挾
質
颯
select
isla
luckily
galleries
donate
##ย
喎
them
≧
##髮
憤
##gc
শ
##ingdon
##bar
characterized
bloom
##taff
temporal
##opsis
schemas
##懸
輿
##zl
judgments
##菡
table
##蟾
譽
maitland
checked
jealous
madam
weaponry
袈
辉
bruce
fungal
cnc
报
dice
instructor
##י
◠
study
僮
cheers
##izzly
cree
##₩
brown
##neuve
##１
cn
##kong
armagh
黒
弁
##处
sexually
xml
##·
##mind
tbilisi
dimensions
mesh
備
##颅
##娅
##洁
##決
舾
groningen
骄
portrayal
##jun
眺
knight
##峰
##meral
combine
verbs
考
##齢
##athan
榜
##ivar
##hab
##oso
##dating
##臉
sports
##iography
墻
`
闊
##cas
穴
contested
challenging
##♂
##æ
##尔
2010
蔓
smashed
wax
##作
##孳
##納
discharged
##bation
##胸
gaza
蘼
##col
气
sinn
霊
##貅
shanghai
##協
audit
shoulders
##rco
vilnius
##烽
answered
dominated
loose
盎
１２
worn
glare
##売
啶
馆
putting
##raphic
paterson
landscaping
##譯
glass
##蝴
section
moons
攪
asr
kerala
activists
飓
##eurs
leaking
sprint
calmly
record
stretching
maritime
361
##mand
##ません
łodz
nobel
niccolo
##hon
sven
##纽
遒
##罡
##习
##晞
garfield
zh
##bon
belgian
##完
附
##xy
measuring
creates
##蓋
compensated
徠
mazda
##乍
batsman
unfolded
甩
1707
词
##轄
伉
##ots
paintings
solvent
arthritis
seas
drains
castile
佗
raging
quantity
##car
##我
radio
wong
##dner
neon
awkwardly
##➤
##饬
##age
yvonne
##暫
enough
sax
誥
imam
chilean
##dden
俪
resembling
mills
いて
##白
##zza
圄
spilled
contracting
恫
ports
漏
tatiana
糜
##敷
mimic
counseling
闲
##dell
indifferent
峇
囑
organizer
value
蘋
##ᅮ
novgorod
kincaid
certificates
corona
荊
##埗
##閾
identify
am09
##砸
scranton
done
skye
geographically
emba
##姦
睞
sensor
##陀
benin
recruited
伽
wisdom
countess
##rissa
荤
iran
##born
1823
scarlett
##逅
interference
sevens
chilled
maids
⁵
##谁
bernhard
advantages
westphalia
诲
bengal
斓
mp
##涧
##’
raven
replaces
徽
madison
##鳝
aromatic
dream
##hoe
##icio
##裔
rattle
laboratories
eat
bombers
##fication
exercised
##頹
觐
accomplish
##捲
##曝
ba
##ez
consultancy
corrupted
##kin
iherb
##棂
patented
forgot
collapsed
cavalier
immediate
editions
demonstrates
##灵
lounge
pavilion
partnerships
rca
##逆
hybrids
甸
redevelopment
competitions
曙
##把
抡
finish
latest
deficiency
##¬
乍
venezuelan
desperation
elongated
##zie
tender
##紂
tightening
旃
##跑
##霑
wet
snuck
臻
jeans
framework
embroidered
##博
depleted
vegetable
##険
②
烽
deepened
暄
犒
谛
brahms
217
##铠
glimpse
##leg
war
##ـ
聲
##fixed
torres
jules
talbot
##概
recordings
passports
tree
glided
pose
implications
##壢
stomped
legends
##minate
浒
tertiary
蔚
spectator
psychologist
昧
functionality
滲
kochi
coughed
12000
retro
##绊
##蔻
##saurus
##淮
##闘
shaping
dinamo
##las
bishopric
##hoo
##灌
dartmouth
derry
merton
ting
##kulam
##iate
conversations
钩
##lution
##码
remote
crunch
##ux
##ature
abby
##ico
sammy
##vron
unified
##梓
transferred
decreasing
1851
juventus
濛
1926
elders
沐
006
optimization
##inging
harmony
churchyard
##芩
1580
meter
audiences
##楞
##黜
##鄂
moral
reckon
mechanized
##鉚
modular
庠
##yi
ensuring
砺
arboretum
stable
hsu
costs
##轨
pause
5℃
insistence
鈎
headache
炙
jimenez
sample
##灿
colonization
##臧
tablet
▲top
##莎
##濟
##蛤
buyers
beckett
##巡
##倖
##次
flint
##嘞
##lea
##last
##篝
governments
cardinals
prejudice
←
県
##ham
punched
alderman
indefinitely
instagram
##虫
##住
##ciation
comparable
1661
bernard
restaurant
pot
kaitlyn
##措
ם
號
squeak
##倭
cartwright
greyhound
##犸
##ই
魷
##嘯
interfered
禁
垣
##ف
##ient
孪
garden
醬
##iva
洩
##摯
beyond
416
咁
##佬
stimulus
comrade
雲
plucked
ape
##outh
reissued
mls
##摘
淖
##雙
ankara
fries
##lity
college
mont
##驼
##raph
ては
hugging
biennial
holocaust
##缤
##pton
##颦
##豺
emissions
thierry
刀
ernesto
triple
dismay
##keeper
##婢
齡
henrietta
##頰
maurice
咐
##tional
##智
performed
christians
贪
##stan
##蜊
zara
##meric
##kor
##＊
舒
palette
hardware
##秒
##炊
causeway
##湖
chess
899
锣
##oc
##誥
##谯
closely
link
1983
dave
somewhere
灰
discus
郊
##抢
##ㄒ
storms
##瞌
##«
twenty
stacked
ice
riot
洛
##sir
勺
citations
##墩
##84
races
toulon
homo
triggers
##ェ
rodriguez
纠
##ð
##汎
##dilly
##锯
籐
##艳
##依
atoll
粧
莒
tents
江
##マ
strange
##nay
##宠
##﹕
嚼
##页
雯
##⊙
##unt
hysteria
##燎
##慌
stats
屢
髦
吉
##rvis
proceed
غ
##rice
彈
provide
##arus
聽
proportion
魚
##iating
gaped
##夫
##駄
bluff
進
chronic
##bbies
promising
##xide
annapolis
##rosis
插
emotionally
conserved
owens
##の
##墾
bn
circa
collective
##ntes
##僑
劲
crypt
messed
剷
ㆍ
##躋
derelict
nonlinear
杜
chased
selector
leftist
ᵥ
##瞒
virgin
declines
##enbach
##厥
thirteenth
hub
痍
quarter
philosophers
thinner
较
戕
冽
165
tucson
flanagan
fpx
河
擞
畿
##觸
攢
quiz
voyage
protective
murders
aggravated
##uming
glorious
vegas
oriented
spinal
##骰
lancashire
pam
##專
oversight
晔
become
jacksonville
climbed
##eng
putin
द
emphasizing
honeymoon
outburst
shoving
mariano
鲛
##抠
##borg
##eded
##pressing
##oting
##蛻
莖
##蟬
greenville
gut
##厌
concussion
amongst
喙
alive
packard
calvert
gunners
##style
mtv
fuji
剧
what
moreno
vale
buren
kong
##约
exposure
xuite
账
herds
##婭
institut
##預
蛰
##短
##ara
howling
marketplace
garlic
鄺
georges
雒
##twitter
铐
warns
markus
摄
迭
katie
urging
horns
辜
##刷
##して
##铄
乃
energetic
##sul
marlins
ri
xiv
1603
##攙
娶
marlborough
进
枰
##=
葦
rampage
##懷
馮
##卧
sina
##rde
墜
shane
sgs
organs
theodore
rooster
～1
僱
angular
##盗
63
mortally
asserted
vectors
陰
seized
ᆸ
恚
浑
鋅
ivo
##ان
##ட
adjutant
horn
##uity
楔
##塚
閑
##tro
watt
##螢
☆
##猥
浄
##yt
##un
batteries
##铤
toy
##挲
勵
##谚
##×
嶺
复
衿
2012
##滯
intently
掣
##ina
##宁
gravity
呕
tallinn
##惬
publicly
gingerly
averages
##bino
##獐
vicious
journalist
##階
ku
##镛
dissolution
reno
por
origins
##析
badges
commotion
##縝
##ka
瑾
##俨
maccabi
牒
##燦
##蝸
staircase
讶
holders
predicting
毋
barrel
eba
fugitive
logical
promotions
##!
##umble
authorized
芫
侃
##2010
##欄
ₛ
↦
##power
afc
##子
erosion
constable
ュ
3600
sorts
note7
##ץ
shade
و
comedies
わ
tr
##期
psychiatric
within
##culture
##ried
##grate
frustration
marching
borrowed
万
食
awkward
佔
##雪
##能
needy
##苋
瞓
絞
5000
disease
ions
monkey
interrupt
bret
ching
##cade
164
##枉
improving
soprano
grouping
##凭
slash
grassland
矫
##ե
manner
卵
metadata
airlift
each
fortune
י
saddam
superficial
##痍
1741
frequency
##疼
wikia
atmosphere
鲶
惟
contention
grupo
fidelity
##rre
懸
##霏
##mum
##min
閏
##ring
vanish
##較
distinctive
harvard
2g
ɫ
##撒
theresa
navigate
##逸
islands
1828
intrusion
##vic
suspension
##deh
infantry
20th
##俟
filthy
邮
妥
gonzalez
##討
apostolic
talk
##榫
industry
dusseldorf
##ulla
fluke62max
竺
ｰ
skirmish
##bered
##裟
pajamas
details
muttered
捲
щ
##ffen
##ide
寢
##况
反
crowe
##ʋ
##焼
##砼
nucleus
玛
excellent
hideout
likewise
铉
##ma
cars
colonel
##itors
foul
fame
##搞
evaluate
##itated
tuition
fairfield
6gb
chihuahua
chorale
rayon
installment
muller
dimly
douglass
##息
##omics
travels
##右
devils
06
marx
eleven
algebraic
stadiums
##¿
##猾
derivatives
婿
extinction
spotting
韭
﹗
##毽
懋
##dal
觞
##unced
##hu
囲
resource
moans
##脐
recycled
氵
improper
uncommon
逸
darling
sergei
scots
##nath
deprivation
畜
##llin
蔘
emblem
##召
dictionary
sedan
汗
alzheimer
##lovic
##ルハイト
1880s
##tino
blah
そして
##靄
horsemen
侬
navigable
darwin
powell
fergus
mohawk
胁
imperfect
##正
cramer
##茜
estimates
splinter
##缥
##sund
sharon
との
hockey
##忆
##nde
geoff
links
plotting
pension
##諡
bottled
jia
即
##諳
##hetic
clements
divorce
cave
##赁
##忐
##眞
eurasian
贰
symptoms
densely
##uding
preface
christian
bingham
##nte
洶
sucker
2mm
##lau
candidacy
strata
xavier
pumped
##钯
蒋
consider
cohen
throbbing
##慮
intake
##163
00㎡1
##泯
spontaneous
slots
藍
##hm
韜
##vos
垄
##aday
ssl
816
administrative
##辖
continue
fascination
denton
##璨
##mer
##寿
cruz
艷
##诣
muscled
##rdes
personnel
##熄
identifiable
##slow
spirit
bowler
specimen
##簍
obsession
委
filipino
栅
铎
prompting
汲
铛
exploding
鹌
advent
濁
towel
7
啫
##千
thankful
##與
咕
靳
brigade
禱
##more
##囫
faq1
##elman
cunning
##淌
##icides
concerned
##权
澀
经
residence
lac
##沣
##糞
##间
ல
landowners
lina
庄
namely
##褂
4gb
legal
unspecified
##tream
nicknamed
etienne
edison
##盃
##齣
##刹
斩
biology
sampson
##潼
marcelo
##臀
cuffs
##築
campaigning
shetland
sulawesi
##2d
benevolent
believed
賽
##hey
満
##ㄨ
pew
blind
furlongs
カ
limp
ceilings
billing
悄
##汁
townspeople
##诀
asia
登
##ren
pontiac
##蔑
壬
sensing
wingspan
嫡
謠
quentin
##杯
transient
##px
theta
barrels
overheard
gaulle
赴
##don
箴
upper
restored
##喜
1634
singers
睜
廊
##烘
1975
steelers
榄
##ᅯ
庾
cheaper
倩
github
ratio
##嚼
eur
describes
##ס
functional
##ちは
##ே
nagoya
厦
bloomberg
mace
plurality
battered
##柏
颞
##慳
congestion
綸
ي
巷
calves
×email
縫
##闌
钎
刃
##璋
breathe
edit
scents
##￣
佚
##tine
##t
extant
regan
schultz
赧
shook
quo
##奮
argent
丧
##摻
##晕
medium
hampstead
##黴
##vm
嗽
enroll
##hue
biochemistry
##顱
##torium
onboard
nikki
mona
jumper
##fly
##train
shuffled
恰
phases
cavity
review
##掰
貯
島
algeria
##得
archive
##哌
exclude
kira
##abas
turquoise
##恤
螨
##儷
metallic
steiner
5s
footprints
##桎
გ
##ールを
writes
stroke
##av
##was
weightlifting
薯
machines
##習
##mie
apparent
proposal
腐
厳
##gio
##mers
veto
两
informant
##栗
##त
ios7
遍
iec
companies
##rator
##mbre
痘
lookout
slug
##潑
focus
swirl
伸
fifteenth
峪
##よって
慾
stinging
views
##鑼
efficacy
noses
gangs
complexion
##鹧
つ
ᅣ
opponents
##pen
lovers
kala
##漆
marty
initiation
cooperate
##阮
誨
poses
琐
torpedo
stained
tight
hereford
邁
1643
ponder
gigantic
opposing
理
##甩
melbourne
essendon
##ء
棠
simi
##嫌
为
##籤
jquery
熹
carroll
releasing
##nical
afterlife
##漪
construction
rediscovered
pupil
捞
狎
puma
honour
##orno
##债
##苷
##ured
soap
fires
illegally
remarkable
semantic
##榨
##borough
louisiana
mystery
jena
frey
##飓
favorably
##lide
睿
266
6
紘
泱
##ask
geek
sprinter
kyushu
environmentally
絕
announcements
##昆
immense
totaling
beheaded
##嬉
##iferous
finger
pollard
disagreement
hazy
mackay
betsy
##ishing
brace
##und
谦
exploration
rejected
nm
##贿
boxing
185
lohasthree
##詰
##ppy
knives
鄰
precious
炉
america
emerged
##楝
琉
দ
mountains
apparatus
##屈
##あります
##睽
##地
饞
獸
##ste
outside
##ᴮ
gestapo
##褻
isabel
soul
nut
edwards
##wig
28th
haired
##鞏
##掖
##専
##讷
considerably
##驚
merged
genevieve
匣
hopkins
##瓦
commits
recognise
##ك
藻
##匣
veins
bce
##inking
##瑁
trim
jew
airplanes
expectations
徙
閡
##爲
told
洄
palms
connects
##oot
legislature
permits
oakland
##壓
##彥
acquainted
##﹁
aleppo
whiskey
##ct
215
р
##禱
##ocks
piston
ヶ
masculine
ep
prized
paraguay
##տ
##匱
thieves
gazette
ɡ
##央
insee
s7
epic
reasoning
gwen
##35
##竣
隶
##留
theirs
廿
1894
eaton
brutality
##祕
ming
##迸
##胄
shtml
##镣
impatiently
##董
ｂ
greyish
詼
vested
##chia
yours
##rod
constraints
殓
##璟
tug
##time
callum
甌
brad
legitimate
disappears
intercollegiate
##osed
discs
inspection
sandy
canonical
a6
antibiotics
##ppet
wills
consumption
regulatory
##渗
##稔
yarn
##鵑
portrayed
episcopal
regulates
σ
##擴
freedom
##讓
##累
##践
##菟
1628
##otted
開
##热
##珅
##國
淙
newcomer
尴
##◇
holm
##a1
cedar
##bol
knights
organizers
澆
##rud
vision
##ional
##燼
saber
##暧
五
parameters
ir
swayed
##读
exhibit
comeback
##‿
afternoons
##瀉
managerial
##⁵
our
publishers
capitals
studios
girlfriend
intercity
##kura
##jer
##抗
##voking
礴
##hardt
jaw
##lva
##bau
灼
鷹
visits
frogs
text
荚
祭
retention
nesting
てすか
##偎
snowfall
拽
##ˡ
adopting
岑
impending
町
mounts
##园
##銃
みの
buckinghamshire
萊
pixstyleme
bourgeois
sub
##陵
##譚
electrified
##颼
virtual
天
##价
delighted
dimitri
戊
醇
yeah
opinions
40
##贰
##rug
厭
customary
fled
##times
variant
deepest
普
充
##eaux
##♥
綏
剐
cunningham
弦
aphojoy
headmaster
莆
vaccine
chapter
rita
mrs
perspectives
協
##ありません
revered
##底
biennale
simpler
■
##lley
ethical
颳
皋
##娲
贛
##溅
##ronia
##woods
moi
jarrett
穩
cumberland
russian
##olf
opera
膿
##鯛
rival
shooter
oskar
hostilities
錘
barrett
harbor
##ット
##狂
##庵
assessing
芍
sired
marry
##恵
##匝
迥
話
##苟
भ
presently
nothing
athletes
##umi
uniqlo
碍
clarence
morphological
humiliated
##事
butterfly
violation
woodward
##gara
heaving
crash
➜
貞
##帖
painters
kg
##柱
gradient
condemning
jeremy
唸
琇
strategy
##back
throttle
暸
cricket
cholera
waltz
黝
painted
##痂
anand
惜
tobias
joey
##charged
##增
sited
squash
婚
##王
##茅
##譏
usl
##鹄
cicero
##yx
choirs
##椎
寒
golf
1847
misunderstanding
610
tensions
譁
pills
##邕
quezon
門
medical
hailey
年
##芈
##翼
涎
allan
ambitious
銘
##泳
##奕
ང
oversaw
talent
##瑙
##sch
##艮
亳
鄂
swiss
##ᅴ
##堯
elgin
##妣
occasional
##泷
informal
jade
denominations
desired
##hg
##anum
##頡
spaces
nokia
##nne
##ilo
majestic
##ball
canary
nobility
arturo
##鴿
##cable
##22
ipod
engaged
grasp
kimball
playfully
step
##績
##聿
irritated
tucking
amir
飲
shattered
00㎡
iis
stairs
destroyers
california
defined
##与
##却
reminiscent
levine
colourful
本
∗
##请
monitors
amended
pakistani
difficult
##密
fall
sonia
telecom
sync
barrow
kind
巢
##沦
雷
reflective
bipolar
233
##rino
engined
豌
##庚
##lessness
##搪
ｚ
恨
オーフン5
celebrations
anna
astonished
悸
zaragoza
##nare
uncle
##瞋
downfall
##rdon
reddy
##郡
##rae
unseen
francisco
む
kramer
job
ulrich
##赈
weird
##殷
cure
vlad
挲
##剩
##ز
补
##nted
quoted
##絵
##gr
##hli
unbearable
agreed
melinda
钡
希
豪
##砣
##腿
ո
dreams
tate
beloved
##थ
aix
martyr
witnessed
##茹
dec
##र
ramirez
williamson
draught
ヒ
##not
icc
assisted
##项
discoveries
hugely
嵐
扩
conan
sanctuary
##湫
518
才
hara
bulletin
涵
##≈
capacities
##cute
##ns
collaboration
tajikistan
##醫
kyle
##ী
suddenly
skeptical
薬
##診
鍊
##ರ
factory
chaotic
block
poor
##vius
##雜
stared
##评
谤
125
pena
homemesh
##wark
infamous
侨
##骇
padua
hopefully
couples
density
1849
wandering
程
1784
##雉
##需
##脚
ceramic
arrival
噌
視
鰲
abundance
##岭
use
##≡
developed
嗦
surveyor
紗
ict
armani
##listic
决
凝
gracie
privileged
##terol
##吼
饨
checking
ᵏ
injured
fein
sherwood
##haw
attracts
sentiments
漆
##爭
did
bells
##點
##ラ
遛
[
##გ
琍
##у
屹
魏
##②
seniors
underwent
drinking
##死
janeiro
turbulence
崗
broadcast
southernmost
##moral
exile
benefits
##sive
##smo
clasp
##迄
foo
礡
##vet
sufficiently
―
rotherham
##rf
00
##ye
lafayette
mangrove
##俸
circuit
metres
##縣
vacuum
匍
violently
##lce
↓
燃
##ㄏ
##誇
##dium
##ray
##几
home
geo
##iously
##曠
##え
##闵
34th
##श
##仰
1600
;
accept
catalog
continuity
overlooked
rounds
瀏
##斡
獻
philharmonic
sheikh
##emon
拭
##20
councillors
bayou
恼
arlington
nell
briefs
tidy
simple
westfield
♂
戰
airlines
##瀝
ravine
##ro
##ath
##eries
tactic
susie
9985
baxter
錢
##叵
##梅
##犢
##掠
##年
sharing
2017
##劍
##柬
##97
##糸
绳
##晗
yuri
needles
##keepers
pair
dwarf
marvel
wyoming
purse
cheering
##甦
freestyle
lawsuits
##mall
numerous
邀
gown
##ption
688
hydro
hen
convince
barrier
##望
senate
ceased
vulnerability
rattled
貌
rudolph
effectively
儡
meantime
128
皱
##ua
##柵
troopers
gallon
樑
##р
##効
想
advisory
蹦
##疵
榴
evolved
##ルフ
investigator
convictions
薦
bright
contend
doncaster
chopper
##tner
鉑
smoky
##ㄍ
##俬
wrists
##揶
universe
喜
grasslands
samoa
horticultural
##漉
jean
reader
##carbon
毘
caitlin
scope
transformed
physicians
、
##bel
establish
##箇
disused
mb
##rgy
##uen
賁
##nine
291
exceed
##orum
goa
學
nueva
##蛀
##胃
纰
folklore
##厘
##ped
lend
##維
嬗
##幟
portraits
turnpike
leigh
禹
##贈
evidently
naia
展
##赋
emilia
kelly
莺
treasury
歉
##偽
贺
1718
##妝
##器
##by
parents
difficulty
socks
6000
##幽
##碑
administrators
protects
libya
mai
conditions
##梗
penny
##ports
胴
screening
霉
彰
膘
賜
africa
##rata
肠
##ₒ
##従
impose
##sion
##旋
##enberg
correction
childish
byte
mckenzie
114
}
scheduling
oracle
##昔
upset
correctly
勳
賠
radius
project
##unge
##ヶ
peaking
##估
##淖
286
##衅
圍
reservoir
campaigns
pill
မ
catalytic
##鍵
##core
donnell
inaccurate
黎
##業
robbins
##菽
passengers
##ln
overshadowed
fierce
按
##民
charged
##fia
##ø
juniper
inch
##ptic
mainline
##dit
##蹈
uber
##dates
##aldi
鱷
##渺
khmer
##掏
##athy
reduced
grams
##claim
##嚎
prosperous
wiley
intruder
纾
##号
jerome
寅
##韧
kaiser
##悠
##捧
marines
boogie
appeared
natal
##mist
warp
##袒
asher
##蚕
ups
##red
conceded
specified
rags
crimean
##suit
°f
forums
wince
gregory
wps
##をこ
##ivist
父
沣
斥
cheerfully
##†
spartak
avenge
structure
confident
##いました
pressures
##б
preserved
♣
##shaw
##ex
resided
reduces
##yam
##werk
##琶
1863
midway
only
welcome
seater
pomeranian
222
距
robert
′
莎
figure
mitch
もちろん
##oom
##zam
##眺
debt
缺
leads
gamble
sane
inhibitor
##钢
緣
flute
fintech
broadband
ᆯ
arena
ono
dune
mendez
栓
##dies
disapproval
chicks
southport
眞
report
##嘅
##lius
searches
foot
##择
##禽
removing
countered
矗
└
week
ruler
maverick
壶
偎
##寢
cities
sounding
writers
tar
##ules
##jee
laguna
##缚
netscape
荼
vdc
##蠍
##攜
nara
administering
weather
##螨
##嘎
caves
遣
portrays
lyndon
apologetic
hiroshi
avatar
##蔥
increasingly
ferreira
##in
textile
ら
##巢
rms
##ය
熔
##惊
##hom
visit
##った
vineyard
ceded
您
##仿
insufficient
notification
##潋
showcasing
璋
##meo
346
provider
导
##dh
##抡
cash
##将
宾
started
kde
xi
ץ
##unds
revised
monstrous
抿
端
袜
anwar
##檜
hollis
款
panicked
prologue
##cre
祯
欄
titus
##rdy
##yne
##戻
incident
shape
49ers
mal
widen
worst
耗
conferences
##a2
1708
structured
##萍
digging
##վ
扭
religions
roles
耀
##菀
##艦
##¨
悽
諫
tip
##cous
whatever
##囍
consent
originates
彥
##™
felt
柢
beethoven
capabilities
##udge
愁
熄
alfonso
ipo
##sily
executed
砗
##hima
攀
##隘
ratios
蛎
crewe
##倌
##纫
statue
waiter
##fting
式
groups
##ㄤ
perch
count
ᅳ
reset
賭
##减
##ᵖ
delete
躍
##术
themes
reconciled
臣
##lass
gonzaga
##tive
1000
儂
啰
##煨
civilians
australians
airfield
吴
directive
##呃
##market
鏟
##mussen
supervisor
gotham
亩
minerals
understand
binoculars
hot
iphone6
automobile
##uppe
ingrid
瑰
brief
fitness
marxist
稍
芪
park
elaborate
888
##鮑
bet
##兀
combination
奸
##纤
gotta
prayed
蹒
manifested
##რ
呛
vienna
fontana
##新
vulture
##趋
##val
begin
davies
##ged
碚
##ved
nuremberg
##ners
苍
##呂
69
##厝
demo
蒔
application
brink
casts
##黔
ornamental
moss
resented
persecuted
##曹
##っ
阿
##wehr
dude
颧
溴
=
ט
192
疲
weapon
##嚨
##鑒
ridiculous
癌
though
roof
rings
##q
##pel
wwii
##vino
##rum
##麻
検
##bal
syndicated
consultative
agreement
sexuality
鲟
que
陵
⒋
spurs
2100
##圃
culturally
快
inlet
switching
constituencies
linguist
frightened
teachers
##ffe
token
astonishing
##iner
##wyn
61
##睑
##wy
摳
##ple
articles
invention
玄
bbc
1605
paved
useless
##脂
##ailed
339
every
whitaker
succeeding
##駒
##亵
##孖
fiat
##dham
angelababy
trier
麋
∀
jiangsu
jul
lawyer
den
pathogen
brittany
##嫖
iceland
淚
##撵
h5
##毆
sadly
##衿
##nding
hobbs
##oses
诉
##明
##丛
remixes
craven
bouncing
roland
day3
##蜃
##咸
圏
towing
realization
霽
##ウ
contamination
讼
chores
sean
regulation
۩
distraction
wavy
##霄
sources
iaaf
superfamily
heterosexual
##諄
diaz
christine
鏈
interceptor
##puram
##啰
groans
launched
winter
futile
##tropical
##瓶
tea
sphinx
舐
gt
谴
##喃
侦
doping
緒
undertook
resemblance
alumnus
kickoff
##eva
bowls
bowen
##ice
红
leverage
xz
襯
cigarette
unsuccessfully
##llie
mor
なと
stevie
rune
nuclear
酢
##枷
identifies
斐
secession
instrumental
whistle
##なく
kelvin
intimately
innovation
faso
easily
sufficient
repeatedly
admitted
##況
artist
jared
##other
##73
heading
职
wilhelm
sns
pm2
comparisons
##襄
robinson
##sca
##蟻
sara
##ection
##屉
ga
alterations
vortex
個
##蟒
170
媧
dash
邋
ghost
##idi
stored
##绻
钞
chuckle
0020
semester
##峦
撰
diverted
furrowed
enriched
vitro
ा
203
peaked
lutheran
##xing
##檯
childhood
##昏
reared
pained
graduated
##辞
dolphin
fragment
pledged
rankin
##イフ
access
successes
姐
intentional
##\
processors
dealing
##tures
abundant
##帛
dynasty
珲
被
aluminium
##寇
musician
##敌
reservation
eduardo
##以
nigeria
1723
suitcase
vodka
walked
associates
md
philippe
##gged
漠
harmonies
##誼
##狙
bea
##蹉
separately
##mere
rees
berwick
##rricular
popped
alteration
tb
##臂
whitish
sixties
##剥
##sha
wat
cpa
harry
translations
masonry
##撲
aj
slowing
##扒
##摳
##棗
仞
发
cater
townsend
happy
##碣
##yang
##erian
##鯽
rush
予
##birds
最
explorer
pseudo
dickinson
疟
##ides
ⅳ
##has
422
foliage
##470
banner
姫
柳
##骑
compare
舖
星
lds
mendoza
##诬
鳄
mira
##囹
##itas
##xia
抄
tvb
hiram
##きました
##stems
##⁷
matthews
printed
﹑
##叢
350
pulling
##wo
shout
papyrus
cuban
##泛
##持
866
##乌
##ק
clifford
泷
pearl
bash
## 
y
terminus
##zong
revelations
portraying
##elles
炷
cnn
##稗
whipping
##柑
abortion
li
likelihood
##は
o2o
colour
behold
sleep
lennon
entitled
bernardino
toilets
75th
wheelbase
ran
##are
proficient
amalgamation
kw
examinations
relevance
##shi
recommend
leveled
##pee
[CLS]
turing
締
shifted
##慾
talon
##®
zack
brotherhood
viaduct
##详
genre
##偕
celia
##貨
daughters
##lid
さんも
gill
helicopter
攣
loyal
occult
泞
##茁
##轆
meets
##匹
##ott
naked
liberia
ɨ
coyote
1854
##剂
rigorous
miocene
##骼
##quest
stains
##陝
##ile
outs
##够
萍
##线
numb
岳
##澧
ى
supply
ˣ
streamed
##询
reclaim
##とても
complement
bands
drivers
仑
##牙
loses
arms
##ल
##柘
##貼
##槛
adhere
##迢
◇
##讥
pakistan
##в
801
watches
##贊
##痢
polynomials
得
##秧
revolutionary
##wai
suzanne
nemesis
divides
orient
missions
terrain
1080
civilian
nt
##韜
reveals
##魷
鏞
##ual
solving
冉
categories
zodiac
write
botanist
fandom
soothing
##皋
戸
licence
realizes
dyer
定
organ
##os
##閑
描
藝
##穷
grover
##憑
##邰
disciples
penultimate
##inatory
background
酮
##落
boy
##ium
##eric
charcoal
##巽
cylinder
堙
favour
颅
ก
trademark
試
##娴
resumed
##搏
vimes
vidhan
##014
赊
##ductive
montana
##棋
壇
縣
petersburg
coin
鹜
##metric
##睥
298
ages
##ously
##tao
##粲
monks
密
appoint
##怪
backlash
jalan
蓟
顼
denim
determined
论
forefront
歩
domesday
russell
modeled
william
vehicles
strict
engraving
gis
confused
brest
##撚
live
##侠
warrior
curly
##出
##媳
##bone
stumbling
ticket
骁
坊
buzzed
##慘
##deo
morality
infinitely
##湿
##oo
##ument
##稿
##墙
cowan
害
##墨
##洗
##brates
revoked
##cd
franklin
beck
smith
485
捩
locomotives
handbook
##根
fitzroy
anne
##奈
humming
##树
嗨
violins
俾
john
stern
utrecht
##縈
seize
##ntial
blackberry
##挫
##垫
farmer
ya
##kyu
chariot
bought
##idia
brennan
roommate
##背
##巩
former
##glio
1793
tugging
scholastic
##care
greensboro
##揸
##言
颦
noelle
hours
##ical
dragons
postseason
kernel
stature
whitehall
##蛾
henrik
musicals
gliding
##ˈ
bros
##mbit
´
directed
谀
##舐
笼
existence
诩
く
southern
redesignated
包
##，
phd
predominantly
lumber
##瘪
ahmedabad
1710
ebook
refuse
squid
悼
smooth
３０
##entation
##س
##孃
##弃
##旅
1700
##鸯
##迤
##aris
imf
coleman
##瘍
dressed
116
1874
30000
##宮
睬
slated
##苏
璐
days
libby
barangay
##啦
illusions
october
discount
revenue
fsm
159
expecting
powerless
揚
##tracted
##21
##cend
##峤
剜
##天
##erry
planck
wharton
procedure
utilizes
##实
extensive
跆
derives
contra
麸
noticed
##sing
##oja
##ق
sites
##zel
teased
277
##ooping
##療
捕
##hc
waived
##娣
😎
legislation
1959
##関
sutherland
jai
##透
pacific
##狩
##驢
gap
保
100th
鴉
##ji
wap
榔
##しい
##股
##渚
vocalists
communicated
##蔺
##uddin
##nov
steve
remained
##他
##awan
涌
chance
touring
suitable
##丽
滝
少
谱
##寡
victories
岷
##闍
verandah
flowers
##iso
##inating
##ttle
##羯
##顾
##噜
8891
##镗
regeneration
spacecraft
##難
##bs
##vita
##unda
wilton
disdain
##tone
##在
##puted
neck
##譎
masonic
##nn
proctor
##nate
##嶼
chatter
##yana
vaulted
ⅴ
骗
breached
cristina
##裳
##name
戶
downs
##ther
mexico
tavern
welles
pr
literally
homework
republican
##㗎
##hips
##賤
##arney
窝
として
##艰
蹂
jaws
subsp
experiences
ops
gunn
##鍰
##runner
剤
叙
邯
stretches
antrim
##唠
priory
##盥
##侬
##佣
##ŋ
##aby
filmmakers
ʼ
slumped
stalker
flood
##予
murdoch
dennis
wheat
##bell
##姗
ton
brasil
sugarcane
scenery
restraints
getting
launching
rs
equal
intimidating
پ
⁻
鬼
##wari
##iere
##窍
镗
interviewed
obligation
texted
##蒜
156
roared
钾
permanent
##試
荻
install
promoted
curate
鵬
驚
蹟
pronouns
confined
campaign
##beth
##变
##怀
##＼
##削
medicare
##scopic
##琼
northwards
##ron
滿
vsa
##kia
猕
骞
##屯
射
腰
vulcan
clara
frail
泵
bonnie
##靓
dora
##娥
##稜
范
notions
carving
##quitable
alerted
viii
より
##功
てお
feminism
##斟
pitches
戀
##শ
ﾗ
xd
docker
##敬
##盈
##ddin
##42
##ʌ
ancestor
stocks
##疣
depot
mates
##默
parallel
##锻
bal
##鄉
##奸
##phone
aground
sequels
17
##ani
殲
larsen
##渙
gillespie
clans
##ification
sprang
duplicate
权
coastline
microphone
shoulder
认
採
氐
£3
unit
##tage
##town
sw
##inia
稳
环
drip
##bbs
##﹑
##诧
okinawa
financial
##ieu
##她
##ql
avant
enzyme
##pipe
##鑰
##ops
punch
##wang
faux
悬
ankles
涛
##cle
##mable
##闢
##眸
##eza
“
##rien
##潔
metabolic
cullen
seventies
hopped
referees
##扶
##鱷
failures
yucatan
示
shortly
bigger
粲
訴
jack
observers
sorry
policing
##ela
inducted
378
##尹
spill
dashed
##az
warren
pont
##鴻
firefighters
bows
merger
##諭
co₂
revive
##磷
wheel
cane
##15
##孿
##銳
doll
##诊
椎
鎂
##陳
##r
霧
cream
絮
oswald
##揣
gruff
festival
na
holland
sin
vase
arrondissement
writing
##ire
寥
楂
fronted
##s
transcribed
bavaria
##謨
anchor
##奘
##tley
##boarding
##闕
##蠹
whitman
translit
mastery
bang
factions
undertake
discovers
##logie
##ネ
pictured
樾
smug
##药
豹
gunshot
family
##霖
乂
swimmers
##熠
##饨
##付
崔
##position
##徠
roberto
walter
listings
chorus
##kken
editorial
bite
懶
izzy
tacoma
wouldn
mustard
reissue
legislatures
##⑧
obligatory
##婴
goal
metals
created
##elis
##cker
绚
christ
competitor
levy
##疥
碘
廷
脓
weapons
swarm
harald
##闆
occurrence
warehouses
##ての
##应
##▋
##悅
monroe
laughs
ச
岖
##ici
periodically
##inate
##you
layton
morally
cooke
ﾙ
uta
omnibus
arjun
##tok
##杂
fog
kara
##gist
仃
苇
##绝
##诘
sits
##rbin
##泄
幢
steak
population
incorrect
##蒨
##貿
enlarged
换
manuel
##譁
kern
forever
regatta
##furt
sell
carlos
elevator
##嬢
##火
rainfall
indoors
canyon
fit
縄
##56
diet
##娘
wicked
garth
遅
##胶
##掀
specifications
sampling
##link
##la
crops
bald
##উ
6m
鼓
overland
##kov
fr
##men
hormones
##tin
reigned
replacing
udn
##ias
##繳
friday
democrats
purchases
mecklenburg
##蕪
前
##covery
φ
siegfried
##ことを
ezekiel
龊
rt
いお
g7
久
##酯
##惨
母
314
##sei
supplemented
##ryl
freud
汽
hesitate
shone
##个
##コメント
##耒
zee
epsilon
drunken
inequality
cardboard
mcgraw
mane
##₈
stephanie
document
##ɡ
arranging
##kian
##ρ
鸣
florence
##谛
##eding
旱
tunnels
##混
nikolay
谑
maru
##∞
cinematographer
universidad
##arth
blinds
jimi
泽
题
##衬
搀
1969
zombie
##鈉
bizarre
##徬
##棹
gasping
ɯ
241
conducting
polynomial
negotiation
manufacturer
chips
##zhi
pyramid
賦
catches
operates
gala
ル
沥
rancho
urbana
##脘
##弊
嘀
##rya
##評
##琅
saskatoon
adults
##le
worth
fraction
##馭
thriller
tributary
basque
##rgen
##vn
english
ㄇ
##mbled
cocked
##fires
います
##拔
pennsylvania
renovated
hut
衰
authoritarian
习
##剎
fiona
calendar
decimal
parody
barnet
beautifully
hitchcock
revenues
caressing
bath
snack
晩
亨
1986
絵
##萎
monasteries
effectiveness
1666
##mur
oversees
ར
蕻
reinforce
ldquo
444
##宰
ghanaian
ח
sy
##滬
bahadur
lebanon
creativity
overwhelmed
photographer
##猕
taft
extensively
搞
龜
杆
plant
雁
沧
jasper
clarified
175
incentives
緯
puerto
##gative
alfred
豁
widely
##walker
##锣
##nia
蓋
erotic
##鯖
dustin
undead
philanthropist
ㄚ
云
##怠
hardwood
婊
##take
##nington
neuroscience
drops
欸
z
##od
ˊ
##囑
霆
devoid
rev
眠
##洩
##板
盞
bedfordshire
repaired
trip
##horn
##emy
breaststroke
tong
iss
verdi
櫻
##盒
deficit
recipes
##chule
frequent
intend
##gler
##lten
cas
##ichi
##ilia
##gau
##lander
constructing
鶘
玥
け
projects
##浚
xx
##connected
##des
318
##慢
##須
1635
pearls
internment
##tub
deborah
##蛋
analogous
♥
##jhl
camouflage
marylebone
upgraded
四
##哥
##滇
##カ
parties
convergence
##晉
contrasting
hurricanes
aisles
secret
trinity
嗤
soaked
accepts
哭
lung
嗣
valleys
breadth
detention
蚂
booster
椽
##uan
offset
commission
kuwait
潆
office
##fer
appetite
ᵖ
髋
ejected
维
骸
software
瑶
overlooking
extremes
##咖
buffet
##找
hawaiian
tipping
##塵
##晴
strand
mouthful
ragged
leopard
indicted
mueller
##踵
geraldine
game
shelley
ki
proudly
旖
##stream
wasting
banners
##ಾ
諾
exam
压
vaults
antarctica
т
##爾
##腰
endeavour
##´
##tia
springfield
sbl
衆
##khar
##♡
supplied
##স
deed
williams
##嬌
##蟆
fascinated
celaena
keepers
##弗
##懺
reflect
sebastien
ham
amoled
defects
##ーン
wiki
astronaut
##吗
特
germans
》
lingering
2400
##waite
##否
org
acquaintance
##阳
ev
##lita
##aghan
blanc
售
or
##篑
century
pi
integrating
scripture
渔
##蟄
笑
瞋
##牠
asiatic
62
var
##夺
conflict
spends
fertility
1610
avoided
professions
箋
賢
##force
invertebrates
lombard
ozone
##弭
predators
##覚
##〔
appointed
##ss
archway
gall
##操
downed
ringing
eagles
蚝
images
植
1798
พ
ro
dies
##hip
steven
peasant
tran
耄
conference
##揩
comparing
1804
竹
ி
vaughn
amazingly
マ
weighed
lowry
iu
1937
tariffs
燥
糾
313
cartoonist
predecessor
chopra
encircled
gd
beach
樵
##bert
cabinets
specialized
bay
宇
##lk
le
株
綵
vincent
##囡
thrilled
##mium
xu
sunglasses
skins
tempered
payment
1611
replicate
prison
maneuver
components
departed
superstar
spins
sidekick
##素
perfume
pull
壺
##汆
budgets
##atic
blanchard
nevada
speeding
##今
matilda
pool
ways
ᅨ
mug
##抵
rendezvous
steady
official
assumed
穷
audition
宿
德
##rta
visions
435
##ulates
##銹
bohemian
wexford
inconsistent
loans
##爍
nam
joseph
qualifying
##卍
frontiers
怪
##沾
##chemical
##﹍
峙
##軼
suriname
scrolls
jonah
##嫁
draw
authorised
潧
anson
##胳
goodwill
苷
##ney
##蹒
鹈
##涮
##lino
1878
malaysia
##墻
浇
inwardly
givenchy
亵
##叙
ebay
##煜
egyptian
肯
##dington
coverage
##ache
breeders
##mith
##rdi
帅
confronts
contribution
##贞
stem
##倜
锵
193
dominic
complain
屜
##諜
ɒ
##ywood
##ս
矛
portrait
##刺
##ax
##et
##urance
言
satirical
##：
##ーシてす
迸
baghdad
juan
thirst
炒
akbar
##鹅
##iform
surfaces
074
skylar
##绷
chiefly
##囗
料
intimidation
##ogen
頹
##onia
imprint
nose
spd
exasperated
celebrates
##dun
乞
periodical
鐵
participate
##阐
hoover
enforcement
##oids
##沃
potassium
cheekbones
ipad
##嘗
##妓
##釘
adultery
383
##僻
氓
tampa
fin
卮
##捍
借
grief
graders
fill
as
公
##rder
650
fraternity
桨
mercenaries
wight
malik
fundraising
腥
algorithm
presented
shire
兼
armies
##omo
##煅
ᄅ
ernst
naturalized
studying
ろ
轩
disgust
##oven
##邸
testing
slim
flared
massage
raged
##註
pillar
ｉ
refit
##候
pei
caring
campaigned
endowed
##碘
##heim
##疙
悵
##hesion
directorate
##✰
##椒
艾
##cg
515
翹
sheep
boulders
##噩
indictment
restraining
輻
outspoken
画
norte
##llow
highland
combinations
369
##lone
##vid
high
綜
極
潋
钙
gorge
explaining
##iance
skipper
##uous
sacks
canon
fir
undercover
wheeling
巩
demonstrators
##aint
签
○○
##非
##＇
##钴
auditory
##ker
##咧
richardson
级
##і
##胜
bottoms
ᄉ
yugoslav
chamber
streak
究
1683
彝
禦
label
pos
anti
oslo
浙
##籬
symphonic
##唷
酪
##put
clown
prosecuted
##gl
##恁
##sos
洼
##п
jersey
ク
occupational
hart
belmont
cocktail
妮
stabilize
murderers
##不
exercise
##ctric
##涞
↗
##2
##樺
##牦
##ors
hose
inhaled
waits
饋
##ks
malaga
illustrated
comprises
shrugged
plaques
dun
dei
evade
zimmerman
##ร
氏
##鉛
baths
##輓
##nostic
havre
disrupt
##乘
盈
劏
##萄
rows
withdrawing
##ometric
flanked
珏
worried
淪
簧
##kovic
rowe
##tara
渊
jungle
yd
衡
姦
struck
##flower
bobbed
##漓
##澡
佣
windshield
嬉
##held
spotify
##囤
##yuki
marguerite
##堑
婕
##困
lobbying
##鍋
岘
rep
gamer
licensed
##拘
hasn
##wright
wade
strauss
て
require
##吉
localized
alleged
##☕
##溟
activism
棂
january
ajax
scrub
製
##man
##怙
##懵
withdraw
亀
preview
俬
hardness
鄧
##姒
representations
##贤
375
und
detrimental
磺
鼹
provocative
##塔
##嗨
胀
16g
##bham
成
##jong
##稅
##iti
resonance
derivation
balkans
❤2017
1757
なら
00z
javanese
##ku
findings
weakening
拦
##ldon
ホ
scowl
##going
doing
##舎
湖
169
offers
##痒
ワークケートの
##腑
粉
jelly
inspired
孑
geelong
overtook
邓
哧
mae
桡
chimed
芻
occurs
##触
##ן
##弈
saw
##廢
reminded
##負
organizes
mother
##at
arias
##绫
wren
##め
##舀
茱
兄
button
38th
somehow
tyrone
##嬷
servicing
##ieg
jase
lombardy
doesn
##rogate
##oint
winters
casualties
flatly
19th
##utation
denies
##祈
##◆
##ki
##锭
##num
##薹
##psy
##鑲
##bedo
326
##爬
intervened
##ige
髂
touchdowns
aquarium
阈
吧
aleksandr
##般
##さん
mythological
choir
##毀
##職
咣
shrimp
tipped
##gui
sacrifices
##gger
##lices
lv
##厳
##秽
##闖
懿
##連
##ら
##囿
mayor
vocalist
soviets
##iani
##℃
##燥
interested
##讪
##vill
##file
##cheon
##ging
newport
##boat
馨
豫
##蚜
##qa
merritt
richer
affirmed
淡
鯊
##幌
cameras
recounts
##词
##硒
experimentation
##cision
nixon
嗔
dripping
##锂
coincidentally
##櫛
##iy
丟
controlled
gamma
##ses
hail
録
deserved
##ある
shallow
slab
copying
##谆
##賓
##渤
tallest
hero
ps4
stucco
southampton
##pmlast
greet
konstantin
##殯
hectares
danger
##譬
procession
妩
protagonist
none
hamlet
##设
ロ
##偉
interfering
cr
∈
bologna
repetitive
midwest
rods
portico
憑
菱
胤
deaf
ɑ
garbage
hector
36th
pride
hybrid
施
##鬍
##⟨
beaten
quieter
##pse
##eux
##寅
##matic
¤
##inger
♪
lexi
encompassed
intermediate
##梁
##rley
＾
colt
懑
##jia
translated
je
##ա
karachi
##yre
##莽
techniques
##yle
idle
##ʾ
##¤
##剝
##掘
澧
grasping
murray
erupted
roses
ones
##tt
##滌
tennessee
indies
##鹉
narrowing
##ist
训
##崑
modernization
宅
liquor
shoots
〈
contrary
靜
isaac
噔
##隨
ʒ
##訴
gladly
##俑
002
１４
2018
馏
obstacles
leaders
॥
aids
锡
##焚
##uh
wrestling
虞
dances
decca
##ticus
##迹
dimensional
collector
1829
##麝
##诤
ت
martinique
##妍
##economic
##稣
majority
##channel
owes
bleeding
##徜
polls
##ures
ambush
dynamite
insisted
contributes
##峪
greedy
kingsley
##诋
slavic
montreal
epoch
ʌ
clues
##inium
##遮
飕
ᄊ
intermittent
首
➤
meal
##源
##cb
737
dementia
bert
1921
jurisdictions
pawn
km²
overture
##ㄉ
orr
wizards
birmingham
unlocked
##mun
corresponded
supporter
differently
£100
equations
##∂
##e
##缮
parry
137
糊
##carriage
prosecution
鍰
insignia
惺
卦
址
pulses
噤
1967
assume
atlanta
阕
rpg
##甯
##dine
##橢
##驮
##テル
elliptical
沽
bartholomew
christina
endeavor
jj
##昇
##莺
薙
bitterly
エ
##庙
vargas
##睡
衷
f16
##垄
##თ
##itative
their
798
锯
banks
carefully
##杓
##酉
instructors
##tically
蒲
remastered
built
丑
escorted
brightest
##yes
##晤
solutions
100
applications
slaughtered
##汶
tries
##堰
##騁
##腩
##篷
accommodation
膩
capt
alabama
delilah
隐
229
##go
inhabited
employs
##uni
820
clutching
##foot
minority
hawthorn
deportation
lacked
coffin
##♦
groin
旺
benches
et
doha
洪
##娛
slate
##淦
aunt
##chase
##舺
sc
4a
##萦
##嚣
sipping
##nir
##॥
##zone
##羞
瑟
warnings
bern
##sz
吾
ikea
##holder
禍
翟
wendy
姜
疡
##然
bikes
檢
tu
睦
##仄
##皑
##lom
##醣
緹
whirled
氦
asus
knot
genealogical
##豆
車
karl
informing
didn
##晏
pain
sultan
##tious
##int
ant
1200
##と
嗬
茹
whaling
踝
wiped
functioned
contraction
horse
##戦
door
##括
happened
##塌
trimmed
beside
cigarettes
entertained
##b
##vus
##郭
##磐
levi
anita
classifications
##榮
chambers
##house
fountain
appropriations
concordia
##chison
割
proposition
torque
拉
##蹦
疒
##峙
##狰
ap
trailer
##〈
##鳥
globe
命
cricketer
top
moshe
rod
廂
noticeable
makes
hopping
kicstart2
havoc
stacks
darting
coloured
moor
##毁
楷
##ruff
find
鸽
##ers
##齊
thriving
three
##崖
gertrude
##两
4s
whispered
螢
whenever
dick
course
glowed
##och
##爆
snoop
joked
sewer
puppy
reef
桩
tft
es
stupid
##搓
aka
idol
driveway
術
御
winced
##駛
##銮
spawned
jesuits
颗
筱
##堡
surpassing
coroner
爽
scoffed
clashed
起
##茗
mma
##镜
##无
巒
菏
warmly
hysterical
regular
inched
inclusive
##蟲
blankets
yoko
ᵘ
diagrams
montpellier
##到
媚
##淨
##抉
##ic
ξ
waiting
饵
defunct
农
bertram
jen
socially
##铨
##olis
懵
wreckage
##丰
philadelphia
##猝
##喵
caldwell
concerning
tasked
pricing
##turn
annually
shortlisted
renowned
success
##utive
##悖
northeast
鎏
##ific
griffith
##駿
detachments
bodyguards
##grants
successfully
segregated
1787
##bron
rudder
soils
值
—
sincerity
##je
##ctum
pga
alsace
conceived
dusty
硕
賂
##rga
舍
珣
mischief
chalmers
reactivated
##sic
reserves
恣
##if
##爵
##œ
⟨
despised
##ヌ
jamaican
comedians
##影
multiplication
荟
##a
wta
侷
##丁
booker
step1
锢
910
requirements
谐
defaulted
##购
佇
attachment
##vac
ｗedding
sends
##讚
kills
differentiate
ن
visitor
scully
outcomes
##chat
purpose
backstage
peugeot
##麸
帷
##vor
颐
##笆
##串
rubs
##bf
charges
va
##ism
##碇
swansea
##logram
reproduced
##ɫ
subway
##锺
actively
##尼
batman
hardcore
aquitaine
decorate
comte
profession
##rate
shoreline
蝼
叼
磬
alicia
cargo
ottawa
曝
publisher
skip
揮
seller
圆
organisms
或
##暉
བ
reviewed
握
presidency
trombone
rails
hurry
你
燴
{
averaged
1901
##escu
##ir
canceled
cartel
faber
deserve
##hood
##ente
sohu
迄
##rba
##ュー
##厕
instructed
##航
intern
妍
宰
##綁
##fish
lisbon
junior
钼
1995
airmen
##挙
nailed
bernie
syracuse
##ises
##熵
slabs
##gpur
690
##phi
mussolini
auxiliary
cass
166
hosted
訣
donkey
stalk
operate
23rd
##禛
associated
榱
windows7
憨
authorship
thereby
涼
niagara
conscription
cleaned
##etta
overchicstoretvhome
##摧
psyche
##稲
garage
healer
##tland
utah
##龕
##乡
腈
khan
改
5th
##sop
elsewhere
愕
竜
products
elm
##lord
##迴
##harat
##倾
makeup
superman
atlas
##inn
存
84
擾
junction
桥
獲
yamaha
##浴
sectional
777
##price
##悼
0t
faulkner
goodnight
sweaty
cavern
##姿
unt
shall
iot
minkoff
eden
衫
##戮
氡
handler
disturb
protection
1840s
firth
gender
cyclones
##ifier
painfully
##cky
##羁
س
persona
##ふ
##drik
bundesliga
嘛
##ader
confirm
##77
constant
partition
letters
four
input
sailor
##歓
##萘
ظ
##lston
##dek
passport
聋
獐
concentrate
tailor
访
ならワークケートへ
##醪
##logue
integrity
wished
constantine
##firmed
##唤
‹
▶
loyalist
acclaimed
##ʁ
##can
fly
漓
铣
clergyman
##rmed
##ult
hotel
is
##膠
spontaneously
amor
##vi
##懶
commented
msg
owning
剋
##怦
##颖
##tar
ர
wally
australia
館
##癜
##roving
##藥
##gra
belgium
device
##勾
between
329
##rone
咘
casey
sketch
yellowish
millimetres
疹
gunnery
##∟
##臣
genetics
connected
##tti
##紛
．
##zquez
hassan
楚
郭
渋
josie
planner
##be
pausing
##ʻ
##erate
##肆
##plin
寻
##hurst
##妻
##udeau
copies
cottages
calcutta
瘋
✦
bilingual
families
##ud
骋
g20
墮
##uss
selena
overseas
##☆
brooks
echoes
##ndra
ז
stew
てある
えて
telling
deemed
騰
hellenic
has
lohas
errors
passed
pepper
##邂
##紧
trunk
lance
stalled
transfer
presiding
##飞
##骤
##ර
##ⁿ
涝
##yte
spine
dh
tang
discussions
##缽
assessments
##cho
potter
buzzing
installation
未
氙
##引
##胤
rot
beverage
##俚
lose
##径
##憎
妆
完
hardly
##皴
紊
scrambling
☕
箍
one
##颠
##12
紓
##聂
##lene
continents
oriental
##nging
403
disqualified
cf1
##ester
hammered
roughly
徵
distributor
baking
rook
sharply
##敕
##dation
##瓮
##hot
recital
dispatch
repertory
菌
pilasters
乳
颇
窥
munchen
jurist
##鸠
prefer
##istan
52
leopold
##cit
##治
された
discusses
嫁
starr
##hp
1620
##罔
arabic
debating
arranged
##煙
newfoundland
dumont
８
##anor
##omorphic
malley
estranged
##卟
左
collier
holds
liszt
frowned
baccalaureate
ｃ
##楣
望
##庫
backyard
instantly
赎
surgeons
##蹿
heinrich
losers
##呲
utc
motif
##pods
hardcover
##咗
conversions
侄
orchard
##naud
m3
dorset
groundwater
clearer
##涔
##dice
mons
telecommunication
##nto
lao
##dya
renaissance
##擲
garrison
catalina
##禧
肺
##骶
repeats
racers
##魅
mill
##筆
瑪
theoretically
※
slovenian
folder
trailers
compression
##努
mx
##派
噎
plural
domenico
661
144
瘪
pizza
氛
engraved
1629
禽
poem
竟
##率
flickered
蝟
variability
descriptions
##箩
percent
read
头
汕
arbor
brant
butler
##蹭
equipped
fischer
##骏
##zzled
##少
ლ
1820
れた
systematic
樫
pokemon
砚
antilles
commissioners
##外
绻
summer
una
mandatory
xiang
##顛
##fare
tad
commencement
##₎
淘
##נ
##lian
glacier
sweet
kitchen
suburbs
脛
fracture
##犬
woo
ტ
justify
devon
弑
lynx
archaic
1890
##wani
afghan
嚀
##藩
skepticism
mpv
##隽
##rick
ス
##畳
##◕
chest
##mi
蠟
105
rain
depends
◢
丕
presidents
潑
##遁
able
##仞
helsinki
griffiths
staunch
##map
aryan
掃
頼
鹫
143
bicycles
##蕈
complications
漩
##綦
vega
landings
##﹏
##ial
greeted
polling
郅
carmichael
adc
provision
phrase
##计
##sus
##☺
complaining
renegade
avalon
ars
##ddle
ₗ
##迩
284
↓↓↓
those
ｘ
scrambled
ambushed
horizons
蠍
轮
hates
ready
##邨
intercourse
clover
##纖
samuel
tasted
##苑
keen
って
秧
##匯
lifted
##熬
migrated
sleeves
##ぬ
##apa
emphasized
崁
观
鹹
750
commanding
##跳
##愜
goldsmith
哥
鲸
louie
accountability
##vina
涯
867
##ather
孫
porto
hans
analytical
fuselage
##疗
肤
##aco
饌
typhoon
flicking
letting
蕤
hunter
##硬
##耨
smarter
##verance
322
##rom
##110
whistling
##sville
##ory
使
##screen
##苕
##lbert
wallis
can
##with
變
##eira
##南
steadily
canadians
stating
coventry
##ao
闷
##↓
supports
lied
##group
fireplace
re
branded
鯖
##祠
grab
驮
##边
distributions
##层
##薦
barrington
##潭
氰
寛
rowan
##sham
帐
谄
##沈
jupiter
苟
acton
太
##灯
突
##nco
##稹
loan
吻
organizing
▉
歇
sultanate
vdf
congresses
##癱
learning
##蒞
1917
##鈴
disc
burundi
remembering
##瞓
衝
cameroon
charm
##枱
##绣
##iger
teller
嚣
螺
##雑
escaped
iucn
immature
##碍
晨
scientists
##ngen
learnt
##tham
咙
蟆
衮
∆
islam
display
rice
chop
##圩
croats
recalling
homeless
##嗜
##睇
##碎
##逶
canmake
##境
deposition
碁
##浣
steele
infant
##賽
elegant
##ence
##kawa
born
consulted
contingent
崑
teammates
##vered
##瘓
##稀
gloucester
impaired
kilda
attraction
啡
##oia
bennett
##wicz
##o
##nas
##ける
negotiations
世
＆
##iu
northernmost
fontaine
skinner
##躍
##網
ronan
fools
蘆
walking
##lateral
尚
##摈
oo
pratt
##滥
anime
##ech
bulk
diner
protagonists
bundles
##搗
fitting
2700
せよ
equivalence
諸
通
ল
镳
##一
physical
manny
蕁
buckle
entrepreneur
##lal
##探
##xie
##壩
##绵
cabinet
maddy
##hdi
aragon
concurrently
##帘
স
recognised
##這
蓆
##rov
pierre
spelled
oldid
beacon
##娱
王
##nsen
蒜
##独
plata
疊
状
grouped
##枚
hat
out
ppp
诽
newt
dominant
##赃
denounced
acacia
##nad
undone
regret
##⅓
叢
##谴
थ
tobin
illnesses
怆
cab
鑫
sunrise
32g
麻
u11
rica
##plication
proceedings
木
##chio
1740
##しています
eel
##gical
##瑪
枣
##ndt
##壅
german
458
accurately
neglected
##仏
stiffly
1001
decorations
##萝
taunton
mantra
##莫
antiques
黴
钵
戳
##拥
venus
pulp
psp
if
tending
stairwell
##powered
incredible
1908
425
##腋
##痪
critique
arterial
泼
janata
昭
outstretched
靄
lew
態
虬
##gun
sms
##chuk
lowell
##rber
showing
##桑
grammatical
璧
dong
analytic
markets
##蜻
sigh
##ayo
span
##ecin
##颈
prospect
helpful
##ㄇ
minded
##non
syndrome
##寺
psi
increases
chester
latitude
##祐
affinity
seeking
##ք
dortmund
summary
pollen
箱
atlantis
##鑊
晕
##贵
attach
pieter
dubbed
獼
##账
##stone
sandals
microsoft
##a5
##跹
chef
posthumously
qe
lilly
##fit
##麾
343
contracted
jing
slain
斎
decorated
2000s
##eon
##咤
xii
##vances
canons
##蒲
なとの
塭
##或
chaos
大
lim
##僱
divisions
##lars
菇
甚
engine
lightweight
precipitation
##anger
##sson
inclination
##tford
簍
steamboat
beech
nuts
鋪
verify
arbitration
##穩
##揭
##trip
pulls
zero
##旌
##lves
##冉
##殖
##ish
internship
metaphor
luce
预
##lite
starving
viz
externally
mccartney
docomo
preseason
tombstone
##ragan
sheltered
##chon
##範
##藓
together
##uchi
##aja
##ttes
##僭
##礁
##谘
threads
睁
##oed
互
胚
野
outdoor
mercedes
explosions
缕
marathon
joshua
##tea
粟
##58
問
walkover
磅
##奥
220
##镑
dependent
temporarily
vmware
autonomy
##选
馍
嚮
golfer
##kill
occupation
錳
catalogue
operators
##赧
carriage
anticipating
ほ
║
##mada
image
汐
##洪
prohibits
##zaki
giro
comfortably
latter
indigenous
centennial
责
interpreted
噠
##stock
##sque
siri
##痘
##cellular
されています
慶
讫
add
##射
##纳
##rish
##跟
involvement
##nna
participants
workings
##發
famous
sustaining
instrumentalist
岙
properties
##鶯
conquer
##osi
vineyards
##滢
##诏
##hana
antoinette
victoria
##宓
##貘
neumann
##ක
funeral
韌
117
##做
due
蹑
sustainable
##函
##零
##aru
maison
##瑠
nail
appointments
##ridge
##首
mildly
リストに
吞
僻
##湄
rei
頭
##rana
##sy
##選
contained
slang
309
纷
##樫
##aker
dealer
糖
##boats
turf
##糾
##課
##濺
cobra
olsen
keeper
斯
peers
##isms
hunger
ke
technology
388
cold
囹
風
scream
powder
essay
panorama
##selle
nbapop
召
嵋
鹉
##漕
tun
marquez
70th
larson
##磬
##hammer
沾
璁
##復
ㄤ
吁
accountants
website
##摁
ecu
##枇
remodeled
##また
shores
##飩
vigorously
ck
##ola
coc
crossed
reforms
鸡
##岱
##啜
virtues
##蚌
dose
marquette
##喀
1837
##ih
decidedly
##ᄇ
##切
relaxed
##潘
把
##倔
alt
theatre
booked
gerald
‰
livingstone
vaughan
samson
##gned
exhibits
##ᵐ
ddos
##逐
sinking
♀
##要
extravagant
hill
archangel
##pod
##mx
##办
##晁
gunslinger
compressed
nerves
##邬
tendencies
##揃
vhs
ʳ
servicemen
fulton
##至
overtime
##chee
##栽
trustees
辑
donovan
516
parrot
latch
加
ब
抓
##曾
doomed
brakes
ђ
kathmandu
caucasian
篁
抉
鮭
##ан
ye
モ
##ret
骅
##暴
brewster
merit
##quette
chunks
spectrum
双
dodd
铡
##itive
寿
sonny
畝
209
grimes
##toy
giants
bradford
##庭
轨
##槻
car
沒
ツ
affirmative
alexandre
girlfriends
闯
襬
fade
亏
burning
runway
streets
comforting
##ग
##nem
泠
beliefs
lucky
novelty
surreal
newcomers
straight
啟
diversified
邑
warwickshire
formally
##○
spider
cluster
##vili
ami
##123
##em
concert
煨
邸
毕
upon
adsl
##煲
##φ
◆◆
raj
acclaim
##侑
barely
maternity
##chemist
泉
subjected
这
##雇
炼
膾
peacefully
jarvis
quarters
restriction
##它
zane
lilith
498
competed
romani
€
詰
florian
##trom
睢
socrates
肩
knuckles
##璁
dispersed
comprised
##朐
marital
荸
relative
sniffing
itunes
瓒
##壁
ヽ
##邝
匙
##诚
##stellar
stomach
steward
☉
##am
competes
鈀
rcep
formerly
##粿
##熏
後
钨
inside
kentucky
郫
galactic
kennedy
recreational
湊
##驭
##禀
骡
##詛
ensembles
碧
rides
靠
associate
litter
睏
缤
##hit
##idon
##彫
clark
belinda
香
freshman
telugu
廚
mesopotamia
脱
⟩
弔
##93
##貂
##給
demos
fishery
newbury
separates
ensure
蜇
hq
##lifting
薈
airfields
##浦
##ᅧ
店
鈉
moran
##69
⑩
stroking
parma
along
##嗡
##姓
adjacent
##蓼
deliberately
invented
##pac
fedora
chelsea
犢
##±
elementary
霍
##躯
reworked
##ilation
掉
harmonic
##阖
##穹
”
385
pursed
##锈
guessing
33rd
foods
##lt
frankie
孺
proud
dragging
illustrious
##04
サイト
##erre
搅
squeeze
##距
刨
brother
transgender
alligator
京
##湘
##erving
infinite
蔑
meath
pptv
##拚
的
dug
destined
www
##is
##uw
茫
婷
##渋
sighted
撅
metro
##olt
##recht
阶
distributors
lowlands
##ca
##坡
##狐
##ｐ
cupping
##孑
##娶
chung
闺
counters
occupies
スホンサーサイト
##ου
rate
1672
佥
hit
##eering
speaker
##ery
埠
##nded
speaks
inferior
fen
clenching
##羿
##盹
modules
privatization
疆
₱
ה
綿
wimbledon
sucked
##濛
royalist
##dana
怀
##棕
experts
cd
chan
##nk
1972
hear
complicated
brandenburg
cup
##养
##艷
shapiro
sufi
群
##³
及
43
apollo
##iation
barak
##粥
##tc
##aneous
##oys
驷
protestants
##鹿
##hearted
barbarians
對
denmark
gradually
1500
eliminating
##wf
oven
kun
myles
##斬
army
muzzle
sock
縛
##们
unharmed
secure
##龋
阖
##烧
dane
bandwidth
churchill
cognition
5t
##桓
頫
losing
fixing
##х
sellers
sorbonne
£1
dangerously
morton
successively
躋
##賦
romanian
eucalyptus
##蓑
##kw
##aine
թ
theme
##牺
garde
pbs
##吐
forces
main
soon
wealthiest
toast
蜍
螯
dummy
##大
exceeded
濕
##绎
patti
##憂
trondheim
崧
託
##uez
►
austrians
listened
winnie
paolo
##ⓒ
offerings
##辣
roller
蔵
钣
northamptonshire
澜
##asian
diamonds
whale
##ا
##و
outbreak
extra
##肩
奬
panel
##yn
darryl
秣
邊
wrist
minute
lecturer
辞
##79
哩
潺
257
汆
##瀾
##喱
swearing
##繡
retaliation
##享
##嚐
鹘
52kb
seen
tide
corvette
matt
founding
yeast
delivers
primetime
##zic
旌
540
措
tables
alliance
##ride
##rained
##dk
ticking
riff
shareholder
instituted
angelo
jerking
##tius
juicy
pregnancy
goods
瘴
##舵
shaved
panties
disperse
##凛
禅
300
佞
39
awake
##ω
##札
699
prefect
##燄
##貴
6th
slits
tim
joan
骑
warships
forts
picked
division
##尴
ہ
missionaries
spaniards
##nig
validation
羲
忱
defeated
collar
##蛐
bbe
alright
excuse
丨
穢
の
##●
lunar
##吸
##胆
curl
identities
manipulate
collection
rosemary
otter
撵
braid
rebecca
landau
##ati
##copyright
bbs
herd
##醚
guards
battled
管
##见
meade
##载
##bbled
chestnut
cooked
##jiang
##伺
##°
highways
lopez
sale
nights
麝
dal
automated
##濬
rockets
trainee
##窄
ध
醋
pursuant
spend
basics
kiehl
ף
wore
┊
naples
##г
pow
##idium
kung
stars
##llar
##珺
slammed
##囊
茧
ucbug
vessel
##mm
reunion
##辦
apples
netcomponents
▲topmay
attention
##mament
pointless
filling
505
specialising
reconcile
class
optics
dubois
sundance
ohio
draws
jar
air
農
##鐵
uptown
estate
pouch
##พ
shang
棱
##lf
怖
苫
392
##❀
##钥
鵝
appointment
iain
##節
##ona
demons
keel
##浪
campuses
koreanmall
##ₚ
##rson
##osity
male
槛
崭
warlord
alma
##仅
rein
titanium
##介
##阿
##ru
mac
seeded
##返
tony
めた
scalp
mating
##lim
旷
situ
膳
iphone
andreas
##凇
##eland
##彰
novi
trial
miners
から
##յ
knee
reconstructed
醃
enrolled
blogfp
uniquely
##圭
筆
croatia
势
connect
cypriot
carl
鹃
##蠢
repository
memo
intellectuals
bonus
krishna
##ю
##繚
uncomfortable
##ια
値
preference
筠
醐
##tose
302
##残
##箴
statues
painting
垵
兲
set
eventually
墙
rue
extraction
biomass
##湊
jihad
1910
嚎
choreography
##結
##絕
უ
钦
mean
chattanooga
##鵰
収
鎮
##鐸
pushed
serum
##berries
##haven
凿
##ruck
swissinfo
lightly
##まて
##龈
##ose
switzerland
zeta
bain
solo
468
22
said
trap
##冰
optimism
kumar
scala
##偶
吹
##镂
coupling
##self
ea
##彪
办
promoters
##low
?
mortal
葉
遲
tyre
2050
##耷
##纔
feeling
朽
kn
kinds
养
grinned
##cars
regulators
殖
獰
##颊
quiet
##薨
ﾄ
lo
tournament
randy
济
nest
##嗳
weekly
attributes
pointedly
gain
屁
accordingly
##蛭
cardiff
sleeve
##军
oxide
##坚
##漏
##ка
educating
##具
troop
gmat
quintet
垒
implicit
就
##nca
暢
cambrian
困
gibraltar
##壮
##羡
##rin
##编
锅
affair
6p
52sykb
嚕
whore
嬌
##袍
##eis
棟
intro
tna
rr
automatically
##擰
##drich
##zee
xr
##昴
sitting
rio
##あなたに
##彅
蚤
蝗
puck
olympus
##葆
##dion
##ba
请
##燒
wah
##utable
mis
ad
substances
governor
hktvmall
exploded
kang
鰻
washed
assign
鲢
燎
lb
controller
mines
##log
greenwich
justice
##鎖
嘹
際
jb
placed
##94
##uve
phantom
beers
wakes
##ei
beauty
dull
##gami
rearview
舂
anglia
people
sainte
westbound
gasps
ongoing
产
##官
##゜
peculiar
separate
prada
##仮
known
upgrade
##ᵈ
heat
abdullah
prediction
mirage
ᵉ
freighter
icons
delicately
##ractive
##瘀
##見
##榜
approached
firearm
emeritus
秸
##cis
granddaughter
##躬
##iya
enlist
generals
parachute
##挣
voting
##me
##讲
桑
##titled
rental
##礙
脫
##lby
stab
纤
##rks
凈
show
g5
shaggy
shenzhen
熵
##broken
##ifying
maldives
##icon
##ז
##ch
haley
moldova
test
勸
enthusiasts
ling
##掲
meta
##爱
spatial
##physics
soo
凜
synagogue
##tters
##邁
##af
gilded
宵
clyde
icelandic
##幡
beaumont
##dot
##薑
volunteer
##ener
##⁶
academie
knocked
##帰
jerusalem
syllables
##chenko
▫
押
nicaragua
inappropriate
coloring
##澜
martinez
伶
##张
elites
汝
obey
になります
director
snails
truss
refugee
鞋
duets
##san
276
rural
lie
scotia
incorporating
lviv
clube
皴
dramas
layne
fantasies
temperance
alberta
grazing
##feld
##夢
daughter
##ado
colts
malicious
tunisian
menu
nude
francesca
max
##桉
lenin
lynn
heraldic
carpet
votes
curls
genetically
##跛
while
##揀
##cing
neurons
##钟
etnews
緑
orange
肋
##頒
##顽
obsolete
howell
堅
andes
ɣ
嚇
##ill
##∗
##fen
boundaries
sic
suicide
capitalist
##ads
▇
##让
loomed
chart
mph
##刈
orphans
meek
library
##bey
##cier
##胛
genealogy
640
罪
incarcerated
##yl
痂
gp
repairing
##判
git
##牌
database
赞
##bius
docking
##arion
練
##苁
choreographer
するとあなたにもっとマッチした
垢
##鼠
斂
玖
##鉴
suppliers
2l
a4
galloway
thence
counted
versa
##tion
##疆
manuscript
##ked
##司
##元
subsidies
##彷
offender
robbers
nests
cable
##祇
archdeacon
620
##missible
##嵬
ม
蕴
secondly
debates
vertex
javier
##anial
##kim
owen
##繇
civic
வ
##澎
檄
place
##歲
killers
灸
##涣
launches
層
av
moves
##his
綁
##鄙
羸
classroom
badly
stuck
##嗑
powerpoint
##ajan
##蓦
##lent
raising
richest
linen
##5
聊
memoir
順
waist
baronet
deeply
##觞
##islav
facility
##获
embarked
yun
44th
tia
裙
cu
##蛔
##挛
irritating
##wald
##歐
##饽
乡
gabby
##zar
沸
##34
bounded
##є
acc
冶
429
scotland
npr
##wee
12306
neo
##yde
ionic
nero
蚜
蜴
継
involved
##刻
,
凍
jazz
khorasan
waivers
##些
による
1884
lions
ぁ
leone
我
fatally
##game
kristin
ｊ
##喔
寓
ibrahim
fabio
recommendation
1702
elliptic
turmoil
scholars
redhead
bob
underlying
伴
##色
mastering
inspiring
裴
doorbell
##yo
倪
slender
complexity
##ele
##chang
detectors
盟
##矢
##④
lived
extremely
##罚
##换
boating
顺
痤
冊
scoop
analyzed
癬
##gnant
westwood
lauren
ut
pinnacle
##醜
joaquin
##ucher
weaken
pere
730
fry
察
##woman
ramon
takeover
鑊
##ｯ
##ӏ
##dler
挹
nominally
meg
硝
town
##mix
1655
師
##瓴
##簿
pisa
##あり
agrees
##彎
trades
solved
georgie
generated
##arding
movements
priesthood
დ
##cina
##of
ந
##nat
comical
##lga
##絲
##鞣
inches
comparative
milwaukee
##婆
##サー
︶
捡
渐
lyric
##izing
縷
##lai
##于
##￥
medals
dominating
devlin
prosperity
finalist
睥
strive
oppressive
ק
skopje
suggested
montenegro
sighed
##belt
船
flavors
firefox
herself
bred
clumsy
beg
clockwise
##瑜
##贏
ん
boone
##心
shelly
##oshi
##婵
thighs
partially
sipped
engulfed
喷
courses
doorstep
霸
##fles
earlier
##奐
遽
##寶
##珠
##holz
solitary
persistent
渤
ringo
花
##ート
##怂
travelled
##cc
inquisition
3rd
historic
##擊
contain
ranger
嵯
sofia
fender
赤
buyer
##dron
##lio
##てきます
##⊂
rhymes
escort
sword
failed
吗
dvds
##レ
##rard
廢
start
roberta
nhs
##贮
cornerstone
丿
槲
fractures
exposed
##冷
##比
rotation
##fully
unstable
##糧
mock
busted
peace
fours
overly
##挝
179
尼
あり
haunt
[...]
