'<pad>'
'<EOS>'
'_'
'，_'
'。_'
'the_'
'._'
'of_'
', _'
'and_'
'to_'
'、_'
'in_'
'a_'
's_'
'. _'
'-_'
'的'
'is_'
'on_'
'和'
'for_'
'The_'
'(_'
'/_'
'that_'
'在'
'with_'
'ing_'
''_'
'对'
'by_'
'（_'
'ed_'
'是'
'；_'
'as_'
'与'
'be_'
'《_'
'：_'
'e_'
')_'
'd_'
'的_'
'“_'
'为'
') _'
'was_'
'》_'
'are_'
'了'
',_'
'it_'
'或'
'I_'
'1_'
'or_'
'2_'
'y_'
'中'
'"_'
'at_'
'from_'
'）_'
'an_'
' (_'
'有'
'以'
'将'
'及'
'A_'
't_'
'have_'
'地'
'其'
'上'
'性'
'不'
'并'
'this_'
'3_'
'you_'
'has_'
'its_'
'他'
'人'
'一个'
'我'
'es_'
'一'
'以及'
'not_'
'而'
'就'
'了_'
'个'
'到'
'which_'
'大'
'包括'
'can_'
'从'
'will_'
'关于'
'4_'
'”_'
'向'
'5_'
'来'
'我们'
'被'
'会'
'时'
'were_'
'国家'
'这些'
'用'
'0_'
'进行'
'该'
'their_'
'In_'
'·_'
'要'
'？_'
'， _'
'可'
'问题_'
'由'
' , _'
'通过'
'6_'
'所'
'于'
'能'
'n_'
'说_'
': _'
'你'
'下'
'had_'
'his_'
'没有'
'r_'
'al_'
'all_'
'内'
'应'
'ly_'
'也'
'’_'
'新'
'委员会'
'been_'
'中_'
'he_'
'但'
'also_'
'said_'
'C_'
'l_'
'无'
'多'
'可以'
'one_'
'7_'
'等'
'法'
'联合国'
'政府'
'提供'
'他们'
'水'
'It_'
';_'
'time_'
'这'
'system_'
'm_'
'they_'
'公约_'
'more_'
'er_'
'本'
'后'
'出'
'we_'
'着'
'时_'
'已'
'都'
'她'
':_'
'它'
'中国'
'年'
'other_'
'高'
'United_'
'?_'
'8_'
'者'
'国'
'9_'
'根据'
'g_'
'发展'
'中的'
'into_'
'种'
'国际'
'前'
'S_'
'作为'
'up_'
'ng_'
'这个'
'还'
'有关'
'would_'
'out_'
'ation_'
'工作_'
'小'
'这一'
'把'
'家'
'ion_'
'问题'
'和_'
'化'
'比'
'; _'
'之'
'需要'
'系统'
'人_'
'but_'
'This_'
'必须'
'should_'
'than_'
'所有'
'已经'
'其他'
'China_'
'工作'
'里'
'得'
'体'
'更'
'名'
'们'
'这种'
'同'
'自'
'使'
'任何'
' 。_'
' - _'
'当'
'研究'
'长'
'社会'
'斯'
'子'
'so_'
'经济'
'组织'
'具有'
'使用'
'——_'
'如果'
'些'
'your_'
'管理'
'定'
'new_'
'执行'
'力'
'who_'
'型'
'去'
'me_'
'是_'
'技术'
'about_'
'拉'
'给'
'促进'
'work_'
'次'
'c_'
'各'
'主要'
'b_'
'方法_'
'o_'
'尔'
'如'
'公司'
'一些'
'her_'
'支持'
'性_'
'between_'
'项'
'采用'
'由于'
'生'
'特'
'10_'
'研究_'
'天'
'加'
'点'
'my_'
'General_'
'要求'
'such_'
'继续'
'法律'
'妇女'
'。 _'
'people_'
'international_'
'获得'
'式'
'学'
'利用'
'2'
'全球'
'他的'
'美国'
'成'
'代表'
've_'
'Nations_'
'非'
'又'
'分'
'L_'
'新的'
'发'
'会议'
'过'
'再'
'Committee_'
'因为'
'well_'
'He_'
'间'
'报告_'
'受'
'及其'
'决定'
'two_'
'P_'
')。_'
'项目'
'under_'
'like_'
'那'
'外'
'作'
'上_'
'made_'
'正在'
'好'
'可能'
'development_'
'得到'
'部'
'行'
'them_'
'条'
'度'
'加强'
'全'
'used_'
'States_'
'some_'
'paper_'
'Mr_'
'起'
'建立'
'能够'
'相'
'us_'
' “_'
'量'
'线'
'器'
'入'
'when_'
'活动_'
'机'
'if_'
'3'
'各种'
'面'
'正'
'method_'
'服务'
'ment_'
'We_'
'让'
'权'
'only_'
'E_'
'最'
'控制'
'很'
'动'
'利'
'no_'
'could_'
'期'
'方面'
'报告'
'处理'
'即'
'区域'
'over_'
'）。_'
'日'
'总'
'在_'
'区'
'作用_'
'位'
'D_'
'许多'
'热'
'时间'
'方面的'
'电'
'并且'
'提出'
'二'
'do_'
'经'
'确保'
'流'
'克'
'tion_'
'i_'
'after_'
'说'
'德'
'开'
'供'
'information_'
'数据'
'教育'
'情况_'
'光'
'交'
'our_'
'类'
'政治'
'心'
'方案'
'提高'
'因此_'
'你的'
'活动'
'分析'
'most_'
'k_'
'Chinese_'
' "_'
'请'
'方'
'三'
' _'
'转'
'特别是'
'机构'
'建议_'
'吗_'
'保护'
'high_'
'data_'
'文'
'想'
'因'
'there_'
'first_'
'金'
'法_'
'建议'
'对于'
'基于'
'以便'
'5'
'而且'
'措施_'
'场'
'后_'
'一种'
'she_'
'process_'
'车'
'率'
'实现'
'口'
'卡'
'制'
'信息'
'countries_'
'此外_'
'未'
'两'
'结构'
'管'
'确定'
'为了'
'may_'
'Council_'
'But_'
'马'
'合'
'会议_'
'make_'
'%_'
'重'
'认为'
'气'
'此'
'应用'
'布'
'如何'
'。”_'
'what_'
'way_'
'use_'
'用于'
'安全'
'人员'
'解决'
'能力_'
'方案_'
'政策'
'影响_'
'平'
'带'
'回'
'亚'
'事'
'ers_'
'against_'
'able_'
'设计'
'行动_'
'环境'
'影响'
'大会'
'基本'
'世界'
'through_'
'h_'
'相关'
'海'
'则'
'1'
'进行了'
'期间'
'手'
'开始'
'基'
'儿童'
'ts_'
'p_'
'C'
'西'
'合作'
'企业'
'主'
'业'
'这是'
'规定'
'自己'
'油'
'成为'
'based_'
'A'
'缔约国'
'系统的'
'生产'
'现在'
'开展'
'参与'
'单'
'人的'
'针对'
'组'
'实施'
'分析_'
'但是'
'rights_'
'ic_'
'4'
'纳'
'或者'
'我的'
'市场'
'头'
'增加'
'合作_'
'别'
'women_'
'human_'
'问题的'
'物'
'两个'
'非常'
'尽管'
'处'
'考虑'
'打'
'下_'
'year_'
'those_'
'ies_'
'country_'
')._'
'），_'
'达'
'表'
'特别'
'月'
'数'
'先生_'
'st_'
'management_'
'including_'
'control_'
'门'
'进一步'
'者_'
'本文'
'层'
'审查'
'安'
'地区'
'同时'
'上的'
'these_'
'many_'
'le_'
'him_'
'变'
'不能'
'report_'
'any_'
'！_'
'那些'
'解'
'波'
'格'
'”。_'
'years_'
'support_'
'B'
'罗'
'核'
'情况'
'各国'
'值'
'主席'
'ry_'
'analysis_'
' '
'路'
'调查'
'综合'
'应该'
'就是'
'四'
'只'
'受到'
'努力'
'业务'
'water_'
'B_'
'12_'
'通'
'调'
'行动'
'行为'
'像'
'不同'
'being_'
'自己的'
'网络'
'指出_'
'图'
'国家_'
'order_'
'just_'
'design_'
'ce_'
'0'
'身'
'努力_'
'关'
'做'
'ble_'
'表示'
'程序'
'点_'
'方式'
'局'
'反'
'原'
'共同'
'信'
'national_'
'" _'
'风'
'联'
'明'
'接受'
'太'
'具体'
'代'
'very_'
'rs_'
'20_'
'见'
'收'
'按照'
'减少'
'其中'
'低'
'te_'
'how_'
'They_'
'：“_'
'阿'
'部分'
'评估'
'视'
'花'
'级'
'科'
'直接'
'现'
'投资'
'战略'
'它们'
'then_'
'7'
'认为_'
'美'
'有关的'
'无法'
'尼'
'均'
'什么'
'一项'
'world_'
'non_'
'model_'
'good_'
'before_'
'To_'
'M_'
'目前'
'帮助'
'因此'
'员'
'份'
'以色列'
'same_'
'T'
'资料_'
'贸易'
'系统_'
'测试'
'改善'
'成员'
'山'
'发展_'
'务'
'例'
'O'
'造成'
'近'
'议'
'按'
'常'
'巴'
'完全'
'南'
'公'
'产'
'power_'
'ns_'
'must_'
'less_'
'F_'
'As_'
'秘书长'
'方法'
'应当'
'取'
'代表团'
'他们的'
'之间的'
'where_'
'shall_'
'level_'
'State_'
'30_'
'际'
'计划'
'规定_'
'离'
'看'
'涉及'
'安全理事会'
'和其他'
'ted_'
'right_'
'ity_'
'de_'
'\u_'
'重要'
'道'
'资源'
'讨论'
'然而_'
'然后'
'火'
'有效'
'并不'
'小组'
'审议'
'基金'
'号'
'介绍了'
'using_'
're_'
'different_'
'K'
'At_'
'8'
'), _'
'至'
'能力'
'老'
'约'
'每'
'曾'
'是否'
'希望'
'学生'
'台'
'作出'
'中心'
'take_'
'part_'
'man_'
'children_'
'P'
'Government_'
'- _'
' — _'
'，”_'
'采取'
'负责'
'表示_'
'第一'
'段'
'强'
'上述'
'万'
'results_'
'life_'
'T_'
'项目_'
'理事会'
'来自'
'更加'
'文件'
'报'
'件'
'以下'
'五'
'resolution_'
'law_'
'important_'
'down_'
'And_'
'说明'
'的人'
'球'
'没'
'放'
'市'
'委员会_'
'周'
'人们'
'个人'
'” _'
' _'
'now_'
'long_'
'day_'
'You_'
'%。_'
'．_'
'计划_'
'结'
'秘书处'
'界'
'意'
'您'
'形'
'参加'
'保'
'• _'
'nt_'
'get_'
'during_'
'选'
'进'
'试验'
'立'
'民'
'段_'
'教'
'占'
'切'
'决定_'
'全面'
'人民'
'为_'
'ons_'
'article_'
'11_'
'长期'
'较'
'节'
'联合'
'空间'
'标准'
'开发'
'工作人员'
'公共'
'先'
'信息_'
'一般'
'study_'
'per_'
'need_'
'know_'
'Secretary_'
'If_'
'除'
'部门'
'选择'
'评价'
'满足'
'查'
'来_'
'方面_'
'我们的'
'压'
'却'
'共'
'off_'
'N'
'International_'
'E'
'9'
'致'
'米'
'病'
'理'
'欧洲'
'接'
'工作的'
'发生'
'化_'
'关系'
'但是_'
'产品'
'之间'
'之一_'
'three_'
'S'
'走'
'要求_'
'结果'
'等_'
'站'
'目标_'
'电子'
'服务_'
'提出了'
'拥有'
'商'
'列'
'um_'
'ting_'
'see_'
's'
'public_'
'much_'
'end_'
'X'
'New_'
'Assembly_'
'6'
' 、 _'
'院'
'抗'
'工作组'
'取得'
'临时'
'》，_'
'resources_'
'ous_'
'line_'
'group_'
'both_'
'R_'
'领域'
'须'
'达到'
'费'
'虽然'
'第二'
'板'
'是一个'
'支助'
'提供了'
'护'
'备'
'哈'
'协调'
'仍然'
'ty_'
'education_'
'L'
'2000_'
'15_'
'!_'
'鼓励'
'边'
'质'
'省'
'理论'
'模型'
'标'
'家庭'
'呢_'
'双'
'任务'
'从而'
'security_'
'provide_'
'ness_'
'government_'
'V_'
'Commission_'
'银行'
'目标'
'温'
'求'
'款'
'技术_'
'感'
'意见_'
'微'
'导致'
'子_'
'好_'
'声'
'只是'
'协助'
'保持'
'书'
'state_'
'each_'
'R'
' ._'
'，“_'
'首'
'重新'
'里_'
'运动'
'行政'
'算'
'禁止'
'欢迎'
'提交'
'情'
'导'
'发现'
'半'
'人权'
'rate_'
'number_'
'field_'
'U'
'That_'
'问'
'运'
'计'
'生活'
'然'
'源'
'深'
'消除'
'断'
'工'
'对_'
'增'
'培训'
'品'
'几'
'军'
'传'
'也是'
'严重'
'且'
'se_'
'efforts_'
'For_'
'装'
'维'
'纳入'
'注意到'
'机构_'
'机制'
'提出的'
'据'
'持续'
'扩大'
'州'
'各项'
'先生'
'价'
'介绍'
'仅'
'w_'
'ne_'
'economic_'
'company_'
'V'
'There_'
'Republic_'
'M'
'D'
'2005_'
'13_'
'额'
'酸'
'那么'
'极'
'材料'
'最后'
'文件_'
'援助'
'措施'
'推动'
'恢复'
'地_'
'司'
'原则_'
'内部'
'你们'
'while_'
'th_'
'technology_'
'meeting_'
'last_'
'implementation_'
'even_'
'effect_'
'She_'
'G'
')，_'
'随着'
'这项'
'还有'
'证'
'结果_'
'符合'
'林'
'库'
'平均'
'安理会'
'呼吁'
'制定'
'一_'
'structure_'
'quality_'
'put_'
'12'
'题为_'
'预算'
'非洲'
'队'
'精'
'监测'
'的一'
'整'
'效'
'执行_'
'强调'
'复'
'地方'
'司法'
'华'
'写'
'关键'
'允许'
'令人'
'不是'
'—_'
'light_'
'ions_'
'go_'
']_'
'O_'
'N_'
'2004_'
'' _'
'～_'
'速'
'轮'
'美元_'
'空'
'程序_'
'特派团'
'派'
'汽车'
'机制_'
'早'
'文化'
'改革'
'支持_'
'指'
'打击'
'展'
'学习'
'失'
'城市'
'和平'
'十'
'制度'
'减'
'关系_'
'伊'
'人口'
'产生'
'still_'
'political_'
'll_'
'f_'
'because_'
'activities_'
'U_'
'On_'
'H'
'钢'
'都是'
'进入'
'载'
'论'
'萨'
'细胞'
'组织_'
'积极'
'独立'
'片'
'照'
'法院'
'明确'
'日_'
'总统'
'往'
'北'
'了一'
'之后_'
'举行的'
'专业'
'下的'
'x_'
'without_'
'trade_'
'set_'
'related_'
'programme_'
'large_'
'help_'
'ding_'
'age_'
'[_'
'17_'
'10'
' . _'
'防止'
'造'
'血'
'网'
'经常'
'白'
'瓦'
'条件_'
'期间_'
'我国'
'性能'
'并在'
'存'
'只有'
'反应'
'军事'
'传统'
'之前'
'专家'
'ure_'
'type_'
'too_'
'own_'
'capacity_'
'OF_'
'F'
'25_'
'2001_'
'18_'
'15'
' $_'
'雷'
'限制'
'配'
'药'
'目的'
'治疗'
'民主'
'案'
'某些'
'更多的'
'是在'
'易'
'整个'
'才能'
'干'
'实验'
'存在'
'女'
'同意'
'session_'
'service_'
'g'
'cooperation_'
'business_'
'building_'
'better_'
'14_'
'驻'
'领域_'
'通常'
'红'
'称_'
'环'
'正式'
'权利_'
'数字'
'性的'
'当地'
'建'
'实'
'塞'
'土'
'发展的'
'击'
'修'
'special_'
'present_'
'measures_'
'did_'
'cent_'
'Security_'
'No_'
'I'
'21_'
'黑'
'防'
'看到'
'爱'
'活动的'
'比较'
'根据_'
'旨在'
'提供的'
'控'
'换'
'持'
'才'
'战'
'举行'
'不同的'
'”，_'
'peace_'
'market_'
'ke_'
'ization_'
'cases_'
'ary_'
'2008_'
'还是'
'资源_'
'自由'
'系'
'社区'
'知道'
'率_'
'普'
'族'
'承诺'
'审'
'完成'
'大学'
'圣'
'听'
'办法_'
'力_'
'共和国'
'role_'
'period_'
'ling_'
'financial_'
'ent_'
'current_'
'areas_'
'22_'
'% _'
'需要_'
'超过'
'计算机'
'规定的'
'统计'
'程'
'神'
'皮'
'用_'
'清'
'武器'
'木'
'料'
'政策_'
'年_'
'土地'
'因素_'
'器_'
'动态'
'内容'
'事务'
'了解'
'不会'
'不仅'
'u_'
'show_'
'services_'
'point_'
'ors_'
'low_'
'ge_'
'en_'
'body_'
'best_'
'area_'
'Convention_'
'50_'
'金融'
'象'
'行为_'
'船'
'简'
'科学'
'用户'
'权利'
'托'
'建设'
'字'
'培训_'
'国家的'
'吃'
'包'
'初'
'出现'
'充分'
'不要'
'三个'
'making_'
'great_'
'force_'
'draft_'
'a'
'World_'
'Study_'
'"。_'
'骨'
'远'
'过去'
'软件'
'表明'
'考虑到'
'编'
'索'
'立法'
'的影响_'
'甚至'
'液'
'每个'
'时间_'
'政'
'推'
'挑战_'
'批准'
'底'
'履行'
'国_'
'团'
'制订'
'内_'
'兰'
'六'
'八'
'元'
'儿'
'伤'
'人类'
'一直'
'research_'
'performance_'
'd'
'application_'
'above_'
'16'
'领域的'
'难'
'适当'
'资料'
'质量'
'责任'
'请求'
'语'
'设计_'
'英国'
'者的'
'群'
'称'
'短'
'知识'
'治'
'构'
'条件'
'机会'
'教育_'
'改进'
'战略_'
'感到'
'张'
'度_'
'套'
'士'
'健康'
'便'
'does_'
'action_'
'19_'
'限'
'这样'
'给予'
'申请'
'样'
'最终'
'日本'
'新闻'
'收入'
'承认'
'情况下'
'建筑'
'尤其是'
'实际'
'合同'
'包括_'
'例如_'
'会员国'
'working_'
'possible_'
'particular_'
'organizations_'
'e'
'ate_'
'European_'
'40_'
'2003_'
'11'
',” _'
'－_'
'高_'
'部队'
'遵守'
'速度'
'进行的'
'超'
'费用'
'调查_'
'读'
'详细'
'若干'
'而不是'
'维持'
'石'
'相关的'
'现有'
'犯'
'步'
'模型_'
'架'
'果'
'机_'
'更多'
'工业'
'将在'
'助'
'公约'
'保证'
'今年'
'今天'
'一样_'
'various_'
'taken_'
'recommendations_'
'ments_'
'issues_'
'global_'
'general_'
'found_'
'decision_'
'ch_'
'case_'
'according_'
'Group_'
'Development_'
'50'
'000_'
'钱'
'连'
'这样的'
'运用'
'过程中'
'责任_'
'计算'
'管理_'
'第5'
'竞争'
'眼'
'留'
'生物'
'温度'
'活'
'框架'
'最近'
'曼'
'显示'
'是一'
'支'
'态'
'快'
'工程'
'历史'
'办公室'
'分别'
'例如'
'似乎'
'任'
'不可'
'七'
'》。_'
'within_'
'think_'
'say_'
'parties_'
'major_'
'little_'
'ia_'
'ds_'
'developing_'
'developed_'
'conditions_'
'am_'
'H_'
'23'
'随'
'选举'
'送'
'财务'
'结合'
'目'
'洛'
'注'
'毒'
'检测'
'根'
'条_'
'收集'
'应对'
'她的'
'大的'
'基础_'
'块'
'在其'
'卫生'
'千'
'勒'
'优先'
'从事'
'举'
'一次'
'value_'
'situation_'
'second_'
'members_'
'means_'
'come_'
'basis_'
'back_'
'away_'
'J'
'20'
'风险'
'预'
'避免'
'迅速'
'资金'
'试'
'访问'
'自动'
'联邦'
'联盟'
'缺乏'
'直'
'班'
'王'
'沙'
'每年'
'校'
'朝鲜'
'担任'
'或_'
'愿'
'性和'
'快速'
'必'
'形成'
'当局'
'属'
'届'
'它的'
'域'
'地区_'
'国际社会'
'国内'
'号_'
'功能'
'全国'
'假'
'享有'
'事_'
'不断'
'tic_'
'self_'
'progress_'
'old_'
'methods_'
'local_'
'ive_'
'here_'
'health_'
'flow_'
'established_'
'ensure_'
'Y'
'President_'
'23_'
'16_'
' ( _'
'降低'
'附'
'重要的'
'费用_'
'话'
'记'
'表面'
'草案'
'航'
'紧急'
'监督'
'的是'
'特殊'
'演'
'有关_'
'成本'
'属于'
'尚未'
'尔_'
'射'
'密'
'安排'
'媒体'
'增加_'
'在一'
'吧_'
'号决议'
'发展中国家'
'反对'
'博'
'分析了'
'准'
'会_'
'乐'
'view_'
'term_'
't'
'region_'
'necessary_'
'military_'
'main_'
'm'
'ial_'
'environment_'
'cy_'
'ance_'
'among_'
'System_'
'30'
'24_'
'24'
'17'
'非法'
'语言'
'讲'
'订'
'警察'
'表明_'
'股'
'结构_'
'终'
'社'
'的一个'
'百'
'服'
'是一种'
'改变'
'操作'
'提'
'性别'
'容'
'宣布'
'如果你'
'塔'
'喜欢'
'后的'
'古'
'协议'
'协定_'
'列入'
'使用_'
'付'
'亲'
'一起'
'一名'
'technical_'
'staff_'
'society_'
'says_'
'problems_'
'men_'
'given_'
'function_'
'four_'
'cal_'
'always_'
'When_'
'South_'
'Based_'
'60_'
'26_'
'0年'
'.”_'
')；_'
')'
'． _'
'黄'
'香港'
'面_'
'需求'
'阿拉伯'
'迪'
'软'
'谈'
'议会'
'落'
'获'
'至少'
'胶'
'环境_'
'测'
'河'
'数据_'
'援助_'
'恩'
'必要'
'建立了'
'年度'
'官员'
'夫'
'境'
'变化'
'参数'
'副'
'全部'
'偏'
'伯'
'优'
'仍'
'丝'
'regional_'
'proposed_'
'project_'
'place_'
'paragraph_'
'never_'
'lly_'
'led_'
'introduced_'
'form_'
'following_'
'far_'
'energy_'
'days_'
'characteristics_'
'change_'
'called_'
'adopted_'
'Q'
'G_'
'18'
' -- -- _'
'频'
'集'
'阿富汗'
'重大'
'通知'
'过渡'
'财产'
'贝'
'该国'
'设'
'范围_'
'耐'
'研究了'
'着_'
'真'
'水平'
'星'
'支付'
'引'
'庭'
'少'
'客户'
'客'
'学校'
'委员会的'
'增长'
'城'
'和第'
'初步'
'决'
'他們'
'下列'
'一切'
'treatment_'
'social_'
'since_'
'next_'
'nce_'
'effective_'
'construction_'
'child_'
'ar_'
'another_'
'Human_'
'American_'
'55_'
'28_'
'预防'
'铁'
'重点'
'运输'
'轻'
'越'
'财政'
'讨论了'
'言'
'角'
'观'
'草'
'联系_'
'署'
'编制'
'缔约方'
'组织的'
'目的_'
'的大'
'游'
'测量'
'汉'
'歧视'
'框架_'
'树'
'标准_'
'旅游'
'所以'
'房'
'带来'
'差'
'奇'
'啊_'
'双方'
'医疗'
'势'
'出口'
'冲突'
'其中包括'
'保险'
'事件'
'买'
'之后'
'东'
'一份'
'temperature_'
'problem_'
'party_'
'ory_'
'operation_'
'mechanism_'
'let_'
'left_'
'kind_'
'increase_'
'i'
'held_'
'going_'
'free_'
'every_'
'distribution_'
'cost_'
'ations_'
'air_'
'account_'
'With_'
'Conference_'
'Africa_'
'，《_'
'适用于'
'跨'
'警'
'莱'
'育'
'聚'
'结束'
'社会_'
'的问题_'
'犯罪'
'满'
'海洋'
'毛'
'核心'
'权_'
'服务的'
'施'
'散'
'政府_'
'投'
'批'
'总是'
'很多'
'征'
'影响的'
'异'
'居'
'家_'
'够'
'商业'
'另一'
'发挥'
'冷'
'保障'
'价值'
'二_'
'九'
'举行_'
'主管'
'中有'
'中国的'
'与_'
'solution_'
'ro'
'relevant_'
'past_'
'continue_'
'become_'
'Y_'
'What_'
'Si'
'By_'
'6年'
'27'
'26'
'."_'
'食'
'飞'
'领导'
'量_'
'采购'
'进行_'
'进展_'
'过程_'
'赛'
'话_'
'记者'
'讨论_'
'规则'
'落实'
'色'
'脑'
'考'
'置'
'结论'
'科技'
'的工作'
'森'
'条约'
'改'
'接触'
'待'
'广泛'
'师'
'工具_'
'将_'
'宪法'
'孩子'
'吉'
'号决议_'
'危机'
'办事处'
'办'
'创造'
'出的'
'准备'
'具'
'公司_'
'保留'
'侧'
'作用'
'作了'
'人数'
'之前_'
'中心_'
'个_'
'y'
'want_'
'wa'
'upon_'
'training_'
'space_'
'small_'
'provided_'
'private_'
'na'
'love_'
'full_'
'few_'
'experience_'
'en'
'conflict_'
'approach_'
'Special_'
'So_'
'Rights_'
'K_'
'8年'
'5年'
'2年'
'2012年'
'2010年'
'2007_'
'14'
'13'
'%，_'
'顿'
'部分_'
'道_'
'跟'
'谁'
'诺'
'裁'
'营'
'自然'
'而言_'
'纸'
'粉'
'矿'
'杀'
'曲'
'既'
'支助_'
'技术的'
'承诺_'
'应用_'
'巴勒斯坦'
'届会议'
'奥'
'同样'
'去_'
'区_'
'办法'
'划'
'决议'
'农业'
'公开'
'会议的'
'仪'
'令'
'他说_'
'专'
'不同_'
'一位'
'room_'
'regard_'
'r'
'position_'
'needs_'
'might_'
'ings_'
'growth_'
'considered_'
'community_'
'communication_'
'city_'
'Pa'
'However_'
'Hong_'
'80_'
'2006年'
'200'
'00'
'顶'
'音'
'非政府组织'
'销售'
'退'
'述'
'越来越'
'货'
'设备'
'解释'
'补充'
'自愿'
'能源'
'紧'
'第4'
'票'
'碳'
'的主要'
'甲'
'澳大利亚'
'法律_'
'森林'
'杂'
'本_'
'未来'
'有些'
'普遍'
'方式_'
'排'
'成员国'
'意味着'
'意义_'
'恶'
'心_'
'座'
'室'
'审查_'
'威'
'大量'
'增强'
'基因'
'员_'
'原则'
'加入'
'刚'
'切实'
'养'
'党'
'你_'
'传播'
'人道主义'
'事件_'
'义务_'
'whether_'
'to'
'test_'
'ring_'
'principle_'
'nuclear_'
'n'
'look_'
'levels_'
'l'
'key_'
'groups_'
'give_'
'further_'
'family_'
'el_'
'co'
'ck_'
'c'
'La'
'After_'
'21'
'2002_'
'000'
'领'
'靠'
'鉴于'
'适当的'
'起来_'
'觉得'
'行为的'
'藏'
'范围'
'苦'
'苏'
'职业'
'立即'
'福'
'登'
'现代'
'状态'
'洲'
'气候变化'
'条约_'
'望'
'有人'
'最后_'
'日益'
'斯_'
'找'
'情况下_'
'总部'
'心理'
'德_'
'律'
'弹'
'开始_'
'并将'
'平等'
'岛'
'宣言_'
'实现_'
'定_'
'地区的'
'启动'
'含'
'变得'
'协议_'
'分配'
'俄罗斯'
'你不'
'伊朗'
'伊拉克'
'以来_'
'二十'
'书_'
'…_'
'~_'
'ves_'
'total_'
'took_'
'third_'
'students_'
'stage_'
'several_'
'protection_'
'on'
'me'
'increased_'
'future_'
'foreign_'
'find_'
'example_'
'designed_'
'basic_'
'Sa'
'One_'
'45_'
'35_'
'25'
'22'
' ) _'
'／_'
'鱼'
'需'
'金属'
'重申'
'酒'
'遭受'
'过程'
'车_'
'赫'
'贡献_'
'训练'
'认'
'规范'
'菌'
'范围内'
'统一'
'经营'
'纤维'
'系列'
'章'
'的报告_'
'电视'
'特定'
'特别报告员'
'炉'
'混合'
'模拟'
'检查'
'构成'
'有助于'
'最大'
'曲线'
'教师'
'拿'
'成果'
'总体'
'形式'
'并对'
'岁的'
'害'
'宪法_'
'安全_'
'季'
'固'
'和国际'
'叶'
'原因_'
'印度'
'剂'
'制度_'
'几乎'
'再次'
'内容_'
'余'
'位于'
'伙伴'
'优化'
'以来'
'交通'
'交易'
'也不'
'义'
'不得'
'together_'
'today_'
'question_'
'products_'
'include_'
'impact_'
'food_'
'bility_'
'ant_'
'ability_'
'W_'
'Union_'
'Kong_'
'59_'
'40'
'.'
'％_'
'顾问'
'雅'
'阻'
'阶段'
'重要_'
'连续'
'进程_'
'运行'
'跑'
'调整'
'设立'
'论坛'
'记录'
'规则_'
'蒂'
'获取'
'草案_'
'英'
'良'
'纽约'
'稳'
'移民'
'移'
'确'
'的新'
'滑'
'死'
'欧盟'
'欧洲联盟'
'模式'
'松'
'来说_'
'村'
'机构的'
'有的'
'有效的'
'曾经'
'晚'
'数量'
'我_'
'成立'
'患者'
'思'
'径'
'录'
'强调_'
'左'
'工艺'
'寻求'
'官'
'外_'
'处_'
'圆'
'善'
'吸'
'可能会'
'叫'
'卫星'
'北京'
'劳动'
'劳'
'加以'
'制度的'
'分子'
'出了'
'公司的'
'修改'
'保健'
'体系'
'估计'
'伦'
'任务_'
'价格'
'人员_'
'产生的'
'了一个'
'也许'
'w'
'up'
'un'
'ter_'
'ss_'
'sa'
'risk_'
'result_'
'respect_'
'red_'
'personnel_'
'p'
'network_'
'media_'
'li'
'k'
'institutions_'
'early_'
'bo'
'around_'
'again_'
'address_'
'W'
'THE_'
'Li'
'Bu'
'2009_'
'2006_'
'. '
'鲁'
'飞机'
'领土'
'难民'
'长的'
'镜'
'部长'
'部_'
'通信'
'购买'
'谈判'
'诊断'
'药物'
'结果表明_'
'经过'
'精神'
'第一次'
'第3'
'税'
'移动'
'磁'
'目前的'
'的权利_'
'的国家'
'生命'
'物_'
'煤'
'气_'
'民族'
'款_'
'模'
'楼'
'案_'
'朋友'
'最佳'
'明显'
'时候_'
'控制_'
'探'
'指标'
'折'
'意见'
'循环'
'往往'
'工具'
'岁'
'实体'
'守'
'孔'
'多边'
'外国'
'告'
'变化_'
'厅'
'化的'
'到_'
'利益'
'倒'
'修订'
'供应'
'体_'
'什么_'
'亿'
'交流'
'三_'
'z_'
'week_'
'violence_'
'systems_'
'real_'
'police_'
'percent_'
'million_'
'ls_'
'issue_'
'higher_'
'hi'
'fully_'
'ful_'
'er'
'economy_'
'attention_'
'ated_'
'ally_'
'accordance_'
'So'
'Ra'
'Organization_'
'Du'
'Design_'
'Co'
'All_'
'4日'
'2007年'
'2005年'
'音乐'
'零'
'雇员'
'集中'
'采'
'邀请'
'这类'
'足'
'课程'
'译'
'证明'
'观察'
'表_'
'膜'
'经济_'
'算法'
'离开'
'的时候_'
'状况_'
'特性'
'注意'
'法庭'
'歧视_'
'此类'
'有时'
'教学'
'收到'
'我们_'
'律师'
'形式的'
'归'
'幅'
'尽'
'就会'
'就业'
'富'
'密切'
'宽'
'宗教'
'好的'
'地球'
'地位_'
'在这'
'否'
'各方'
'取得了'
'发出'
'化学'
'加工'
'制造'
'制作'
'到了'
'农'
'做出'
'信号'
'你可以'
'们的'
'互'
'予以'
'主义'
'专门'
'ying_'
'war_'
'u'
'studied_'
'site_'
'review_'
'reduce_'
'policy_'
'play_'
'others_'
'money_'
'king_'
'industry_'
'importance_'
'ility_'
'hand_'
'forward_'
'done_'
'comprehensive_'
'companies_'
'changes_'
'budget_'
'assistance_'
'agenda_'
'addition_'
'access_'
'Office_'
'Inter'
'IP'
'CN_'
'2011年'
'2008年'
'2003年'
'--_'
'）：_'
'高级'
'销'
'连接'
'资本'
'贵'
'课'
'议程项目'
'角度'
'表达'
'致力于'
'缺'
'素'
'管辖'
'私人'
'直到'
'盖'
'港'
'欧'
'术'
'最高'
'替代'
'更为'
'探讨'
'指导'
'指出'
'拒绝'
'感谢'
'德国'
'岩'
'居民'
'小组委员会'
'实行'
'完'
'天_'
'大_'
'处理_'
'处于'
'境内'
'基础'
'埃'
'国际法'
'团结'
'只要'
'另外_'
'发言_'
'发射'
'原因'
'历'
'即使'
'冲'
'作出的'
'仿真'
'井'
'乎'
'ver_'
'the'
'statement_'
'software_'
'requirements_'
'promote_'
'plans_'
'over'
'ing'
'don_'
'de'
'concerned_'
'came_'
'available_'
'To'
'Pro'
'National_'
'Ga'
'Analysis_'
'8月'
'8日'
'61_'
'31_'
'100_'
'),_'
'青年'
'限制_'
'降'
'都有'
'违反'
'这位'
'边界'
'赔偿'
'说明_'
'行使'
'背'
'结论_'
'算法_'
'第2'
'稳定'
'程度'
'目的是'
'盘'
'的是_'
'源_'
'洞'
'洋'
'法的'
'比例'
'母'
'残疾人'
'来的'
'材料_'
'机会_'
'期待'
'有一'
'暴'
'星期'
'整体'
'效果'
'授权'
'振'
'挑战'
'批准_'
'我想'
'怎么'
'当前'
'并为'
'将会'
'威胁'
'姆'
'女士_'
'墨西哥'
'图像'
'国的'
'团体'
'和社会'
'另一个'
'及时'
'包含'
'前_'
'准则'
'兴'
'公平'
'体制'
'以确保'
'代表_'
'亿美元_'
'人士'
'主席_'
'为什么'
'世'
'一家'
'ze_'
'told_'
'times_'
'strong_'
'si'
'sh_'
'ps_'
'production_'
'plan_'
'noted_'
'monitoring_'
'material_'
'influence_'
'ina'
'h'
'gs_'
'gas_'
'equipment_'
'chemical_'
'b'
'active_'
'Trump_'
'My_'
'Ma'
'June_'
'His_'
'7年'
'36_'
'1日'
'1年'
'05_'
'： _'
'领导人'
'预计'
'集团'
'难以'
'除了'
'间的'
'部署'
'遗'
'通过的'
'适应'
'轴'
'谷'
'诉'
'莫'
'艾滋病'
'艾'
'能力建设'
'联合国_'
'结构的'
'糖'
'粘'
'积'
'破坏'
'码'
'相信'
'登记'
'理由'
'现象'
'状'
'特朗普'
'牛'
'正确'
'止'
'案件'
'析'
'本身'
'服务器'
'最新'
'暴力'
'暗'
'普通'
'无论'
'效果_'
'我要'
'成果_'
'成员_'
'情况的'
'思想'
'应力'
'年龄'
'宣传'
'安装'
'她们'
'头_'
'大多数'
'培养'
'坦'
'园'
'喷'
'卖'
'协商'
'刻'
'兹'
'充'
'停止'
'使用的'
'住房'
'住'
'他在'
'他_'
'云'
'两国'
'一级'
'ving_'
'tra'
'showed_'
'se'
'relationship_'
'range_'
'pressure_'
'person_'
'operations_'
'oil_'
'obligations_'
'member_'
'meet_'
'known_'
'however_'
'home_'
'ght_'
'forces_'
'et_'
'culture_'
'course_'
'certain_'
'agreed_'
'X_'
'While_'
'University_'
'Ta'
'ST'
'RA'
'Me'
'Korea_'
'Fi'
'English_'
'Ca'
'Ba'
'Application_'
'62_'
'58_'
'43_'
'3月'
'37_'
'36'
'32_'
'2月'
'29_'
'27_'
'2009年'
')、_'
'龙'
'高级别'
'首先'
'野'
'遭到'
'造成的'
'逐步'
'迷'
'进程'
'这_'
'返回'
'起_'
'费_'
'识别'
'规划'
'裁军'
'袭击'
'行_'
'著'
'脱'
'脚'
'而不'
'罪'
'维护'
'绝'
'经济及社会理事会'
'箱'
'答复'
'第三'
'第一个'
'福利'
'社会的'
'确认'
'硅'
'画'
'用的'
'瑞士'
'现场'
'状况'
'特_'
'物质'
'父亲'
'法官'
'沉'
'沃'
'权的'
'权利的'
'有着'
'有必要'
'有_'
'显'
'於'
'敦促'
'提交的'
'拟'
'投资_'
'抑制'
'承担'
'所有的'
'愿意'
'平民'
'宫'
'定期'
'墙'
'坚持'
'在这方面_'
'在中国'
'国民'
'因素'
'哪些'
'味'
'告诉'
'发现_'
'及其他'
'压力'
'协调_'
'十分'
'功'
'决策'
'农村'
'关注'
'公民'
'儿童的'
'做法'
'保护_'
'作_'
'体育'
'以上'
'享受'
'亚洲'
'两年期'
'世纪'
'不受'
'丁'
'war'
'things_'
'team_'
'son_'
'signal_'
'required_'
'received_'
'principles_'
'potential_'
'persons_'
'op'
'often_'
'obtained_'
'no'
'mo'
'mar'
'les_'
'le'
'land_'
'hope_'
'ho'
'history_'
'half_'
'gi'
'gender_'
'five_'
'factors_'
'environmental_'
'effects_'
'dynamic_'
'content_'
'common_'
'ces_'
'additional_'
'SP'
'Ka'
'In'
'High_'
'Fe'
'An_'
'AC'
'80'
'70_'
'66_'
'46'
'3年'
'31'
'2001年'
'鼠'
'频率'
'雪'
'货币'
'议_'
'认识到'
'规模'
'见_'
'表现'
'英语'
'若'
'职'
'而是'
'网站'
'组织和'
'类似'
'穿'
'私'
'神经'
'确实'
'看_'
'相互'
'的所有'
'病毒'
'现象_'
'玩'
'物理'
'测定'
'流动'
'法国'
'气候'
'每一'
'次_'
'标准的'
'某种'
'来源'
'本国'
'未能'
'朝'
'有一个'
'最大的'
'是不'
'时的'
'旧'
'攻击'
'支出'
'播'
'提交人'
'拟订'
'手段_'
'成功'
'感觉'
'感染'
'意识到'
'恐怖主义'
'总理'
'急'
'序'
'审议_'
'定义'
'它_'
'始'
'多_'
'外交'
'哥'
'和大'
'命'
'同时_'
'合并'
'可持续发展'
'包装'
'包括在'
'判'
'冲突_'
'值_'
'依然'
'你就'
'佛'
'何'
'但在'
'仲裁'
'以及_'
'他不'
'今后'
'事项'
'也有'
'主题'
'中央'
'与其'
'不过'
'一致_'
'一定'
'x'
'works_'
'why_'
'subject_'
'single_'
'sha'
'ru'
'responsible_'
'requested_'
'ra'
'processing_'
'pro'
'ol_'
'officials_'
'ning_'
'ng'
'min_'
'mean_'
'legal_'
'least_'
'ja'
'improve_'
'house_'
'gra'
'former_'
'eo'
'due_'
'delegation_'
'critical_'
'cra'
'continued_'
'care_'
'bi'
'already_'
'act_'
'Z'
'These_'
'Some_'
'Service_'
'Research_'
'Objective_'
'God_'
'Fu'
'Control_'
'Bi'
'Beijing_'
'<_'
'99'
'90_'
'500'
'2002年'
'0日'
'+_'
' ?_'
'，"_'
'黎巴嫩'
'验'
'预期'
'面对'
'非线性'
'需求_'
'附件'
'阵'
'闭'
'链'
'针'
'重建'
'那是'
'适用'
'这次'
'起草'
'资产'
'谱'
'试图'
'识'
'评估_'
'视频'
'至200'
'肝'
'绿色'
'组_'
'线_'
'篇'
'签'
'第6'
'端'
'种族'
'硬'
'石油'
'相对'
'益'
'男子'
'电脑'
'现在_'
'牙'
'汇'
'每天'
'模式_'
'样的'
'某'
'本报告'
'有权'
'月_'
'最不发达国家'
'明_'
'时候'
'文章'
'故障'
'指定'
'扬'
'扩散'
'所_'
'我们将'
'弱'
'延长'
'府'
'市场_'
'局势'
'尤其'
'对其'
'密度'
'实施_'
'安排_'
'存在_'
'威胁_'
'妇女的'
'如下_'
'女性'
'多数'
'增长_'
'地方_'
'在大'
'回答'
'咨询委员会'
'和实'
'员额'
'合成'
'协会'
'十年'
'分布'
'分_'
'凡'
'决议_'
'兼'
'克服'
'依据'
'以前'
'以_'
'他们_'
'举办'
'中国_'
'中东'
'不到'
've'
'uni'
'te'
'strategy_'
'simple_'
'sector_'
'school_'
'scale_'
'return_'
'q'
'provisions_'
'post_'
'points_'
'open_'
'once_'
'ming_'
'ium_'
'item_'
'interest_'
'ine_'
'ical_'
'ground_'
'ging_'
'functions_'
'father_'
'fact_'
'face_'
'ever_'
'especially_'
'ence_'
'device_'
'der'
'core_'
'concerning_'
'coming_'
'clear_'
'class_'
'ci'
'ce'
'car'
'appropriate_'
'ac'
'September_'
'PO'
'North_'
'Method_'
'Member_'
'Hi'
'Economic_'
'AS'
'4月'
'46_'
'3个'
'2010_'
'2004年'
'1999_'
'；(_'
'高度'
'风险_'
'顺'
'项目的'
'面临'
'青'
'除非'
'错'
'酌情'
'部门_'
'那个'
'选择_'
'输出'
'转换'
'起诉'
'调节'
'设计的'
'议程'
'觉'
'补偿'
'营养'
'苏丹'
'节_'
'般'
'舍'
'肉'
'联合国系统'
'联合国的'
'美洲'
'缩'
'统'
'给我'
'给出了'
'粮食'
'笔'
'租'
'社会发展'
'示'
'知'
'真正'
'监狱'
'的方式'
'的地'
'的主'
'略'
'田'
'现有的'
'特点_'
'烧'
'灵'
'湖'
'民间社会'
'植物'
'条款'
'条例_'
'期_'
'更新'
'显著'
'新型'
'文学'
'文_'
'提到'
'接近'
'所作的'
'愈'
'得以'
'弗'
'开放'
'干事'
'希'
'将其'
'封'
'寻找'
'定的'
'定位'
'委员会在'
'大约'
'增进'
'增加了'
'在这个'
'在该'
'售'
'和1'
'周期'
'可持续'
'发生的'
'反映'
'去年'
'压力_'
'厂'
'卢'
'医学'
'功率'
'到的'
'创'
'公众'
'依'
'众'
'价值_'
'义务'
'一系列'
'一下'
'word_'
'v'
'tri'
'theory_'
'table_'
'surface_'
'status_'
'specific_'
'so'
'side_'
'response_'
'respectively_'
'recommended_'
'recent_'
'pre_'
'positive_'
'planning_'
'ping_'
'particularly_'
'official_'
'nts_'
'nature_'
'mp'
'meetings_'
'machine_'
'layer_'
'later_'
'ks_'
'image_'
'hip_'
'head_'
'having_'
'got_'
'framework_'
'fa'
'effort_'
'ea'
'discussed_'
'da'
'consider_'
'civil_'
'cells_'
'carried_'
'bio'
'as'
'ali'
'York_'
'Then_'
'Su'
'SO'
'SI'
'RE'
'People_'
'Na'
'Lo'
'Le'
'IC'
'How_'
'Go'
'Di'
'Al'
'60'
'53'
'48_'
'37'
'32'
'28'
'2000年'
'1997_'
', '
' / _'
'香'
'首次'
'馆'
'预测'
'非正式'
'震'
'险'
'阴'
'邮'
'迫'
'达成'
'输'
'贷款'
'货物'
'课程_'
'证_'
'设置'
'议定书_'
'覆盖'
'裂'
'艺术'
'至1'
'耗'
'翻'
'细'
'索赔'
'管制'
'禁'
'磨'
'研究的'
'目标的'
'盐'
'的不'
'独'
'特征_'
'版'
'父母'
'燃'
'残'
'机关'
'方案的'
'方向'
'救'
'敏'
'撞'
'提高_'
'描述'
'排除'
'损'
'指数'
'户'
'战争'
'戈'
'息'
'强度'
'延'
'并通过'
'年的'
'平台'
'巨'
'就像'
'就不'
'尚'
'对话_'
'宪章_'
'实践'
'实地'
'它是'
'妇女_'
'如此'
'女士'
'大部分'
'大规模'
'多个'
'外部'
'声明'
'壁'
'在此'
'在于'
'在200'
'困难_'
'器的'
'和联合国'
'和平_'
'和200'
'同样的'
'各个'
'单位'
'升'
'区域_'
'动力'
'几个'
'决议草案'
'冲击'
'关联'
'关于_'
'儿童_'
'停'
'做法_'
'例_'
'体的'
'伙伴关系'
'件_'
'事项_'
'习惯'
'也没有'
'中所'
'严重的'
'东帝汶'
'业绩'
'与发展'
'types_'
'trying_'
'traditional_'
'therefore_'
'supported_'
'strength_'
'simulation_'
'representative_'
'really_'
'phase_'
'onal_'
'om'
'o'
'ne'
'makes_'
'ma_'
'lead_'
'late_'
'it'
'follow_'
'fire_'
'easy_'
'cultural_'
'cs_'
'contained_'
'concern_'
'concept_'
'computer_'
'close_'
'chi'
'administration_'
'Ti'
'Se'
'PA'
'Ni'
'Ne'
'Mo'
'MO'
'ME'
'Department_'
'De'
'Am'
'Al_'
'Ad'
'AT'
'7月'
'7日'
'64_'
'54_'
'53_'
'4年'
'39_'
'2日'
'1月'
'1998年'
'195'
'）'
'麻'
'麦'
'驱动'
'飞行'
'障碍_'
'长_'
'锁'
'铜'
'遇到'
'通过了'
'通过_'
'通报'
'逆'
'逃'
'远程'
'身体'
'身份'
'跳'
'资金_'
'设备_'
'论文'
'街'
'行动纲领_'
'行业'
'虚拟'
'翻译'
'纹'
'索马里'
'管理局'
'等等_'
'第四'
'突'
'私营部门'
'破产'
'着重'
'真正的'
'真主'
'的自'
'的情况_'
'电影'
'生活_'
'玻璃'
'现实'
'水_'
'比较_'
'死亡'
'此种'
'正如'
'智'
'晶'
'显示_'
'早期'
'旅行'
'政策的'
'探讨_'
'损害'
'拘留'
'担保'
'报道'
'报告的'
'找到'
'或其他'
'我不'
'怀疑'
'当时'
'弄'
'广'
'居住'
'对该'
'宁'
'婚'
'如此_'
'失去'
'外地'
'在内的'
'国际_'
'因而'
'咨询'
'员额_'
'呈'
'名_'
'可以在'
'叙利亚'
'受害者'
'卷'
'医院'
'区的'
'利比里亚'
'刀'
'凯'
'准则_'
'其它'
'兵'
'做了'
'倡议_'
'借'
'使其'
'伴'
'会有'
'企业的'
'他们在'
'也会'
'主要是'
'专家组'
'与会者'
'下降'
'。“_'
'”'
'zed_'
'whole_'
'until_'
'tt'
'towards_'
'tly_'
'th'
'stress_'
'start_'
'standard_'
'something_'
'ses_'
'sed_'
'rule_'
'reports_'
'recently_'
'property_'
'pri'
'previous_'
'os'
'nu'
'night_'
'natural_'
'name_'
'ms_'
'moment_'
'micro'
'mg_'
'mass_'
'lower_'
'joint_'
'job_'
'investment_'
'internal_'
'inter'
'improved_'
'ia'
'humanitarian_'
'ha'
'fore'
'experiment_'
'efficiency_'
'du'
'determined_'
'date_'
'com'
'ck'
'ative_'
'associated_'
'asked_'
'applied_'
'analyzed_'
'algorithm_'
'achieve_'
'US_'
'Technology_'
'Pe'
'Party_'
'Ms_'
'Mi'
'MA'
'December_'
'Car'
'Board_'
'BA'
'Ab'
'=_'
'63_'
'5月'
'56_'
'52_'
'39'
'35'
'196'
'. “_'
'"，_'
'，'
'）（_'
'默'
'面的'
'面临的'
'静'
'霍'
'隐'
'阻止'
'阐述了'
'问题是'
'银'
'都会'
'那样'
'进展'
'这样_'
'过_'
'辐射'
'车辆'
'跟踪'
'资'
'贸发会议'
'责'
'谈判_'
'试验_'
'诉讼'
'证明_'
'衣'
'行动的'
'虫'
'艾滋病毒_'
'至2'
'联系'
'群岛'
'网络_'
'缔约方会议'
'经费'
'组成_'
'相比_'
'相当'
'监管'
'的非'
'的重要'
'的第'
'的工作_'
'的人_'
'的1'
'男女'
'男'
'电路'
'生长'
'生态'
'率的'
'湿'
'消费'
'比赛'
'武装'
'模型的'
'概念'
'根据第'
'某一'
'束'
'机构间'
'末'
'朗'
'暖'
'景'
'是因为'
'教授'
'政府的'
'政府和'
'放在'
'收到的'
'提议'
'措施的'
'推广'
'损失'
'招'
'扩展'
'或是'
'我是'
'想要'
'惊'
'必要的'
'得到了'
'役'
'床'
'广泛的'
'并向'
'局_'
'审计委员会'
'宝'
'定义_'
'女孩'
'奥巴马'
'奖'
'多少'
'堆'
'基础设施'
'坏'
'址'
'地点'
'在地'
'土著'
'图_'
'回顾'
'四个'
'吸收'
'含量'
'同一'
'各自'
'只能'
'古巴'
'参与_'
'动物'
'制_'
'判断'
'创新'
'况'
'内的'
'关系的'
'免疫'
'值得'
'促使'
'依赖'
'依照'
'使得'
'体系_'
'他是'
'事情'
'乱'
'东西_'
'专题'
'下一'
'上海'
'zation_'
'young_'
'ways_'
'va'
'ul'
'transfer_'
'trans'
'ti'
'sure_'
'submitted_'
'source_'
'seen_'
'reported_'
'provides_'
'programmes_'
'product_'
'prevention_'
'ori'
'ob'
'near_'
'nd_'
'months_'
'man'
'lu'
'lo'
'lle'
'living_'
'live_'
'je'
'heart_'
'fla'
'failure_'
'evaluation_'
'etc_'
'establishment_'
'ess_'
'enhance_'
'el'
'ed'
'difference_'
'develop_'
'damage_'
'ct_'
'conducted_'
'co_'
'call_'
'bed_'
'ba'
'ad'
'UN'
'Sta'
'Shi'
'Pi'
'Per'
'November_'
'July_'
'Ja'
'ES'
'CA'
'Article_'
'Add_'
'9日'
'6日'
'65_'
'5日'
'3日'
'魔'
'高的'
'食品'
'页'
'需要的'
'集体'
'随机'
'陆'
'附近'
'重视'
'里的'
'醒'
'都不'
'避'
'道德'
'通讯'
'进程的'
'这是一个'
'这么'
'辛'
'输入'
'辅助'
'转移'
'距离'
'负'
'谨'
'词'
'许'
'认识_'
'视为'
'西方'
'蒙'
'菲'
'节省'
'艺'
'肥'
'而且_'
'缓'
'经济的'
'组合'
'签署'
'穆'
'稳定_'
'科威特'
'祖'
'磋商'
'真空'
'的项目'
'的问题'
'的成'
'生_'
'现金'
'特征'
'特别是在'
'燃料'
'然而'
'烟'
'灾害'
'添加'
'注意到_'
'注册'
'水平_'
'民众'
'毒品'
'步骤_'
'检'
'枪'
'来文'
'有效_'
'是对'
'方法的'
'改变_'
'抽'
'投票'
'技术和'
'扎'
'所得'
'我还'
'我们对'
'感_'
'患'
'怎样'
'彻底'
'影'
'弹药'
'式_'
'废物'
'应用程序'
'并非'
'帮'
'席'
'帕'
'岁_'
'尽可能'
'小型'
'尊重'
'寿命'
'对象'
'对此'
'审计'
'审判'
'安全和'
'学_'
'委'
'大家'
'夜'
'坐'
'场所'
'地雷'
'在本'
'图书馆'
'围'
'品_'
'否则'
'合作的'
'各地'
'变换'
'发表'
'危险'
'卢旺达'
'占领'
'医'
'动_'
'力的'
'刺激'
'分发'
'出现的'
'减少_'
'具备'
'免费'
'偿'
'做_'
'债务'
'修订_'
'修正'
'侵犯'
'佳'
'休'
'任命'
'以及在'
'京'
'产业'
'交换'
'于199'
'事实'
'争'
'之中_'
'东西'
'一部分_'
'》'
'℃_'
'went_'
'vi'
'uses_'
'una'
'ue_'
'terrorism_'
'super'
'standards_'
'stability_'
'speed_'
'size_'
'shows_'
'short_'
'scientific_'
'safety_'
'reporting_'
're'
'prepared_'
'policies_'
'parts_'
'ny_'
'movement_'
'mi'
'loss_'
'load_'
'keep_'
'included_'
'il_'
'ight_'
'goals_'
'forms_'
'existing_'
'digital_'
'deal_'
'complex_'
'cold_'
'cing_'
'car_'
'book_'
'began_'
'ay_'
'ani'
'ago_'
'Te'
'Sha'
'Now_'
'Mu'
'Lu'
'Ko'
'Ke'
'January_'
'IN_'
'East_'
'DE'
'Asia_'
'AR'
'AND_'
'9月1'
'68_'
'51_'
'45'
'38_'
'2月2'
'198'
'12月'
'0月'
', " _'
'%'
'齿'
'饭'
'雨'
'随后'
'陈'
'阶段_'
'防治'
'间_'
'铝'
'钻'
'钟'
'都在'
'遵循'
'逻辑'
'进口'
'运动_'
'足够的'
'购'
'请求_'
'误差'
'设施'
'议员'
'解决_'
'规划_'
'自由_'
'脸'
'能力的'
'肯定'
'职能'
'而在'
'美元'
'维持和平'
'给你'
'结束_'
'经验_'
'经验'
'织'
'线性'
'精度'
'等方面'
'第二十'
'童'
'章_'
'研究所'
'益_'
'的国际'
'的任何'
'男性'
'电话'
'用来'
'环境署'
'狗'
'特性_'
'溶'
'清楚'
'济'
'氧'
'检验'
'梅'
'案文'
'案件_'
'根本'
'核武器'
'样_'
'杜'
'材'
'有所'
'最低'
'是指'
'时期'
'数学'
'故'
'探讨了'
'探索'
'排放'
'损失_'
'指标_'
'执行局'
'打算'
'手_'
'我会'
'意大利'
'性能_'
'彩'
'异常'
'平衡'
'差异_'
'工人'
'屋'
'尾'
'家庭暴力'
'委员会第'
'她_'
'基金_'
'基础上_'
'均匀'
'地震'
'在新'
'土著人民'
'国际组织'
'因子'
'唯一'
'和对'
'和公'
'和人'
'和一'
'后来'
'各级'
'句'
'双边'
'医生'
'功能_'
'力学'
'利益攸关方'
'函数'
'出_'
'冰'
'全球化'
'全世界'
'候'
'們'
'倍_'
'体积'
'但这'
'以英语发言_'
'代码'
'互联网'
'事故'
'事务_'
'了1'
'严格'
'不过_'
'一步'
'。'
'yet_'
'ya'
'words_'
'top_'
'tions_'
'tes_'
'technique_'
'tax_'
'supply_'
'soil_'
'sm_'
'sing_'
'significant_'
'share_'
'serious_'
'section_'
'running_'
'run_'
'representatives_'
'ren'
'relations_'
'reason_'
'ram'
'prop'
'procedures_'
'presented_'
'pay_'
'pan'
'paid_'
'outside_'
'ong_'
'ni'
'nd'
'matter_'
'materials_'
'mandate_'
'lity_'
'lea'
'laws_'
'la'
'ke'
'is'
'increasing_'
'income_'
'in'
'idea_'
'gu'
'for'
'fo'
'fe'
'expression_'
'enough_'
'electro'
'dy_'
'din'
'difficult_'
'demand_'
'decided_'
'death_'
'ction_'
'comes_'
'cla'
'century_'
'believe_'
'base_'
'authorities_'
'armed_'
'ants_'
'anti_'
'aid_'
'Using_'
'OR'
'NG_'
'Lin'
'Is_'
'Iraq_'
'Information_'
'FI'
'DO'
'Chi'
'CO'
'Bo'
'? _'
'75_'
'49_'
'44_'
'33'
'2月1'
'29'
'2013年'
') '
'! _'
' -- _'
'鸡'
'露'
'难民署'
'问题和'
'问_'
'闪'
'铁路'
'量的'
'部队_'
'邮件'
'那里'
'遇'
'通过对'
'还在'
'运作'
'过的'
'辩论'
'跨国'
'起来'
'赋予'
'贫困'
'谢'
'误'
'语文'
'该法'
'评'
'许多人'
'记录_'
'讯'
'议程_'
'让我'
'认真'
'计划的'
'计_'
'解_'
'览'
'观察员'
'西班牙'
'蛋白'
'范'
'航空'
'舞'
'自200'
'腔'
'能量'
'能_'
'胡'
'胜'
'肌'
'联合国宪章_'
'美国的'
'美国_'
'编码'
'编写'
'绕'
'经济增长'
'籍'
'筹'
'策略'
'策'
'第六'
'移徙'
'科索沃'
'确定的'
'的确'
'的法律'
'电流'
'生育'
'生存'
'理论_'
'特别会议'
'灯'
'激光'
'混'
'深入'
'消息'
'浓度'
'测试_'
'泵'
'泰国'
'江'
'步_'
'正是'
'歌'
'模糊'
'植'
'桑'
'框架内'
'极端'
'杰'
'权力'
'本组织'
'施工'
'效率_'
'撒'
'摩洛哥'
'摆'
'提取'
'接受_'
'掉'
'按照_'
'拟议'
'报告中'
'我们必须'
'我们就'
'意_'
'惠'
'您的'
'形式_'
'强化'
'建立的'
'应在'
'并没有'
'并使'
'并_'
'干预'
'展开'
'导弹'
'实验室'
'官方'
'存在的'
'字_'
'如下'
'她说_'
'女人'
'太平洋'
'基金会'
'坡'
'在第'
'在上'
'土耳其'
'回收'
'呼'
'合作伙伴'
'变量'
'发展中国家的'
'反恐'
'反应_'
'及_'
'参加了'
'原理_'
'前的'
'制备'
'利益_'
'函'
'出版'
'凝'
'准确'
'净'
'军队'
'俄'
'促请'
'佩'
'你会'
'低于'
'位置_'
'位_'
'伸'
'会计'
'企业_'
'任意'
'任何人'
'以后'
'介'
'人权理事会'
'于是'
'久'
'丽'
'两种'
'》(_'
'”._'
'±_'
'zz'
'zone_'
'workers_'
'wave_'
'une'
'ug'
'ual_'
'tu'
'tor'
'tool_'
'thus_'
'thought_'
'themselves_'
'ter'
'ten_'
'taking_'
'started_'
'son'
'ship_'
'san'
'rules_'
'rich_'
'properties_'
'projects_'
'program_'
'primary_'
'prices_'
'practical_'
'please_'
'physical_'
'oc'
'note_'
'normal_'
'needed_'
'mu'
'mother_'
'mon'
'lia'
'legislation_'
'itself_'
'ir'
'inc'
'implement_'
'if'
'ian_'
'heard_'
'governmental_'
'go'
'getting_'
'gan'
'foundation_'
'fied_'
'feel_'
'est_'
'enterprise_'
'element_'
'either_'
'doing_'
'do'
'di'
'der_'
'degree_'
'complete_'
'code_'
'bodies_'
'bla'
'behalf_'
'bank_'
'author_'
'an'
'al'
'air'
'ai'
'affected_'
'administrative_'
'ab'
'Well_'
'Social_'
'SA'
'October_'
'Japan_'
'Its_'
'Israel_'
'France_'
'During_'
'CH'
'Arab_'
'Ar'
'AC_'
'9年'
'90'
'70'
'67'
'66'
'49'
'48'
'42'
'33_'
'300'
'1999年'
'100'
'01_'
'-'
')(_'
'( _'
'%,_'
'"'
' -_'
'） _'
'骗'
'顾'
'面前'
'青少年'
'阳'
'钱_'
'金_'
'重复'
'酷刑'
'部门的'
'邻'
'邀请_'
'这两'
'过程的'
'路_'
'贩运'
'责任的'
'调_'
'请秘书长'
'评价_'
'设立一个'
'讨'
'触'
'规律_'
'规'
'裁决'
'补'
'行的'
'行动计划_'
'菲律宾'
'良好的'
'自我'
'耶'
'群体'
'缘'
'绝对'
'组成'
'系数'
'等待'
'立场_'
'空气'
'空中'
'积极的'
'种_'
'碎'
'确定_'
'看见'
'目标是'
'的话_'
'的数'
'男孩'
'男人'
'电压'
'生的'
'特点'
'特别代表'
'灵活'
'潜'
'漫'
'滥用'
'清单_'
'浪'
'注射'
'法律和'
'法国_'
'沿'
'污'
'永远'
'氨'
'比如'
'毒品和犯罪问题办公室'
'死亡_'
'武装冲突'
'正常'
'概念_'
'梦'
'核准'
'柔'
'构造'
'构建'
'机的'
'期间的'
'最初'
'智能'
'春'
'旅'
'施加'
'方程'
'方案和'
'文化_'
'文书_'
'救济'
'政策和'
'摇'
'拟定'
'报道_'
'投入'
'技术合作'
'所需'
'所述'
'情报'
'恐怖'
'总结'
'彼此'
'引起'
'建议的'
'建立一个'
'度的'
'并与'
'常常'
'带来的'
'差_'
'工作组_'
'展示'
'少数'
'寄'
'宣言'
'审理'
'宗'
'安全的'
'妻子'
'奋'
'奉'
'大使'
'夏'
'复杂'
'壳'
'声_'
'塞拉利昂'
'基础上'
'地面'
'地位'
'在线'
'在对'
'在199'
'团队'
'商_'
'和区域'
'台湾'
'可靠性'
'取消'
'发起'
'发言'
'友'
'参考'
'厚'
'印'
'协定'
'协商_'
'千年发展目标'
'化学品'
'加快'
'加强_'
'剂_'
'制止'
'删除'
'刑事'
'出席'
'充满'
'偶'
'健'
'倡议'
'信用'
'信息技术'
'体现'
'传统的'
'以期'
'今'
'人在'
'人口基金'
'乌'
'为1'
'丹'
'临床'
'两性平等'
'业务_'
'与其他'
'不管'
'下午'
'》、《_'
'zi'
'z'
'wor'
'wish_'
'weight_'
'voltage_'
'vo'
'ular_'
'treated_'
'transport_'
'ties_'
'takes_'
'ta_'
'strengthen_'
'steel_'
'solid_'
'saying_'
'ros'
'rates_'
'questions_'
'providing_'
'protect_'
'prevent_'
'pre'
'per'
'pe'
'para_'
'ov'
'ously_'
'move_'
'morning_'
'month_'
'ma'
'lot_'
'list_'
'ka'
'index_'
'ign'
'hours_'
'her'
'hard_'
'greater_'
'goods_'
'goal_'
'gh'
'ges_'
'ga'
'focus_'
'final_'
'factor_'
'everything_'
'ets_'
'establish_'
'eri'
'engineering_'
'electronic_'
'ele'
'effectiveness_'
'earth_'
'document_'
'discrimination_'
'des'
'criminal_'
'context_'
'condition_'
'chan'
'central_'
'can'
'calculation_'
'big_'
'behind_'
'bar'
'assessment_'
'aspects_'
'amount_'
'allow_'
'ag'
'ad_'
'acid_'
'Working_'
'Women_'
'Ru'
'Ri'
'Programme_'
'Po'
'Or'
'May_'
'MP'
'MI'
'LE'
'LA'
'IS'
'Europe_'
'En'
'ER'
'Do_'
'Do'
'DA'
'55'
'51'
'42_'
'201'
'197'
'01'
'00_'
'. 《_'
'齿轮'
'驱逐'
'食物'
'颁布'
'面积'
'采取了'
'配置'
'那样_'
'途径_'
'途径'
'递'
'逐渐'
'这就'
'还将'
'载有'
'转让'
'贾'
'贴'
'贫'
'调动'
'该公司'
'设施_'
'裔'
'装置_'
'蛋'
'苯'
'芯片'
'芬'
'背景'
'股票'
'而_'
'考虑_'
'网络的'
'缓解'
'经理'
'简单'
'筹资'
'答'
'筒'
'第7'
'立场'
'窗'
'稳定性'
'程度_'
'破'
'知识_'
'睡'
'真的'
'看看'
'相应的'
'目前_'
'的法'
'的保'
'电话_'
'理解'
'环保'
'爆炸'
'点的'
'灰'
'清单'
'注意_'
'波斯尼亚和黑塞哥维那'
'法治'
'法官_'
'沿海'
'污染'
'氧化'
'氏'
'次区域'
'案例'
'格_'
'柬埔寨'
'查明'
'李'
'朋友_'
'最重要的'
'最后一'
'斜'
'文中'
'数_'
'改革_'
'收益'
'撤'
'搬'
'搜索'
'提高了'
'接收'
'掌握'
'掌'
'挥'
'拨'
'担心'
'承认_'
'扫'
'执'
'所载'
'所涉'
'或许'
'我就'
'我们在'
'恒'
'必须在'
'得很'
'很难'
'当你'
'强迫'
'开发计划署'
'建设和平'
'应用于'
'应付'
'应_'
'并确保'
'年轻人'
'希望_'
'市场的'
'峰'
'局势_'
'尿'
'尼亚'
'就有'
'小的'
'对我'
'容易'
'家庭_'
'宣'
'完成_'
'学者'
'妨碍'
'如何_'
'失败'
'大陆'
'多的'
'多年'
'在这一'
'在过去'
'在加'
'在与'
'固定'
'四_'
'商品'
'品种'
'和非'
'向_'
'同_'
'合金'
'吁请'
'可能是'
'取决于'
'发布'
'即将'
'南方'
'协'
'助于'
'动力学'
'加速'
'加勒比'
'力量'
'剧'
'前往'
'到达'
'利_'
'出生'
'出一'
'冲突的'
'具体的'
'公路'
'光纤'
'充分的'
'债'
'候选人'
'信仰'
'信_'
'依据_'
'你知道'
'住在'
'但我'
'伤害'
'们_'
'付款'
'从未'
'从_'
'人权_'
'人力资源'
'交流_'
'于_'
'予'
'之外_'
'主动'
'为该'
'为基础_'
'世界_'
'不利'
'•_'
'won_'
'ur_'
'unc'
'tro'
'tom'
'success_'
'sto'
'sta'
'ss'
'spe'
'sion_'
'sil'
'rise_'
'ric'
'request_'
'reference_'
'reduction_'
'rea'
'que'
'purpose_'
'pu'
'procedure_'
'price_'
'president_'
'pp'
'poly'
'pa'
'organization_'
'offer_'
'od'
'ner_'
'ncy_'
'mor'
'models_'
'missions_'
'mission_'
'mainly_'
'ked_'
'ite_'
'ie'
'id'
'hu'
'ht'
'he'
'gro'
'gn'
'gen'
'fundamental_'
'ff'
'female_'
'ey_'
'exchange_'
'essential_'
'ents_'
'entitled_'
'ely_'
'electric_'
'ee'
'disease_'
'determine_'
'ded_'
'cy'
'cut_'
'crisis_'
'crimes_'
'crime_'
'cho'
'che'
'challenges_'
'cause_'
'bring_'
'blood_'
'bit'
'bet'
'art_'
'applications_'
'ap'
'almost_'
'agreement_'
'acts_'
'activity_'
'across_'
'Tu'
'TI'
'Secretariat_'
'Results_'
'Protocol_'
'Power_'
'PR'
'PC_'
'Our_'
'NO'
'Management_'
'Law_'
'Jo'
'Je'
'IT'
'HIV_'
'Governments_'
'Finally_'
'El'
'EL'
'Da'
'CM'
'Bra'
'An'
'AN'
'?'
'9月'
'6月1'
'6月'
'600'
'58'
'34_'
'. "_'
', "_'
' '_'
'：「_'
'："_'
'高速'
'项_'
'韩国'
'非洲国家'
'雷达'
'集成'
'障'
'阅读'
'阀'
'镇'
'错误'
'错_'
'重要性_'
'释放'
'采取行动_'
'采取的'
'逮捕'
'适合'
'退休'
'追'
'这两个'
'过程中_'
'边境'
'质_'
'谴责'
'谋'
'诱'
'诗'
'评论'
'证据_'
'认证'
'解决办法_'
'观测'
'西部'
'衡量'
'螺'
'菜'
'茨'
'腐蚀'
'联络'
'联合王国'
'羊'
'维和'
'结婚'
'经费_'
'组成的'
'约_'
'粗'
'筹备'
'第五十'
'秘书长关于'
'礼'
'研制'
'督'
'看来'
'相比'
'盟'
'监测_'
'的规定_'
'的第一'
'的相'
'的电'
'的最'
'的方法'
'的技术'
'的情况下_'
'的情况下'
'的开'
'的安全'
'的国家_'
'的发'
'的两'
'癌'
'电池'
'申诉'
'生成'
'甘'
'现行'
'环境的'
'牌'
'烈'
'炎'
'灾难'
'火_'
'滴'
'渐'
'涵盖'
'消耗'
'浮'
'活性'
'洗'
'泽'
'泛'
'法和'
'治疗_'
'治理'
'母亲'
'残疾'
'武器_'
'武'
'次会议'
'模块'
'格式'
'来说'
'来源_'
'条第'
'条例'
'杂志'
'有限元'
'有利于'
'最好'
'是否有'
'是以'
'数目'
'数据库'
'教科文组织'
'效率'
'摩'
'提出_'
'提供_'
'授予'
'据_'
'损伤'
'拖'
'拉_'
'抵'
'抱'
'报_'
'执法'
'战斗'
'或不'
'我认为'
'我国代表团'
'我一'
'成员的'
'怀'
'忙'
'得出'
'徒'
'很有'
'强奸'
'引起的'
'引渡'
'开展的'
'建造'
'废'
'库_'
'并未'
'并不是'
'年轻'
'年代'
'平台_'
'巨大'
'工作人员_'
'工作中'
'层的'
'层次'
'尼泊尔'
'小时'
'将于'
'寻'
'对话'
'家人'
'害_'
'实用'
'实现了'
'宜'
'它们的'
'委会'
'始终'
'如今'
'奖_'
'大脑'
'城市_'
'坚'
'地理'
'在联合国'
'在国际'
'在国家'
'在一个'
'团_'
'喝'
'哪'
'哥伦比亚'
'和法'
'和外'
'和地'
'和发展'
'命令'
'各国政府'
'可能的'
'召开'
'口_'
'受益'
'发言人'
'卫'
'单独'
'区域的'
'力量_'
'制裁'
'创建'
'刚果民主共和国'
'刚果'
'分类'
'分享'
'冒'
'其在'
'关切'
'全面的'
'克_'
'元_'
'储备'
'假设'
'倍'
'保存'
'你要'
'你是'
'作的'
'作出了'
'估计_'
'传输'
'传感器'
'众多'
'伊斯兰'
'以后_'
'以促进'
'从200'
'产品_'
'亦'
'争取'
'乔'
'么'
'举措_'
'丰'
'中的应用_'
'中国政府'
'严'
'专员'
'与此同时_'
'不足'
'下来_'
'上一'
'丈夫'
'万美元_'
'一点'
'一样'
'一条'
'一下_'
'yo'
'worth_'
'welding_'
'weapons_'
'vote_'
'views_'
'version_'
'ven'
'unit_'
'ub'
'ua'
'try_'
'ton_'
'tional_'
'thing_'
'sur'
'strengthening_'
'stop_'
'step_'
'ssion_'
'soon_'
'sometimes_'
'simply_'
'sides_'
'series_'
'search_'
'sea_'
'round_'
'rin'
'ri'
'rest_'
'responsibility_'
'resource_'
'regulations_'
'reco'
'rec'
'ration_'
'raised_'
'qui'
'produce_'
'pres'
'practice_'
'por'
'pen'
'overall_'
'output_'
'ora'
'office_'
'nti'
'nothing_'
'nded_'
'nal_'
'multi_'
'met_'
'mer'
'mentioned_'
'medium_'
'mas'
'limited_'
'len'
'la_'
'keeping_'
'justice_'
'iti'
'issued_'
'ism_'
'io'
'initial_'
'indigenous_'
'implementing_'
'ig'
'ied_'
'id_'
'heavy_'
'heat_'
'hand'
'gar'
'fuel_'
'friend_'
'fi'
'f'
'expected_'
'eu'
'ering_'
'dro'
'documents_'
'discuss_'
'den'
'decisions_'
'cri'
'consideration_'
'connection_'
'concrete_'
'conclusions_'
'concerns_'
'con'
'components_'
'commercial_'
'charge_'
'char'
'caused_'
'cation_'
'cars_'
'build_'
'bu'
'bro'
'bon'
'black_'
'bit_'
'bearing_'
'be'
'balance_'
'au'
'ating_'
'ati'
'at'
'angle_'
'ane'
'als_'
'agencies_'
'advanced_'
'Yu'
'Wi'
'West_'
'VE'
'Therefore_'
'Th'
'TA'
'Re'
'OS'
'No'
'NA'
'Min'
'Methods_'
'LD'
'II_'
'Health_'
'He'
'Fa'
'Ex'
'Court_'
'Chairman_'
'CC'
'As'
'African_'
'According_'
'AB'
'9月2'
'99_'
'95_'
'82_'
'800'
'71'
'67_'
'5个'
'57_'
'56'
'47_'
'47'
'44'
'41'
'34'
'0日_'
'/ _'
'"._'
'：'
'（'
'鸟'
'高效'
'高于'
'首脑会议'
'页_'
'韦'
'革命'
'障碍'
'院_'
'附件_'
'阿根廷'
'阻碍'
'阐明'
'遥'
'适用的'
'进步'
'这对'
'运行_'
'达_'
'辆'
'载于'
'转化'
'轨'
'起了'
'赞同'
'资源的'
'资助'
'账户'
'财'
'诸如'
'语_'
'该组织'
'该方案'
'词_'
'访'
'记忆'
'训'
'认识'
'言_'
'观点'
'西亚'
'装置'
'装备'
'薄'
'获得了'
'肯'
'职能_'
'老板'
'网站_'
'绩效'
'练'
'纯'
'约翰'
'约束'
'系统中'
'类型的'
'类型'
'管理的'
'简化'
'答复_'
'第十'
'第8'
'第16'
'笑'
'穷'
'科特迪瓦'
'研讨会'
'着手'
'相同_'
'相反_'
'目前正在'
'目_'
'监控'
'的提'
'的手'
'的建议'
'的外'
'的名'
'的可'
'的前'
'的关键'
'的公'
'的事'
'病_'
'界定'
'电机'
'瑞'
'独立的'
'特派团的'
'灾'
'火灾'
'澳大利亚_'
'澄清'
'淡'
'泰'
'泥'
'永久'
'毫无'
'毕业'
'比_'
'步骤'
'次会议上_'
'概'
'桩'
'桌'
'来到'
'条约的'
'条件下_'
'条件下'
'本地'
'暂停'
'晚上'
'日期_'
'日期'
'无人'
'方便'
'方_'
'数据的'
'敬'
'效益'
'放弃'
'改革的'
'改善_'
'收费'
'提议_'
'提名'
'捕'
'持有'
'投资者'
'把它'
'所需的'
'戴'
'意思_'
'思考_'
'怒'
'志'
'强_'
'弹性'
'式的'
'弃'
'开发_'
'广告'
'常设'
'常规'
'已有'
'工资'
'层面'
'尽快'
'尺寸'
'尘'
'小_'
'对联合国'
'对他'
'实际上'
'它将'
'存储'
'娱乐'
'奶'
'失踪'
'大量的'
'大学_'
'复杂的'
'填'
'垃圾'
'在同一'
'在各'
'困难'
'咖啡'
'和自'
'和经济'
'和基'
'员工'
'同意_'
'合法'
'史'
'可靠'
'变成'
'发电'
'参数的'
'参加_'
'危机_'
'协调员'
'区域和'
'割'
'别的'
'刑'
'出发_'
'出去'
'出于'
'减轻'
'决议草案A_'
'决心'
'其中_'
'关注_'
'共享'
'儿童基金会'
'儿子'
'健康的'
'信任'
'保障_'
'俄罗斯联邦'
'便利'
'你能'
'你們'
'作业'
'体系的'
'低_'
'传递'
'会在'
'伙伴关系_'
'仪器'
'以及对'
'以上_'
'他说'
'仍有'
'介绍_'
'亿美元的'
'人生'
'人物'
'人权的'
'事情_'
'乳'
'书面'
'之间_'
'举行了'
'主持'
'主办'
'中心的'
'中国家'
'两名'
'不论'
'不了'
'下降_'
'上诉'
'一致'
'一年'
'∶_'
'ze'
'ys'
'woman_'
'wife_'
'wide_'
'weeks_'
'victims_'
'values_'
'v_'
'ut_'
'uri'
'understanding_'
'ud'
'though_'
'territory_'
'target_'
'tal_'
'ta'
'summer_'
'suggested_'
'sub'
'structures_'
'standing_'
'sla'
'six_'
'significantly_'
'road_'
'remote_'
'regular_'
'reached_'
'ratio_'
'rar'
'ra_'
'provision_'
'proved_'
'presents_'
'out'
'nt'
'noise_'
'negative_'
'nar'
'na_'
'measurement_'
'matters_'
'manner_'
'mal'
'maintain_'
'looking_'
'lla'
'ler_'
'leading_'
'knowledge_'
'ki'
'ized_'
'interests_'
'independent_'
'improving_'
'ie_'
'ici'
'hold_'
'har'
'gy'
'generation_'
'front_'
'fil'
'fication_'
'ffe'
'felt_'
'expert_'
'experimental_'
'ete'
'est'
'ero'
'enc'
'elements_'
'effectively_'
'domestic_'
'disc'
'dis'
'cycle_'
'cur'
'contribute_'
'contact_'
'compared_'
'committed_'
'climate_'
'characteristic_'
'centres_'
'cell_'
'ca'
'bra'
'billion_'
'ber_'
'below_'
'bel'
'banks_'
'back'
'awareness_'
'aw'
'ages_'
'aff'
'af'
'ade'
'addressed_'
'actions_'
'Un'
'Trade_'
'Tan'
'SC'
'Report_'
'Parties_'
'PE'
'Ministry_'
'March_'
'Mal'
'LI'
'Hu'
'First_'
'February_'
'Er'
'Declaration_'
'Comm'
'CT'
'CS'
'CE'
'Be'
'America_'
'Although_'
'Act_'
'88_'
'6月2'
'61'
'5日_'
'4日_'
'41_'
'38'
'1998_'
'1997年'
'1996年'
' – _'
' : _'
'？”_'
'齐'
'饰'
'额外'
'额_'
'雄'
'隔离'
'隔'
'阶'
'闻'
'门_'
'键'
'银行_'
'金融机构'
'重_'
'酶'
'酒店'
'道路'
'逼'
'通用'
'逐'
'违背'
'这将'
'这场'
'过境'
'趋势_'
'趋势'
'赤字'
'诊'
'设法'
'议定书'
'解放'
'补充_'
'虐待'
'蓝'
'英文'
'艾滋病毒'
'艘'
'自己_'
'胸'
'胆'
'联盟_'
'职位_'
'职位'
'耦合'
'而这'
'罪行'
'罪的'
'罚'
'网_'
'编辑'
'给出'
'经济发展'
'经历'
'终止'
'级别'
'级_'
'繁荣'
'紧密'
'管理和'
'简单的'
'简单_'
'签署_'
'第五'
'第三十'
'第13'
'第10'
'竞选'
'空_'
'程序的'
'移交'
'秒'
'研'
'矩'
'真实'
'看法_'
'相同的'
'的通'
'的经济'
'的研究'
'的有'
'的教'
'的政治'
'的报告'
'的总'
'的小'
'的妇女'
'的合'
'的全'
'病的'
'电力'
'珠'
'王国'
'物的'
'父'
'熔'
'焦'
'激'
'潜在'
'滚'
'混凝土'
'涂'
'海关'
'汞'
'水资源'
'氯'
'棒'
'桥'
'案文_'
'案件的'
'标_'
'枝'
'枚'
'条款_'
'条件的'
'材料的'
'杆'
'权和'
'机械'
'有限_'
'明白'
'斯特'
'文书'
'效应'
'政府间'
'攻'
'摩擦'
'援'
'插'
'推进'
'控制器'
'捐助者'
'捐助国'
'挪威'
'指南'
'报告说_'
'执行主任'
'手段'
'所提'
'所在'
'截至200'
'或有'
'或在'
'我有'
'我将'
'我在'
'成熟'
'成功的'
'成功_'
'意识_'
'意识'
'恩_'
'思维'
'心的'
'很好的'
'当我'
'强烈'
'建设和平委员会'
'建模'
'应急'
'庄'
'已_'
'巨大的'
'小组_'
'小岛屿发展中国家'
'将是'
'对这些'
'宿'
'孩子_'
'孕'
'子的'
'子女'
'婚姻'
'娜_'
'委员会还'
'委员会和'
'妇'
'天然'
'大型'
'夏天'
'复杂_'
'复合'
'声音'
'墨'
'墓'
'塑'
'地的'
'在那'
'在美国'
'在我们'
'在我'
'在他'
'在201'
'土壤'
'国外'
'响应'
'和执行'
'和可'
'吸引'
'启'
'听到'
'合理的'
'合理'
'右'
'可能_'
'发达国家'
'发生了'
'发展和'
'原子'
'压缩'
'即_'
'单元'
'单位_'
'单一'
'协议的'
'勤'
'动作'
'刷'
'制品'
'利亚'
'分析和'
'出来_'
'典型的'
'典'
'关切_'
'共有'
'共和国_'
'公正'
'免'
'光谱'
'光学'
'储存'
'债券'
'例子'
'你也'
'作为一个'
'位置'
'估'
'会上'
'份额'
'以为'
'什'
'人都'
'五年'
'五十'
'事先'
'也就是'
'也可以'
'也_'
'之_'
'主任'
'为期'
'为主'
'中国人'
'个人_'
'严重_'
'两次'
'业_'
'世界的'
'世界各地'
'与国际'
'不适'
'上周'
'》（_'
'”（_'
'×_'
'zing_'
'ys_'
'yn'
'wo'
'wi'
'vity_'
'vel'
'ures_'
'ur'
'um'
'turn_'
'tor_'
'ton'
'tive_'
'text_'
'terms_'
'technological_'
'tan'
'survey_'
'story_'
'statements_'
'sp'
'sources_'
'sis_'
'separate_'
'sense_'
'sen'
'sales_'
'sal'
'rock_'
'relation_'
'rd_'
'rd'
'rc'
'rather_'
'ral_'
'purposes_'
'published_'
'ps'
'ple'
'platform_'
'plate_'
'photo'
'ped_'
'peacekeeping_'
'path_'
'pass_'
'offices_'
'of'
'oa'
'notes_'
'ned_'
'multi'
'measuring_'
'magnetic_'
'lt_'
'lost_'
'looked_'
'longer_'
'limit_'
'let'
'leave_'
'ld'
'largest_'
'language_'
'kinds_'
'items_'
'ist_'
'involved_'
'ine'
'includes_'
'il'
'hot_'
'highest_'
'hal'
'green_'
'glass_'
'girls_'
'gg'
'gave_'
'fu'
'frequency_'
'freedom_'
'es'
'enterprises_'
'edge_'
'earlier_'
'drug_'
'dist'
'diseases_'
'dia'
'database_'
'da_'
'crucial_'
'created_'
'create_'
'court_'
'coordination_'
'concentration_'
'choice_'
'cha'
'ch'
'causes_'
'carbon_'
'cancer_'
'brought_'
'bin'
'bb'
'ard'
'ang'
'although_'
'ain_'
'act'
'aci'
'ach'
'ace_'
'`_'
'Xi_'
'Web_'
'Web'
'War'
'Vi'
'Under_'
'Tribunal_'
'Since_'
'RES'
'Q_'
'ON_'
'Network_'
'Net'
'Mon'
'Mar'
'Many_'
'Man'
'Lea'
'Kim_'
'John_'
'Japanese_'
'J_'
'ING_'
'Har'
'Fl'
'FOR_'
'Even_'
'EC'
'Director_'
'Democratic_'
'DS'
'DI'
'Cha'
'Central_'
'CR'
'CI'
'CD_'
'Ag'
'Ac'
'AL'
':'
'98'
'73'
'72_'
'68'
'52'
'2006年_'
'1号'
'1个'
'1996_'
'11月'
'," _'
'*_'
'('
'．。_'
'）、_'
'验证'
'马来西亚'
'首先_'
'领袖'
'随时'
'问题上'
'部的'
'遗传'
'透'
'适用_'
'这些_'
'还不'
'辩护'
'轧'
'足球'
'越来越多的'
'越南'
'赞扬'
'资格'
'贡献'
'负责人'
'谈到'
'调整_'
'诸'
'该方法'
'证券'
'证人'
'讲习班_'
'记得'
'让我们'
'让人'
'认知'
'誉'
'言论'
'解的'
'角色'
'观点_'
'见第'
'荷'
'苹果'
'色_'
'至关重要_'
'臂'
'腹'
'腐败'
'能的'
'职责'
'而非'
'考试'
'老师'
'置于'
'缺少'
'缝'
'纵'
'级的'
'粒'
'第9'
'第15'
'第11'
'符'
'突出'
'程度的'
'秘书长的'
'科学家'
'知道_'
'的重'
'的经'
'的生'
'的机'
'的时候'
'的日'
'的数据'
'的执行'
'的性'
'的建议_'
'的分'
'的光'
'的中'
'痛'
'症'
'病人'
'疾病'
'疫苗'
'生殖'
'玛'
'率为'
'特遣队'
'特派团_'
'版本'
'熟'
'炸'
'炭'
'灭绝'
'灭'
'港口'
'渔业'
'液体'
'涂料'
'海岸'
'海外'
'海地'
'流行'
'流程'
'洪'
'洁'
'波动'
'气体'
'民间'
'比赛_'
'每一个'
'毁'
'检查_'
'板_'
'权力_'
'机器'
'机制的'
'本条'
'本人'
'本书'
'未经'
'有机'
'月1'
'替'
'更好的'
'更大的'
'更大'
'是最'
'是个'
'时代'
'无论是'
'旋'
'教育的'
'效的'
'援助的'
'提及'
'推迟'
'接口'
'振动'
'择'
'担'
'抓'
'技术援助'
'执行情况'
'打开'
'手机'
'手册_'
'所产生的'
'房子'
'我们不'
'我也'
'成本_'
'意义'
'总干事'
'性质_'
'性别平等'
'念'
'忘'
'德国_'
'得的'
'强的'
'康'
'废除'
'店'
'序列'
'幼'
'并提供'
'并加强'
'带来了'
'工厂'
'工作者'
'山区'
'尝试'
'少_'
'寒'
'家的'
'实质性'
'实现的'
'定为'
'完整'
'委员会主席'
'妥'
'好像'
'奥地利'
'天然气'
'天气'
'大幅'
'大小'
'大会_'
'士兵'
'培训和'
'埋'
'场_'
'在这方面'
'在这些'
'在最'
'在人'
'在不'
'在一些'
'在1'
'圈'
'国际公约_'
'国在'
'因为这'
'四届会议'
'嘉'
'喜欢的'
'唱'
'响'
'和生'
'和加强'
'和中'
'周围'
'名的'
'同时也'
'可用于'
'另外'
'变_'
'取代'
'原子能机构'
'十二'
'加上'
'前面'
'到一'
'别人'
'利率'
'刘'
'列出'
'凭'
'册'
'其中的'
'其_'
'共计'
'全力'
'光_'
'先前'
'儿_'
'做好'
'修正案'
'信息和'
'供应商'
'但它'
'似'
'会议上'
'会让'
'伐'
'任择议定书_'
'他还'
'人权委员会'
'人是'
'人和'
'产品的'
'亡'
'于19'
'争端'
'也在'
'乌干达'
'之下_'
'主要的'
'主权'
'为此'
'个国家'
'两年'
'与联合国'
'与各'
'不足_'
'不应'
'不久'
'七届会议'
'一套'
'一个重要'
'wise_'
'whose_'
'wer'
'ward_'
'video_'
'ute'
'ura'
'un_'
'ture_'
'transmission_'
'transition_'
'town_'
'tools_'
'tic'
'tell_'
'tan_'
'supports_'
'sun'
'suitable_'
'sts_'
'ster'
'static_'
'stable_'
'spread_'
'spirit_'
'spin'
'solutions_'
'sol'
'similar_'
'shown_'
'short'
'sho'
'setting_'
'senior_'
'selection_'
'secondary_'
'schools_'
'sca'
'sat'
'ress_'
'requests_'
'registration_'
'recognition_'
'reading_'
'pursuant_'
'pull'
'pt'
'professional_'
'probably_'
'prefer'
'population_'
'pig'
'pha'
'pers'
'parameters_'
'outcome_'
'ot_'
'ot'
'os_'
'omi'
'older_'
'ol'
'ok'
'oi'
'ns'
'non'
'news_'
'net_'
'negotiations_'
'nation_'
'music_'
'modern_'
'mm_'
'mm'
'minutes_'
'mid'
'mechanisms_'
'mail_'
'lt'
'location_'
'll'
'live'
'likely_'
'leaders_'
'lar'
'lam'
'kin'
'jo'
'ject'
'ional_'
'introduces_'
'intended_'
'input_'
'informed_'
'individual_'
'hor'
'head'
'hands_'
'girl_'
'geo'
'ged_'
'ge'
'ft_'
'formed_'
'film_'
'fer'
'fear_'
'experts_'
'experiments_'
'et'
'equality_'
'equal_'
'end'
'ement_'
'ef'
'dy'
'dri'
'dom'
'discussion_'
'directly_'
'dialogue_'
'detection_'
'depth_'
'delivery_'
'cut'
'cul'
'cover_'
'cou'
'costs_'
'college_'
'cia'
'center_'
'cat'
'cannot_'
'calls_'
'burn'
'bridge_'
'bri'
'board_'
'ball_'
'ar'
'anc'
'am'
'ain'
'adoption_'
'adjust'
'Wa'
'Val'
'Uni'
'Trans'
'The'
'Sur'
'Ro'
'Res'
'Rec'
'Pre'
'Model_'
'Let_'
'LO'
'Ku'
'Institute_'
'IN'
'HA'
'Germany_'
'Form'
'Fo'
'Fin'
'ER_'
'Dep'
'Cu'
'Conclusion_'
'Bur'
'Bank_'
'Advisory_'
'AD'
'88'
'85'
'77_'
'65'
'5月1'
'57'
'4个'
'400'
'2日_'
'2个'
'1月1'
'1995年'
'1991年'
'199'
'19'
');_'
' [_'
'； _'
'：(_'
'鼓'
'鲜'
'髓'
'马拉'
'飞机_'
'项下'
'非_'
'雾'
'隆'
'陷'
'错误_'
'铸'
'鉴定'
'道主义'
'遇到的'
'途'
'选举_'
'迫使'
'这里'
'这种情况'
'运作_'
'过了'
'辩'
'辞'
'转变'
'车的'
'超越'
'走_'
'贸易法委员会'
'贫穷'
'豆'
'豁免'
'该项目'
'证实'
'证书'
'论述了'
'训练_'
'计算_'
'警方'
'說_'
'要素'
'西_'
'被视为'
'补救'
'蔬菜'
'药品'
'船舶'
'舒'
'脏'
'脆弱'
'胜利'
'胎'
'肿瘤'
'肺'
'肠'
'聪明'
'联盟的'
'联合会'
'而受'
'美元的'
'维修'
'维也纳'
'继承'
'经济和'
'精确'
'米_'
'管_'
'简要'
'等于'
'第二次'
'第二个'
'立的'
'稿'
'稳定的'
'种类'
'私营'
'离子'
'神经网络'
'碱'
'确立'
'研讨会_'
'短期'
'看起来'
'盛'
'皮肤'
'的首'
'的调查'
'的设计'
'的规'
'的精'
'的研究_'
'的特'
'的机会_'
'的好'
'的多'
'的各项'
'的制'
'的几'
'的决定'
'的具体'
'的其他'
'的修'
'的信'
'的作用_'
'的代表'
'的交'
'疾病_'
'疲劳'
'疑'
'當'
'生效'
'瑟'
'现_'
'特别委员会'
'物流'
'然后_'
'烦'
'炼'
'激励'
'游戏'
'消'
'海盗'
'浅'
'津贴'
'洗钱'
'泡'
'死亡率'
'款的'
'橡胶'
'模具'
'梁'
'条款草案'
'权利和'
'机理'
'有点'
'有2'
'月的'
'最优'
'更好地'
'暴力行为'
'暴力_'
'是这'
'昨天'
'日常'
'日内瓦'
'方面所'
'新_'
'料_'
'整理'
'数额'
'敢'
'改造'
'改为'
'携带'
'提出了一种'
'提交了'
'推行'
'接受的'
'据称'
'指示'
'指定的'
'指出了'
'挂'
'持续的'
'拼'
'拜'
'拉丁美洲和加勒比'
'押'
'承'
'批评'
'扫描'
'手术'
'所作'
'所以_'
'房屋'
'截至'
'我现在'
'我很'
'我们要'
'我们有'
'我们希望'
'成分'
'懂'
'感受'
'怪'
'性质'
'快_'
'必然'
'很容易'
'很可能'
'形象'
'引入'
'建立_'
'库存'
'幕'
'已被'
'己'
'差异'
'工作人员的'
'尼_'
'就这'
'就在'
'尤其是在'
'尊'
'将被'
'将来'
'将有助于'
'对这'
'对抗'
'宾'
'容量'
'室_'
'宣称'
'实验研究_'
'实时'
'它还'
'它在'
'学院'
'学的'
'学习_'
'存在着'
'姐'
'夺'
'失业'
'大于'
'多种'
'声明_'
'埃及'
'地质'
'地下'
'在那里'
'国籍'
'国内法'
'因特网'
'因为它'
'因为他们'
'回_'
'喜'
'咨询_'
'和阿'
'和资'
'和维'
'和服务'
'和最'
'和妇女'
'和国家'
'和加'
'和不'
'吞'
'司法_'
'可能性_'
'可是'
'叛'
'发行'
'发生_'
'发动'
'发_'
'反馈'
'印象'
'南部'
'单方面'
'华盛顿'
'匹配'
'加拿大'
'加大'
'剩余'
'剥夺'
'削减'
'剂量'
'到200'
'判决'
'分钟'
'出现_'
'几年'
'减少了'
'冷却'
'其工作'
'关闭'
'六十'
'克斯'
'儿童权利'
'像_'
'倾'
'信贷'
'信息和通信技术'
'保护的'
'保护和'
'供资'
'作为一'
'但不'
'优先事项_'
'伏'
'仿'
'任职'
'以使'
'代表的'
'他对'
'他人'
'他一'
'从199'
'仅仅'
'人数_'
'人人'
'产权'
'交的'
'交付'
'于一'
'事业'
'了这'
'习近平'
'九届会议'
'义务的'
'举措'
'为此_'
'为3'
'临'
'丰富的'
'中期'
'中提'
'中对'
'丧失'
'丙'
'世界银行'
'不再'
'不_'
'下面'
'下去_'
'三维'
'三年'
'一词'
'一个人'
'。」_'
'……_'
'”, _'
'ye'
'window_'
'widely_'
'whe'
'wee'
'website_'
'wan'
'voice_'
'user_'
'useful_'
'urgent_'
'understand_'
'ula'
'ui'
'tter'
'tried_'
'travel_'
'trac'
'tit'
'thro'
'swa'
'supporting_'
'successful_'
'studies_'
'strategic_'
'sti'
'ssi'
'speaking_'
'someone_'
'seven_'
'seemed_'
'seek_'
'sectors_'
'secret'
'sec'
'scr'
'scope_'
'scen'
'saw_'
'safe_'
'rt_'
'rse'
'researchers_'
'remain_'
'relating_'
'rel'
'regarding_'
'refugees_'
'record_'
'raise_'
'radio_'
'quantity_'
'pur'
'produced_'
'poor_'
'po'
'patients_'
'oy'
'original_'
'oriented_'
'or'
'oo'
'ongoing_'
'oli'
'object_'
'numbers_'
'net'
'my'
'modified_'
'mis'
'message_'
'medical_'
'measure_'
'mba'
'matrix_'
'maintenance_'
'ly'
'loo'
'logical_'
'lit'
'length_'
'learning_'
'learn_'
'ku'
'kes_'
'ker_'
'ju'
'ist'
'ish_'
'insurance_'
'injury_'
'indicated_'
'impa'
'ima'
'ier_'
'identified_'
'ideas_'
'ic'
'ians_'
'hoo'
'hol'
'gt'
'gon'
'gives_'
'ger_'
'ger'
'friends_'
'fra'
'fort'
'formation_'
'fli'
'fields_'
'feeling_'
'eyes_'
'export_'
'expe'
'equation_'
'epi'
'enter'
'eng'
'ene'
'electron_'
'eight_'
'ect'
'ec'
'eat_'
'ear'
'dra'
'double_'
'don'
'density_'
'debt_'
'dar'
'cu'
'cos'
'cor'
'cop'
'contributions_'
'consultations_'
'conference_'
'conce'
'component_'
'communications_'
'committee_'
'comments_'
'comm'
'color_'
'coa'
'cm_'
'cli'
'chief_'
'character_'
'cer'
'casting_'
'capital_'
'cally_'
'cable_'
'ca_'
'bus'
'break'
'box_'
'border_'
'ble'
'beyond_'
'became_'
'bea'
'avoid_'
'automatic_'
'attack_'
'att'
'arc'
'appears_'
'anything_'
'anti'
'annual_'
'aim_'
'ah_'
'affairs_'
'WA'
'Ve'
'US'
'TO'
'Support_'
'St'
'Sal'
'RI'
'Par'
'Panel_'
'Palestinian_'
'PC'
'OP'
'Not'
'MS_'
'MD'
'MC'
'Las'
'LS'
'Ki'
'Inc'
'IL_'
'ID'
'Global_'
'GA'
'Foreign_'
'Executive_'
'Don_'
'Disc'
'Cor'
'Conc'
'Cla'
'City_'
'Canada_'
'Bro'
'Bea'
'Bar'
': "_'
'92_'
'7月1'
'77'
'6月30日'
'6个月'
'63'
'43'
'30日'
'300_'
'200_'
'1月2'
'08'
'.　_'
', “_'
'): _'
'%, _'
' ， _'
' ;_'
' " _'
'）；_'
'％'
'_'
'麦克'
'鱼类'
'高温'
'骑'
'验_'
'驾驶'
'饮食'
'饮'
'风格'
'题'
'革'
'面向'
'雕'
'雇主'
'隧道'
'阶段的'
'铺'
'铀'
'钉'
'重申_'
'采取行动'
'醇'
'酸_'
'酯'
'配合'
'都能'
'都应'
'邦'
'通过的_'
'迹'
'迟'
'进而'
'进_'
'这些问题'
'这些国家'
'这个问题'
'还应'
'返'
'过度'
'迁'
'达的'
'达1'
'辨'
'辅'
'载列'
'软件_'
'距'
'足以'
'超声'
'赶'
'资金的'
'贷'
'贩卖'
'质量的'
'质量_'
'负责_'
'豪'
'调度'
'说的'
'该部'
'该地区'
'该_'
'评论_'
'证明了'
'访问_'
'论_'
'让你'
'订正'
'规定了'
'西非'
'装置的'
'被告'
'衬'
'表格'
'融入'
'融'
'虚'
'薪'
'董事会'
'莉'
'荡'
'茶'
'芳'
'舱'
'至于'
'膝'
'能在'
'职等'
'而言'
'考察'
'老人'
'罪行_'
'罪_'
'罗马'
'缴付'
'编程'
'编写的'
'绘'
'纤'
'红色'
'累'
'管道'
'管理系统'
'签署了'
'第七'
'第20'
'第19'
'第1'
'第'
'突尼斯'
'究'
'称为'
'秀'
'票_'
'社会经济'
'社会主义'
'示范'
'磷'
'磋商_'
'硬件'
'矿物'
'着一'
'相似'
'盗'
'监禁'
'的高'
'的预'
'的重要性_'
'的适'
'的表'
'的行为'
'的组织'
'的男'
'的有关'
'的无'
'的方法_'
'的影响'
'的工'
'的实'
'的定'
'的基'
'的各'
'的发展'
'的区域'
'的关系'
'的做法'
'的作'
'的传'
'的会议'
'的上'
'的一些'
'疗'
'疏'
'界面'
'界_'
'申'
'由此'
'由一'
'生活的'
'生态系统'
'生产_'
'瓶'
'理想'
'理事会第'
'球员'
'现实_'
'环境和'
'物质_'
'片_'
'熟悉'
'為'
'清理'
'液压'
'浸'
'测量_'
'流离失所'
'法案_'
'池'
'段的'
'武装部队'
'欲'
'次级方案'
'梯'
'根据其'
'柱'
'条文'
'条所'
'权威'
'杀害'
'机构和'
'机器人'
'期望'
'有效地'
'有很多'
'有什么'
'最近_'
'更有'
'晶体'
'是由'
'是人'
'明显的'
'明天'
'早上'
'无疑'
'无关'
'旗'
'旁'
'方的'
'方法和'
'方便_'
'斯坦'
'教育部'
'敏感'
'政府组织'
'支持的'
'提醒'
'提升'
'提供咨询'
'接着'
'损害_'
'挑'
'指南_'
'报告和'
'护理'
'抛'
'抗议'
'找出'
'扮演'
'扣'
'所需经费'
'所有国家'
'所做的'
'截'
'或国'
'戒'
'我知道'
'我对'
'我只'
'我们会'
'成长'
'成绩'
'慢'
'情绪'
'恰'
'恢复_'
'恋'
'性暴力'
'得到_'
'後'
'征聘'
'形成的'
'当作'
'当事人'
'强调了'
'弟'
'引发'
'建设_'
'应由'
'并将其'
'年前'
'干旱'
'带有'
'帐户'
'师_'
'巴基斯坦'
'工艺_'
'工作队'
'履行其'
'层_'
'局部'
'就能'
'少数群体'
'尊重_'
'将继续'
'将不'
'对本'
'对人'
'对不'
'对一'
'察'
'室内'
'审议了'
'实例'
'完善'
'安保'
'学校_'
'学会'
'孙'
'子里'
'娜'
'委员会成员'
'委员会建议'
'妹'
'如_'
'奴'
'契'
'失效'
'夫_'
'太阳能'
'太阳'
'天的'
'大鼠'
'大大'
'复制'
'声音_'
'塞尔维亚'
'基金的'
'基本的'
'基层'
'地带'
'在马'
'在纽约'
'在有'
'在执行'
'在所有'
'在实'
'在你'
'在一起_'
'图的'
'国际贸易'
'国际人权'
'国家和'
'国家一级'
'国会'
'因_'
'回归'
'回到'
'嘴'
'喀'
'哦_'
'品牌'
'和预'
'和有'
'和更'
'和各'
'和保护'
'和保'
'和2'
'呈现'
'吹'
'各类'
'司机'
'号决议的'
'可行的'
'可持续发展的'
'可持续发展_'
'可在'
'另'
'变动'
'发言者'
'参数_'
'厚度'
'厌'
'卸'
'午'
'北部'
'包容'
'包_'
'劳工'
'劳动力'
'助理'
'动员'
'加拿大_'
'加入_'
'办公'
'剖'
'前提'
'前后'
'制造商'
'制约'
'利用_'
'利比亚'
'则是'
'则_'
'分配_'
'分离'
'分为'
'凸'
'决定的'
'冲突后'
'其实'
'关税'
'六届会议'
'公布'
'入境'
'光栅'
'傻'
'做的'
'保证_'
'你在'
'作品'
'佐'
'但是我'
'但他'
'伦敦'
'传动'
'会议室'
'会员国的'
'优点_'
'任期'
'任务的'
'价_'
'件事'
'以及其他'
'以及一'
'以加强'
'他所'
'他就'
'从中'
'仍然是'
'人不'
'亮'
'亚_'
'二次'
'二届会议'
'事实上'
'事实_'
'了解_'
'了几'
'乙'
'之一'
'主流'
'主席团'
'主导'
'主_'
'为在'
'为一个'
'为一'
'为5'
'为2'
'个问题'
'世界会议'
'专门机构'
'不容忍'
'不妨'
'一部分'
'一类'
'一天'
'一体化'
'㈡_'
'「_'
'、 _'
'――_'
'é'
'zh'
'ym'
'yl'
'worked_'
'wn_'
'wing_'
'wed'
'weather_'
'wea'
'waves_'
'wall_'
'vis'
'vic'
'ver'
'variety_'
'val_'
'val'
'users_'
'ury_'
'unt'
'undertaken_'
'under'
'und'
'uc'
'tures_'
'troops_'
'throughout_'
'tch_'
'syn'
'suit_'
'stri'
'specified_'
'sleep_'
'sk'
'sit'
'sign_'
'serve_'
'sensitive_'
'send_'
'sel'
'seem_'
'scheme_'
'save_'
'run'
'rou'
'rma'
'rm'
'rid'
'require_'
'religious_'
'regions_'
'regarded_'
'recovery_'
'ready_'
'reaction_'
'raising_'
'que_'
'pti'
'plants_'
'pit'
'pi'
'pet'
'personal_'
'pat'
'partnerships_'
'participation_'
'pal'
'ou'
'organized_'
'optical_'
'operating_'
'oma'
'ological_'
'ole'
'oe'
'objective_'
'nte'
'nsi'
'nel_'
'nearly_'
'nch'
'nce'
'nc'
'mol_'
'mill'
'metr'
'ment'
'med_'
'mb'
'lon'
'logic_'
'lines_'
'linear_'
'lie'
'lem'
'latest_'
'kl'
'killing_'
'inter_'
'instead_'
'ins_'
'inf'
'industrial_'
'indi'
'independence_'
'implemented_'
'im'
'ice_'
'hydro'
'hone'
'highly_'
'hen'
'hed_'
'happy_'
'growing_'
'graphy_'
'ght'
'game_'
'gal'
'follows_'
'focused_'
'fle'
'finance_'
'fin'
'fat'
'fact'
'external_'
'extent_'
'exist_'
'exi'
'examination_'
'every'
'etic_'
'eti'
'estimated_'
'else_'
'eg'
'educational_'
'draw_'
'dle_'
'dimensional_'
'diff'
'didn_'
'developments_'
'detect'
'described_'
'demo'
'deep_'
'debate_'
'dd'
'dated_'
'ctor'
'ct'
'credit_'
'covered_'
'couple_'
'consum'
'constant_'
'colo'
'clo'
'cle'
'citizens_'
'circuit_'
'chu'
'changing_'
'certainly_'
'cell'
'cap'
'bur'
'bol'
'benefits_'
'benefit_'
'ben'
'behavior_'
'average_'
'authority_'
'atory_'
'ath'
'arms_'
'apply_'
'app'
'ano'
'ann'
'and'
'along_'
'allowed_'
'achievement_'
'achieved_'
'Your_'
'Work'
'Vo'
'VA'
'Unit_'
'Three_'
'Those_'
'Their_'
'Taiwan_'
'TV_'
'TE_'
'TE'
'Sub'
'Sr'
'Sam'
'SU'
'Rep'
'Prevention_'
'Pacific_'
'PH'
'Out'
'Of_'
'OL'
'Non_'
'NS'
'Millennium_'
'MR'
'Kingdom_'
'India_'
'Hon'
'Here_'
'Han'
'HI'
'Gro'
'Google_'
'Geneva_'
'GE'
'FL'
'Experimental_'
'Exc'
'Criminal_'
'Co_'
'Cli'
'Che'
'Char'
'CON'
'British_'
'Ben'
'Bel'
'Authority_'
'Australia_'
'August_'
'At'
'Asian_'
'App'
'Another_'
'Also_'
'Agreement_'
'Action_'
'Acc'
'98_'
'8个'
'89_'
'87'
'86_'
'84_'
'76_'
'600_'
'5月2'
'54'
'500_'
'4月2'
'4号'
'3月2'
'3月1'
'2条'
'1995_'
'194'
'180'
'10年'
'105_'
'101'
'04'
'03'
'000美元'
'. [_'
'" '
' 》 _'
'％，_'
'％。_'
'马里'
'马_'
'颜色'
'领事'
'预防_'
'预算_'
'非洲联盟'
'非正规'
'需要在'
'需求的'
'雇用'
'集团_'
'附近的'
'阁下'
'铭记'
'铅'
'钻石'
'金额'
'酒_'
'邻国'
'那时'
'速率'
'速度_'
'這'
'适'
'进程中'
'这是我'
'这是一'
'这就是'
'这家'
'还要'
'近期'
'近年来_'
'近年来'
'过滤'
'达尔富尔'
'边缘'
'辱'
'辩论_'
'转型'
'踪'
'路由'
'超过1'
'起到'
'赤'
'赢'
'赖'
'资料的'
'货物_'
'账户_'
'账'
'败'
'负有'
'调解'
'说明了'
'证据'
'设计中'
'设立的'
'设施的'
'设想'
'设定'
'论坛_'
'议程项目1'
'议的'
'讨论的'
'计的'
'解除'
'解释_'
'解决这'
'规范_'
'规约_'
'规划署'
'观众'
'要素_'
'要的'
'被称为'
'表演'
'虎'
'藉'
'落实_'
'荒'
'英语_'
'苏联'
'节目'
'节点'
'船只'
'自主'
'膨胀'
'能力和'
'胺'
'耶稣'
'耶和华'
'耳'
'者和'
'群体_'
'美利坚合众国'
'罗马尼亚'
'缺陷'
'缔'
'维持和平行动'
'续'
'继'
'统治'
'绝不'
'给了'
'线的'
'索赔人'
'素_'
'粮食安全'
'类别'
'策略_'
'第200'
'第12'
'立法_'
'窗口'
'空间_'
'税_'
'移植'
'秘密'
'秘书长_'
'祝'
'社区_'
'社会和'
'示威'
'砂'
'相应'
'监督厅'
'的进'
'的运'
'的财'
'的计算'
'的能力_'
'的职'
'的生活'
'的理论'
'的环境'
'的物'
'的活动_'
'的水'
'的民'
'的比'
'的案件'
'的时间'
'的微'
'的应用_'
'的对'
'的女'
'的基本'
'的和'
'的各种'
'的单'
'的努力'
'的分析'
'的决议草案_'
'的内'
'的儿童'
'的信息'
'的3'
'痕'
'病毒_'
'疟疾'
'用一'
'生活在'
'生效_'
'瑞典'
'理论的'
'理由_'
'班_'
'猜'
'猛'
'独立_'
'状态_'
'物品_'
'物体'
'爱_'
'燃烧'
'照片'
'炮'
'火箭'
'漠'
'游戏_'
'游客'
'温度_'
'渡'
'渔'
'涡轮'
'涉'
'消费者'
'消极'
'派遣'
'派团'
'注意的'
'波兰'
'法在'
'沙特阿拉伯'
'民事'
'每月'
'残疾人的'
'死刑'
'此次'
'正义'
'欢迎_'
'次数'
'模式的'
'槽'
'概述'
'棉'
'梦想'
'框架的'
'树脂'
'染'
'果_'
'析_'
'构_'
'机场'
'未来的'
'期限'
'有较'
'有1'
'月2'
'暂时'
'智慧'
'晨'
'是我'
'是为了'
'映'
'日子'
'族裔'
'方式的'
'斑'
'文件的'
'政治_'
'改进_'
'支援'
'摘要'
'提案_'
'提案'
'描述了'
'掉_'
'挤'
'挡'
'披露'
'护士'
'把这'
'执行委员会'
'所述_'
'战争_'
'我希望'
'感觉_'
'意大利_'
'想法'
'惩罚_'
'惩'
'情_'
'悲'
'恼'
'态度'
'得到的'
'待遇'
'影响到'
'形势'
'当代'
'弯'
'开支'
'开关'
'广播'
'广大'
'并由'
'并有'
'平衡_'
'平的'
'干涉'
'干扰'
'干事_'
'带_'
'布隆迪'
'布尔'
'巴黎'
'巴西'
'巴勒斯坦人民'
'已在'
'差距_'
'巩固'
'巧'
'左右_'
'工作组的'
'工_'
'州_'
'岸'
'展_'
'届会'
'屈'
'就可以'
'少数民族'
'小说'
'尊严'
'对照'
'对待'
'对外'
'对他们'
'容器'
'审查和'
'实施的'
'宏观'
'它不'
'学术'
'学家'
'姓'
'妇女权利'
'奈'
'太多'
'大力'
'大会第'
'多样化'
'多么'
'外交部'
'备选'
'处的'
'境内流离失所者'
'城镇'
'坎'
'地上'
'在这里'
'在许多'
'在教'
'在提'
'在安'
'在基'
'在内'
'在他们'
'在世界'
'在不同'
'国和'
'困境'
'团体_'
'回来'
'器件'
'和重'
'和解'
'和管理'
'和新'
'和我'
'和开'
'和平与'
'和工'
'和可持续'
'和协'
'和A'
'员的'
'名字'
'名单'
'同的'
'同样_'
'合国'
'各区域'
'句_'
'受理'
'发送'
'发动机'
'友好'
'县'
'原来'
'卡车'
'卡塔尔'
'卡_'
'卜'
'博士'
'南南合作'
'单_'
'协助_'
'协作_'
'升_'
'十年_'
'十六'
'区分'
'劳工组织'
'努'
'加沙'
'办事处_'
'前景_'
'刑事司法'
'分庭'
'凉'
'决议草案_'
'冠'
'其他_'
'关心'
'共识_'
'共同体'
'公布_'
'克拉'
'元素'
'像是'
'值的'
'债权'
'倡导'
'信托基金_'
'保留_'
'促成'
'侦'
'依靠'
'供电'
'住宅'
'估算'
'份_'
'以此'
'以一'
'从这'
'仍在'
'今天_'
'人群'
'人权事务'
'交叉'
'交互'
'事实上_'
'争端_'
'了这个'
'了一些'
'也能'
'乘'
'之下'
'之一是'
'义_'
'么_'
'主义_'
'为执行'
'为使'
'为0_'
'串'
'个别'
'世界上'
'专业人员'
'与大'
'与会'
'不愿'
'不太'
'不合'
'不出'
'上面'
'三种'
'三次'
'一道'
'一般性'
'一致性'
'一张'
'一国'
'一切形式'
'一件'
'一些人'
'。 '
'…'
'za_'
'yi'
'yc'
'writing_'
'wind_'
'west_'
'wear_'
'we'
'wait_'
'vol'
'ust'
'usi'
'us'
'urban_'
'ult'
'true_'
'tree_'
'trea'
'testing_'
'teacher_'
'tation_'
'tain'
'sweet_'
'sustain'
'stu'
'stre'
'storage_'
'statistical_'
'st'
'sse'
'spa'
'sovereignty_'
'sou'
'smaller_'
'ske'
'sized_'
'sin'
'she'
'shar'
'shape_'
'sexual_'
'sex_'
'sets_'
'sens'
'science_'
'rural_'
'ron'
'resulted_'
'resolutions_'
'resistance_'
'resi'
'requires_'
'requirement_'
'reform_'
'qua'
'promotion_'
'proliferation_'
'press_'
'preparation_'
'powerful_'
'post'
'piece_'
'picture_'
'phone_'
'pho'
'ph'
'peri'
'perhaps_'
'perfect_'
'participate_'
'parents_'
'panel_'
'page_'
'ow_'
'opportunities_'
'online_'
'ona'
'ology_'
'og'
'od_'
'observed_'
'nonlinear_'
'nin'
'neg'
'names_'
'moving_'
'mono'
'mit'
'min'
'mechanical_'
'matic_'
'mani'
'lose_'
'log'
'lives_'
'light'
'lic'
'leg'
'laser_'
'larger_'
'land'
'joint'
'ita'
'ip'
'investigated_'
'interference_'
'integration_'
'inside_'
'ini'
'ines_'
'increasingly_'
'increases_'
'inco'
'import'
'ile_'
'ible_'
'hy'
'hun'
'hopes_'
'hom'
'hid'
'healthy_'
'hard'
'guidance_'
'grati'
'grade_'
'governance_'
'goes_'
'giving_'
'fur'
'funds_'
'ft'
'fresh_'
'fourth_'
'foot'
'fire'
'finally_'
'file_'
'fie'
'ff_'
'feet_'
'features_'
'facing_'
'facilities_'
'express_'
'exp'
'existence_'
'exceed'
'evidence_'
'ert'
'erat'
'era'
'enti'
'engine_'
'employ'
'emergency_'
'east_'
'disco'
'dio'
'des_'
'ders_'
'dent'
'deliver'
'dance_'
'custom'
'curve_'
'cti'
'cry'
'cru'
'cross_'
'creation_'
'contribution_'
'contra'
'contin'
'construct'
'confirmed_'
'conferences_'
'conf'
'conclusion_'
'completed_'
'communities_'
'commitment_'
'collection_'
'collaboration_'
'col'
'cke'
'cit'
'changed_'
'carry_'
'card_'
'buy_'
'built_'
'books_'
'bly_'
'bid'
'ay'
'aut'
'attempt'
'attached_'
'ato'
'association_'
'articles_'
'appe'
'annex_'
'ality_'
'ale'
'affect_'
'actual_'
'accident_'
']'
'\u(_'
'Za'
'Win'
'Western_'
'UD'
'Tur'
'Thursday_'
'TH'
'Sy'
'Such_'
'Structure_'
'Sho'
'Sec'
'SM'
'River_'
'Rapporteur_'
'RP'
'Other_'
'Nor'
'NI'
'NE'
'NC'
'Mus'
'Mission_'
'Max'
'Mad'
'Lan'
'Justice_'
'Israeli_'
'Internet_'
'Inf'
'IV'
'ISO'
'IM'
'Hea'
'HS'
'HK'
'Gi'
'Geo'
'Friday_'
'Fra'
'Fir'
'ED'
'Dr_'
'Digital_'
'Del'
'DNA_'
'Constitution_'
'Commissioner_'
'Ci'
'CO_'
'CD'
'Air_'
'AM'
'AIDS_'
'96_'
'91'
'8日_'
'84'
'81'
'76'
'72'
'6日_'
'6个'
'69'
'62'
'59'
'2月_'
'2012_'
'2004年1'
'2003年1'
'1994年'
'134'
'02'
'., _'
'. (_'
'----_'
','
')：_'
'))'
' 《 _'
'黎'
'高级别会议'
'高级专员'
'高等'
'高校'
'高压'
'骚扰'
'驱'
'马尔'
'首席'
'食物_'
'风_'
'颇'
'领导人_'
'领取'
'页面'
'音_'
'鞋'
'静态'
'雨_'
'集_'
'陶瓷'
'限_'
'降低_'
'长期的'
'钱的'
'采取_'
'都_'
'部分的'
'造成了'
'选择的'
'违'
'远远'
'这项工作'
'这可'
'这也'
'还提'
'还包括'
'运_'
'迈'
'达成的'
'辖'
'轰'
'路径'
'赞赏'
'赞助'
'赚'
'赌'
'贸'
'贯'
'贩运人口'
'负荷'
'象_'
'请_'
'该报告'
'询问'
'诚'
'词汇'
'设计和'
'设立了'
'论述'
'记录的'
'认捐'
'认可'
'解雇'
'解决的'
'角色_'
'角_'
'视_'
'规划和'
'见A_'
'要_'
'裁谈会'
'袋'
'街头'
'行政管理'
'螺旋'
'蒙古'
'葬'
'莎'
'荷兰'
'荒漠化'
'茎'
'自适应'
'自身'
'自从'
'腺'
'背景_'
'股市'
'职_'
'聊'
'而被'
'翼'
'美丽'
'罚款_'
'缔约国的'
'缔约国应'
'缅甸'
'绿'
'继续进行'
'继续_'
'统计数据'
'经济学'
'经济体'
'经常预算'
'组织在'
'组的'
'组成部分_'
'纪念'
'约1'
'系数_'
'管理人员'
'第三次'
'第七条'
'第24'
'第22'
'章程'
'立法和'
'窃'
'空缺'
'程序和'
'稀'
'秩序'
'秘书处_'
'秘书_'
'科学和技术'
'科学_'
'种群'
'碘'
'破裂'
'破坏_'
'研究和'
'矩阵'
'知识产权'
'目的探讨'
'盈'
'的质量'
'的证'
'的解'
'的观点'
'的联合国'
'的立法'
'的空'
'的目标_'
'的生产'
'的海'
'的气'
'的条'
'的方式_'
'的政策'
'的强'
'的家'
'的天'
'的基础上_'
'的回'
'的后'
'的努力_'
'的出'
'的关'
'的体'
'的任'
'的人权'
'的专家'
'的2'
'百万'
'白宫'
'登记_'
'留在'
'电磁'
'由_'
'用途'
'用户_'
'用了'
'生物学'
'生意'
'甚'
'琴'
'理解_'
'理性'
'理念'
'现在我'
'独特的'
'犹'
'犯罪_'
'特性的'
'特定的'
'物资'
'牢'
'爱的'
'爬'
'爆'
'照顾'
'烂'
'火车'
'激素'
'潮'
'潜在的'
'演员'
'漏'
'滞'
'溶液'
'湾'
'渣'
'清洁'
'清晰'
'润'
'消息_'
'浆'
'津'
'法院_'
'没有任何'
'没有人'
'每天都'
'每个人都'
'殖民'
'死_'
'次会议上'
'椎'
'检测_'
'检察官'
'桥梁'
'案的'
'框架内_'
'桂'
'格鲁吉亚'
'核查'
'标题'
'构成的'
'条规定'
'条的'
'本来'
'本文从'
'本发明'
'未决'
'有限'
'有效性_'
'有可能'
'有了'
'月1日'
'最多'
'曾在'
'更有效'
'晓'
'显微'
'显得'
'是非'
'是要'
'是有'
'是不是'
'是一项'
'明显_'
'时期的'
'日在'
'方程_'
'方案预算'
'新加坡'
'文档'
'文明'
'文字'
'文化的'
'文件中'
'教育和'
'教练'
'敌'
'效应_'
'攻击_'
'收购'
'支助的'
'操'
'撤销'
'摊款'
'搜'
'提起'
'推荐'
'控制系统'
'控制方'
'接触_'
'捐款'
'捐助方'
'振兴'
'指标的'
'指挥'
'指导_'
'拥有的'
'拥'
'招聘'
'拒'
'拍摄'
'抢'
'把我'
'技能'
'技术转让'
'技'
'找到了'
'执行的'
'执行情况_'
'打印'
'所规定的'
'所有_'
'所列'
'房地产'
'房_'
'截面'
'战略的'
'或其'
'我们还'
'我们已经'
'成的'
'想_'
'息_'
'恐怖分子'
'念_'
'忆'
'微型'
'很少'
'很大'
'当选'
'当然_'
'当然'
'当局的'
'强有力的'
'强制'
'弧'
'引起了'
'引用'
'引擎'
'开设'
'开展了'
'开会'
'并请'
'并可'
'并发'
'带着'
'帐'
'币'
'已经成为'
'工作计划'
'工作方'
'峡'
'山_'
'属性'
'展望'
'局势的'
'尽量'
'尽管如此_'
'尼加拉瓜'
'就要'
'小学'
'将这'
'对我们'
'对实'
'容忍'
'宪'
'实质'
'定量'
'官员_'
'官_'
'安全性'
'它就'
'学院_'
'委托'
'妇女和儿童'
'如果我'
'女儿'
'大气'
'多媒体'
'声称'
'壤'
'堪'
'城_'
'埃及_'
'在自'
'在相'
'在报告'
'在巴'
'在家'
'在审'
'在多'
'在外'
'在中'
'在下'
'国际商'
'国际和平与安全'
'国防部'
'国家安全'
'因此在'
'唯一的'
'唐'
'哲学'
'品质'
'和高'
'和非政府组织'
'和部'
'和调'
'和美国'
'和性'
'和平的'
'和平与安全'
'和巴'
'和多'
'和在'
'和前'
'和使用'
'和4'
'味_'
'周末'
'员国'
'告诉我'
'告诉你'
'告_'
'否认'
'向各'
'后面'
'后续'
'名叫'
'同行'
'同步'
'合适的'
'合作和'
'各部'
'司法部'
'司_'
'可能有'
'句话'
'受影响'
'受害人'
'又有'
'原因是'
'卷_'
'危险_'
'卧'
'单纯'
'协同'
'十一'
'医院_'
'区别'
'动的'
'加纳'
'加强对'
'副秘书长'
'剪'
'剥削'
'剂的'
'刺'
'制的'
'制定和'
'制冷'
'到这'
'判决_'
'列_'
'切割'
'切_'
'分段'
'分析的'
'分布_'
'分区域'
'几何'
'准备_'
'冻结'
'决定在'
'农民'
'具有较'
'其所'
'其他国家'
'关于第'
'共体'
'八届会议'
'入_'
'偿还'
'偷'
'健康和'
'债权人'
'俱乐部'
'修复'
'便于'
'你想'
'作者'
'作用的'
'作人员'
'作为_'
'何时'
'低的'
'但我们'
'会的'
'伙'
'优势_'
'企图'
'企业家'
'价格_'
'们在'
'以色列_'
'以外的'
'代理'
'代替'
'代_'
'付款_'
'从而使'
'今日'
'人民的'
'人所'
'人口的'
'人口_'
'产量'
'产出'
'互动'
'亏'
'于2006年'
'事物'
'事务部'
'争议'
'了该'
'了对'
'习'
'乍得'
'之处'
'乃'
'举办的'
'主张'
'主任_'
'为实现'
'为其'
'中非'
'中最'
'中学'
'中使用'
'个人和'
'严格的'
'两级'
'东京'
'专利'
'与该'
'不需要'
'不明'
'不在'
'不可能'
'上升_'
'三十'
'一辆'
'一直在'
'一旦'
'一届会议'
'一定的'
'一半'
'一些国家'
'》 _'
'” '
'’ _'
'‘_'
'α_'
'é_'
'~(_'
'zo'
'zhou_'
'yan'
'ya_'
'write_'
'wire_'
'white_'
'wel'
'waste_'
'volume_'
'visit_'
'vers'
'ved_'
'vac'
'ut'
'usually_'
'urged_'
'ult_'
'twenty_'
'turb'
'tur'
'tumor_'
'ts'
'truth_'
'trial_'
'tria'
'transportation_'
'trained_'
'tin'
'tics_'
'tia'
'thinking_'
'tent'
'technologies_'
'techniques_'
'talk_'
'tab'
'swi'
'sun_'
'summ'
'successfully_'
'su'
'style_'
'strai'
'stor'
'ster_'
'stee'
'ste'
'stati'
'stand_'
'spec'
'solve_'
'soft_'
'sive_'
'sitting_'
'sent_'
'semi'
'scene_'
'ro_'
'rise'
'restr'
'rem'
'reg'
'recruit'
'recognized_'
'read_'
'reach_'
'rati'
'rad'
'rab'
'province_'
'promoting_'
'producing_'
'prior_'
'posts_'
'possess'
'port_'
'popular_'
'polymer_'
'politics_'
'plo'
'planned_'
'pin'
'periodic_'
'percentage_'
'peoples_'
'pect'
'payment_'
'pattern_'
'para'
'oxi'
'owned_'
'ow'
'oti'
'oso'
'ort_'
'opportunity_'
'opening_'
'oni'
'om_'
'officers_'
'off'
'occurred_'
'obviously_'
'obvious_'
'nations_'
'motion_'
'mol'
'mode_'
'mobile_'
'middle_'
'meter_'
'metal_'
'men'
'memory_'
'marriage_'
'literature_'
'lin'
'letter_'
'leader_'
'ld_'
'lay'
'law'
'launched_'
'lack_'
'knew_'
'kis'
'ket'
'judge_'
'ise_'
'io_'
'investigation_'
'interview'
'interface_'
'interested_'
'integrated_'
'ingly_'
'infection_'
'indicate_'
'inde'
'imp'
'ides_'
'ide'
'ica'
'ibi'
'house'
'hour_'
'holding_'
'hit_'
'himself_'
'hat'
'happened_'
'grad'
'gor'
'glo'
'gle'
'gla'
'generally_'
'gear_'
'fuzzy_'
'funding_'
'fruit_'
'formula_'
'fol'
'floor_'
'finish'
'fault_'
'fan'
'fall_'
'expressed_'
'evi'
'everyone_'
'event_'
'error_'
'era_'
'equations_'
'ep_'
'entry_'
'entions_'
'entered_'
'endo'
'employment_'
'emi'
'els_'
'eli'
'elected_'
'ela'
'eh'
'eb'
'duties_'
'dul'
'dry_'
'door_'
'dn'
'diss'
'director'
'detailed_'
'desk_'
'design'
'department_'
'den_'
'democracy_'
'deli'
'defi'
'def'
'declined_'
'cus'
'cool_'
'controlled_'
'contract_'
'contract'
'continuous_'
'contents_'
'contains_'
'consumption_'
'consistent_'
'conduct_'
'conduct'
'comple'
'combat_'
'coal_'
'closed_'
'clinical_'
'claim_'
'civilian_'
'cit_'
'circu'
'choose_'
'check'
'channel_'
'ced_'
'cc'
'cau'
'camp'
'camera_'
'cal'
'by'
'bs_'
'brief_'
'boo'
'block_'
'birth_'
'begin_'
'ball'
'assets_'
'arrangements_'
'ari'
'are'
'approved_'
'appro'
'anyone_'
'animal_'
'ange'
'alone_'
'alized_'
'agreements_'
'agent_'
'age'
'adopt_'
'added_'
'add'
'actively_'
'abst'
'You'
'Vis'
'UT'
'UR'
'Tuesday_'
'Tru'
'Tea'
'Tak'
'TR'
'Sol'
'Sin'
'Shanghai_'
'Set'
'San'
'SD'
'Russian_'
'Russia_'
'Roo'
'Public_'
'Process_'
'Pat'
'PS'
'PM'
'PID'
'PI'
'PD'
'PCR_'
'Over_'
'OS_'
'Multi'
'Most_'
'More_'
'Mor'
'Meeting_'
'Mc'
'MS'
'Les'
'Is'
'Ireland_'
'Ir'
'IR_'
'IC_'
'IA'
'Ho'
'Ha'
'HB'
'Gran'
'German_'
'Gas'
'French_'
'Fil'
'Factor'
'FT'
'Effects_'
'Effect_'
'Ed'
'Earth_'
'ES_'
'EM'
'Dynamic_'
'Dr'
'Disa'
'Day_'
'DR'
'DM'
'Cy'
'Cra'
'Cr'
'Compo'
'Coll'
'Charter_'
'Cent'
'Can_'
'Can'
'CL'
'C2'
'Because_'
'BE'
'B2'
'Arm'
'April_'
'Any_'
'Agency_'
'Af'
'Administrative_'
'95'
'7个'
'6日至'
'6号'
'69_'
'64'
'5m'
'400_'
'31日'
'2014年'
'2014_'
'2013_'
'10月'
'0月1'
'06'
'000美元_'
'/'
'+'
'%）'
' —'
'龄'
'鼻'
'黑色'
'鹿'
'鬼'
'高精度'
'高兴_'
'餐'
'题_'
'颗粒'
'领域中'
'领土_'
'预警'
'项目1'
'霸'
'需要有'
'集合'
'难民专员办事处'
'陷入'
'附件一'
'阳性'
'防止和'
'队伍'
'阐述'
'间隙'
'问题进行'
'问题特'
'问卷'
'锡'
'锌'
'锋'
'锈'
'销_'
'鉴别'
'重要的是'
'里亚'
'采样'
'酷'
'都很'
'郎'
'邮政'
'那天'
'那儿'
'那么_'
'遵守_'
'遵'
'遮'
'遭遇'
'遗憾'
'道路_'
'通道'
'通_'
'透过'
'透明'
'逊'
'选民'
'选出'
'追加'
'违反了'
'进行了分析_'
'进步_'
'进一步的'
'这里是'
'这样做_'
'这样一'
'这条'
'这方面'
'这儿'
'这不'
'还对'
'还可'
'还会'
'过来'
'过去的'
'达到了'
'辽'
'较好的'
'载的'
'转递'
'转向'
'轨道'
'身_'
'足够'
'足_'
'走了_'
'赞成'
'资格_'
'资产_'
'贸易_'
'购物'
'贫穷的'
'谢谢'
'谓'
'谅解'
'调查结果'
'谁是'
'诸多'
'详尽'
'该计划'
'该条'
'该决议'
'试点'
'诀'
'许可证'
'讨论会_'
'认定'
'计量'
'计算的'
'计算了'
'计划在'
'警察局'
'警卫'
'言论自由'
'解除武装_'
'解决方案_'
'规律'
'观念'
'见附件'
'见到'
'要在'
'被判'
'表决'
'行预咨委会'
'融资'
'薪金'
'董事'
'葡萄酒'
'菌株'
'获得的'
'药物管制'
'英尺'
'节能'
'节约'
'艾滋病的'
'舌'
'至199'
'自行'
'脉'
'能否'
'肾'
'肤'
'股的'
'股份'
'联合国机构'
'联合国在'
'联合国各'
'而且还'
'群的'
'美国人'
'美利坚合众国_'
'网格'
'缺陷_'
'缴'
'络'
'给我们'
'绘制'
'结果表明'
'结构和'
'终了'
'细菌'
'细胞_'
'组件'
'练习'
'纪律'
'约有'
'累积'
'紫'
'索_'
'系统和'
'系_'
'类型_'
'类_'
'算法的'
'签订'
'等问题'
'等级'
'第五委员会'
'第三个'
'竞争力的'
'站在'
'突出_'
'空间碎片'
'究竟'
'稻'
'税收'
'稍'
'积极参与'
'积分'
'秘鲁'
'科索沃特派团'
'科研'
'社会保障'
'示_'
'硫'
'础'
'研究中'
'石_'
'知的'
'眼镜'
'眼睛'
'省的'
'相同'
'相位'
'直至'
'目的地'
'目的在于'
'目标和'
'盒'
'监视'
'监督_'
'监'
'的风险'
'的需要_'
'的需求'
'的附'
'的那'
'的这'
'的转'
'的贸易'
'的讨论'
'的行动'
'的行'
'的美'
'的种'
'的真'
'的目的_'
'的目标'
'的现'
'的消'
'的模'
'的根'
'的标'
'的权利'
'的暴力'
'的文件'
'的支'
'的执行情况_'
'的意'
'的工作人员'
'的实验'
'的地方_'
'的国'
'的同'
'的发展_'
'的协'
'的全面'
'的产'
'的一部分_'
'白色'
'登记册'
'留下'
'畅'
'电极'
'申请人'
'申诉人'
'由于_'
'用品'
'用作'
'甜'
'瓦尔'
'瓣'
'理的'
'理_'
'环境中'
'玛丽'
'率和'
'猫'
'猪'
'状态的'
'犯罪的'
'犯罪和'
'犬'
'特设委员会'
'特设'
'特殊的'
'特兰'
'炸弹'
'灵魂'
'澳'
'演变'
'滤波器'
'渴望'
'消失'
'海军'
'流入'
'流_'
'活跃'
'活动中'
'津贴_'
'法规'
'沙特'
'汤姆'
'汗'
'汇报'
'永'
'水的'
'水泥'
'氮'
'气象'
'民的'
'民主的'
'民_'
'毛里求斯'
'每次'
'每日'
'段中'
'武器的'
'此项'
'正确的'
'款项_'
'欣'
'次报告'
'欠'
'框'
'根据200'
'核裁军'
'核定'
'核可'
'株'
'栏'
'标签'
'某个'
'极其'
'板的'
'杯'
'机组'
'本文对'
'期内'
'服务和'
'有限公司_'
'有许多'
'有两'
'最佳做法'
'更容易'
'更好'
'更多_'
'普及'
'显然'
'是我们'
'是全'
'是与'
'映射'
'日的'
'日本_'
'日内瓦办事处'
'旅游业'
'方面取得'
'方针_'
'方法对'
'斯里兰卡'
'料的'
'斗'
'文本'
'数的'
'教训'
'教会'
'敏感性'
'故事'
'政府将'
'政府官员'
'改进的'
'收益率'
'收容'
'操作_'
'摆脱'
'援助团'
'提出的建议'
'描'
'控制的'
'接种'
'排雷'
'捷'
'捕捞'
'指令'
'持久'
'括'
'拍卖'
'拍'
'拉斯'
'担忧_'
'抵抗'
'报纸'
'报告员'
'投诉'
'把你'
'把他'
'把一'
'批准了'
'扶'
'打电话'
'所有各'
'所属'
'我能'
'我把'
'我感'
'我国的'
'我们可以'
'我不知道'
'成了'
'想知道'
'惨'
'恶化_'
'恐怖主义的'
'怕'
'态度_'
'忽略'
'忠'
'必须_'
'得更'
'得不'
'律_'
'待遇_'
'影片'
'形成了'
'强烈的'
'引发的'
'开发署'
'开_'
'座_'
'庇护'
'幽默'
'幸福'
'并以'
'并且_'
'平等_'
'幢'
'幅度'
'帮助_'
'席_'
'希腊'
'布什'
'市_'
'已经发'
'已经_'
'工发组织'
'州的'
'岸_'
'岩石'
'岛屿'
'岗'
'展览'
'屏蔽'
'屏幕'
'尼日利亚'
'尼克'
'就是_'
'就一'
'尝试_'
'尔特'
'尔斯'
'少的'
'对话和'
'对策'
'对所有'
'对国际'
'对中国'
'密切合作_'
'害者'
'宣布_'
'客观'
'审查的'
'实践_'
'实现千年发展目标'
'实现其'
'实施了'
'官方发展援助'
'完美'
'完成的'
'安哥拉'
'安全部'
'它们是'
'它们_'
'季度'
'委员会建议缔约国'
'委员'
'妮'
'妙'
'妇女在'
'如果是'
'如果不'
'如有'
'好好'
'好了_'
'女_'
'大会第六十'
'大会第6'
'大会的'
'多样性'
'外国人'
'处置'
'处理的'
'处境'
'境_'
'填补'
'塞浦路斯'
'堡_'
'堂'
'培训班'
'埃塞俄比亚'
'型_'
'坦桑尼亚联合共和国'
'坐标'
'坐在'
'在高'
'在非洲'
'在阿'
'在选'
'在第二'
'在本报告所述期间_'
'在我国'
'在同次会议上_'
'在北'
'在全'
'在以'
'土著人民的'
'图片'
'国际会议'
'国政府'
'国家政'
'回报'
'回应_'
'商店'
'商人'
'和电'
'和文'
'和政府'
'和提'
'和女'
'和反'
'和人权'
'命令_'
'命_'
'员和'
'含量的'
'向前'
'向你'
'吐'
'后一'
'名单_'
'司法系统'
'号决议中'
'号决定_'
'可能对'
'可持续的'
'可以使'
'可以_'
'召开的'
'只有在'
'另一方面_'
'受体'
'受伤'
'发电机'
'发明'
'发展筹资'
'发展政策'
'发展中国家_'
'反腐败'
'反复'
'参照'
'参与的'
'参'
'去除'
'去了_'
'原理和'
'原则和'
'历史上'
'即可'
'即便'
'危机的'
'印度_'
'卡尔'
'南_'
'卖淫'
'协作'
'十七'
'区域办事处'
'北京_'
'勒斯坦'
'加_'
'办理'
'副主席'
'剑'
'制定的'
'到201'
'到1'
'利的'
'利润'
'初级'
'创新_'
'创作'
'刚度'
'列表'
'列的'
'切尔'
'分辨率'
'分解'
'分散'
'分别为'
'出现在'
'几内亚'
'减贫'
'准备金'
'况_'
'农产品'
'军人'
'军_'
'写的'
'兼容'
'其余'
'其中一些'
'关键的'
'关的'
'关于联合国'
'关_'
'兰_'
'全体'
'克林顿'
'先进'
'催化'
'做到'
'债务_'
'借鉴'
'修改_'
'信的'
'信息的'
'保罗_'
'保安'
'促进和保护'
'促进和'
'侵犯人权'
'使我'
'使人'
'你看'
'你们的'
'住区'
'位移'
'但有'
'但也'
'伪'
'伦_'
'会议上_'
'会员国_'
'优先事项'
'伊朗伊斯兰共和国'
'伊拉克_'
'任_'
'价值的'
'以支持'
'以提高'
'以往'
'以协'
'代表团_'
'他已'
'他会'
'他们还'
'他们所'
'仓'
'仇外心理和'
'仇'
'人道'
'人权高专办'
'人权和基本自由'
'人文'
'人工'
'人员的'
'人员和'
'人们在'
'享'
'五_'
'互相'
'于201'
'二维'
'事态发展'
'了很多'
'了其'
'习俗'
'乐观'
'乌克兰'
'之间的关系_'
'之间的关系'
'举办了'
'主席的'
'为你'
'为主_'
'为1_'
'丹麦'
'中获'
'中发'
'两项'
'两者'
'东部'
'世界上最'
'与非'
'与政'
'不过是'
'不足的'
'不确定'
'不扩散'
'下了'
'上诉_'
'上涨'
'上有'
'上学'
'上午'
'上升'
'上了'
'万美元'
'一案'
'一样的'
'一场'
'一个有'
'。（_'
'、'
'|_'
'za'
'xi'
'worldwide_'
'wis'
'whi'
'weapon_'
'water'
'wash'
'walk_'
'wage'
'vir'
'vict'
'vibration_'
'ves'
'vely_'
'velocity_'
'ussi'
'urs_'
'unique_'
'uma'
'uct'
'transformation_'
'thousands_'
'tho'
'thin'
'ther'
'theories_'
'theoretical_'
'ten'
'tell'
'task_'
'tar_'
'talking_'
'swe'
'sustainable_'
'strike_'
'strain_'
'stock_'
'stic_'
'stic'
'steps_'
'stations_'
'station_'
'stated_'
'ssa'
'sport'
'speaker_'
'sound_'
'soul_'
'slow'
'skin_'
'skills_'
'skill_'
'ski'
'showing_'
'ship'
'shed_'
'seve'
'server_'
'seal'
'sco'
'satisfaction_'
'sample_'
'sai'
'rti'
'rt'
'rr'
'rol'
'rob'
'rna'
'rn_'
'riv'
'rig'
'ria'
'reta'
'resulting_'
'resident'
'res_'
'representation_'
'renew'
'remains_'
'reliable_'
'released_'
'rei'
'redi'
'reconstruction_'
'recommendation_'
'reasonable_'
'realis'
'ray_'
'random_'
'ral'
'rain'
'quickly_'
'quenc'
'punishment_'
'ption_'
'prove_'
'protein_'
'prompt'
'prom'
'processes_'
'prin'
'port'
'pop'
'pollution_'
'poli'
'pler_'
'pleased_'
'phi'
'pher'
'paying_'
'passed_'
'pass'
'partners_'
'part'
'parallel_'
'pH_'
'overt'
'ort'
'organic_'
'options_'
'optimum_'
'opti'
'operational_'
'onic_'
'ogen'
'occupation_'
'obtain_'
'noti'
'nos'
'nm_'
'nic'
'nes_'
'moon_'
'monitor_'
'mme'
'ml'
'minor'
'mid_'
'meth'
'mes'
'menta'
'match_'
'married_'
'mark_'
'manufacturing_'
'male_'
'mad'
'lum'
'ls'
'loc'
'lli'
'liti'
'list'
'link_'
'link'
'line'
'less'
'leaving_'
'learned_'
'lation_'
'last'
'lan'
'kil'
'j'
'ize_'
'ities_'
'invo'
'instance_'
'ins'
'initiative_'
'infrastructure_'
'induced_'
'individuals_'
'imper'
'iment'
'im_'
'illa'
'idi'
'ice'
'iat'
'hum'
'hr'
'host'
'het'
'hea'
'has'
'han'
'guidelines_'
'gui'
'grand'
'gate_'
'gate'
'fri'
'frequently_'
'found'
'fou'
'forest_'
'followed_'
'flying_'
'flu'
'fixed_'
'fix'
'firm_'
'finite_'
'filter_'
'figure_'
'fiber_'
'fell_'
'feed'
'feature_'
'fast_'
'fas'
'famous_'
'families_'
'facilitate_'
'ext'
'explore_'
'exc'
'eva'
'ethnic_'
'esi'
'eous_'
'ently_'
'enforcement_'
'encourage_'
'em'
'electricity_'
'ei'
'efficient_'
'eff'
'eating_'
'down'
'dollar_'
'dly_'
'divided_'
'divi'
'distance_'
'dispute'
'disp'
'dish'
'direct_'
'diagnosis_'
'determination_'
'destruction_'
'derived_'
'deposit_'
'demi'
'demands_'
'delay_'
'deformation_'
'definition_'
'defined_'
'deci'
'dec'
'deals_'
'dead_'
'daughter_'
'dat'
'dark_'
'dan'
'custom_'
'currency_'
'cre'
'coupled_'
'counter_'
'counter'
'couldn_'
'corresponding_'
'continuing_'
'conflicts_'
'confidence_'
'commen'
'command_'
'combination_'
'closely_'
'clock_'
'clear'
'chance_'
'carefully_'
'career_'
'broad_'
'break_'
'brand_'
'blo'
'bes'
'bers_'
'beautiful_'
'beam_'
'base'
'bas'
'bar_'
'band_'
'ban'
'bag'
'assist_'
'ase_'
'arr'
'ard_'
'architecture_'
'appear_'
'anne'
'ang_'
'ane_'
'analyze_'
'analyses_'
'alter'
'alle'
'aircraft_'
'aimed_'
'ahead_'
'aged_'
'ae'
'advise'
'advantage_'
'acting_'
'accumulat'
'accountability_'
'] _'
'Ye'
'YS'
'Wo'
'We'
'Washington_'
'Vie'
'Use'
'UN_'
'UNI'
'UND'
'UM'
'UI'
'Transform'
'Times_'
'Technical_'
'TC'
'Switzerland_'
'Sustainable_'
'Summit_'
'Ste'
'Spec'
'Space_'
'Services_'
'Self_'
'Sea_'
'Sea'
'Science_'
'SS'
'SE'
'Review_'
'Ret'
'Rea'
'RO'
'RD_'
'RD'
'RB'
'Ps'
'Province_'
'Port'
'Poly'
'Pin'
'Peace_'
'PRO'
'PLA'
'Ori'
'Oh_'
'OH'
'ND'
'NB'
'Minister_'
'Mari'
'MPa_'
'Loc'
'LM'
'LC'
'Korean_'
'KO'
'Ju'
'Joint_'
'Joh'
'Ji'
'Implementation_'
'IP_'
'III_'
'Hua'
'Her'
'Hen'
'Hel'
'HP'
'HE'
'H2'
'Gu'
'Force_'
'Federation_'
'Far'
'FD'
'FA'
'Emp'
'Each_'
'EX'
'EN'
'EA_'
'Def'
'Dec'
'Data_'
'Dan'
'Cooperation_'
'Con'
'Clo'
'Chan'
'Ce'
'Cam'
'Calculation_'
'Cal'
'CP_'
'CP'
'CAD'
'Britain_'
'Bre'
'Both_'
'Blo'
'Bas'
'BR'
'Auto'
'Ass'
'Ara'
'Ant'
'Americans_'
'All'
'AI'
': “_'
': (_'
'9日_'
'9个'
'97'
'900'
'8月2'
'89'
'87_'
'86'
'85_'
'82'
'7日_'
'79_'
'79'
'74_'
'700_'
'3日_'
'3D_'
'2号'
'250'
'2015年'
'2011_'
'1日_'
'1994_'
'1993_'
'1992_'
'192'
'190'
'178'
'150'
'130'
'12年'
'122'
'110'
'000多'
'. _'
'&_'
'%._'
'%)_'
' ,_'
' & _'
' %'
'？'
'！'
'鼓舞'
'黏'
'黄色'
'高层'
'首相'
'饥饿'
'食物权'
'颠'
'颈'
'预报'
'顺利'
'项目和'
'项目厅'
'静脉'
'集中在'
'限于'
'降水'
'陈述'
'陆地'
'附属'
'陀'
'阿拉伯国家'
'阿拉'
'阿尔'
'阿富汗的'
'阿富汗_'
'阴极'
'防御'
'闹'
'间接'
'闲'
'问题特别报告员'
'问责制'
'镶'
'银行的'
'钙'
'鈥'
'金融危机'
'金正恩'
'量化'
'重组'
'释'
'采取一'
'酮'
'都必须'
'都可以'
'部队派遣国'
'部件'
'邪'
'那里的'
'遗传算法'
'道的'
'透露'
'退出'
'述_'
'进行调'
'进行的_'
'进行修'
'进行一'
'进度'
'这样做'
'这份'
'这件事'
'这一点'
'这一事'
'还说'
'还有一个'
'近几'
'近似'
'近代'
'迎'
'迅速_'
'边_'
'较高的'
'较大'
'软件设计'
'轮廓'
'转交'
'践'
'跟我'
'跃'
'趋'
'超级'
'走上'
'赏'
'贯彻'
'贫穷_'
'财政和'
'谋求'
'谈判的'
'请秘书处'
'说话'
'语言_'
'该系统'
'该区域'
'该决议草案'
'证实了'
'设备和'
'设在'
'论坛的'
'讲述'
'讲习班'
'议题'
'让她'
'认为这'
'警官'
'警告_'
'誓'
'视觉'
'观_'
'要求的'
'要求在'
'裁军谈判会议'
'表达式_'
'表现出'
'表现为'
'表现_'
'衣服_'
'衣_'
'行政和预算问题咨询委员会'
'行动和'
'血管'
'血清'
'蛋白质'
'蓄'
'蒙特'
'葡萄牙_'
'葡萄牙'
'葡萄'
'著名'
'营销'
'营地'
'莫桑比克'
'艾滋病_'
'舞台'
'致使'
'至今'
'自然的'
'自199'
'腾'
'腰'
'腐'
'脚本'
'脂肪'
'脂'
'能对'
'胃'
'胁迫'
'股_'
'聘'
'职工'
'职员'
'职务_'
'职务'
'而成'
'老年人'
'美国国'
'署_'
'罪犯'
'罗斯'
'罕'
'网上'
'缺点_'
'缔约国会议'
'绳之以法_'
'继续支持'
'继续发'
'结余'
'绑'
'经委会'
'经历了'
'纳_'
'约翰_'
'繁'
'經'
'紧张'
'索马里_'
'糟'
'精度_'
'粮农组织'
'粗糙'
'粒子'
'签发'
'筹备委员会'
'筋'
'第九'
'第一_'
'第18'
'站_'
'窄'
'突然'
'穿着'
'稿_'
'税务'
'程度上'
'移徙工人'
'秩序_'
'科_'
'离散'
'禁运'
'社_'
'磨损'
'碰'
'确认_'
'确定了'
'确保_'
'短缺_'
'知_'
'看到的'
'看出'
'相当于'
'相关_'
'监察'
'皱'
'的过'
'的评'
'的记'
'的要求_'
'的范围'
'的能力'
'的网'
'的结果'
'的直'
'的理'
'的流'
'的核心'
'的核'
'的未来'
'的服务'
'的有效'
'的时间_'
'的时'
'的文化'
'的数据_'
'的指'
'的意思'
'的情况'
'的后续'
'的口'
'的双'
'的利'
'的公司'
'的全球'
'的价值_'
'的中国'
'的严重'
'的东西_'
'的专'
'的7'
'的4'
'百分比_'
'白_'
'瘤'
'痛苦'
'番'
'电影_'
'电厂'
'电信'
'由国家'
'用途_'
'生产的'
'生产力'
'瓜'
'瑞士_'
'瑞典_'
'琳'
'理事会的'
'理事会_'
'球_'
'玻利维亚'
'现象的'
'现状'
'现代化的'
'现代化'
'环境规划署'
'状况的'
'特许'
'物种'
'物品'
'牙买加'
'牌_'
'版本的'
'片的'
'爆破'
'燃料_'
'照料'
'焊'
'灵敏度'
'灰色'
'灌'
'潜力'
'漂亮'
'滥'
'满意_'
'渠道'
'深的'
'涉及的'
'消除对妇女一切形式歧视公约_'
'浦'
'浓'
'流离失所者'
'流的'
'注重'
'注_'
'波长'
'法测定'
'法庭_'
'油_'
'没收'
'水和'
'毒素'
'残余'
'此_'
'正当'
'正_'
'次会议_'
'横'
'榜'
'概率'
'根据第1'
'根据大会第'
'核试验'
'核实'
'林业'
'林_'
'极限'
'极大'
'条约机构'
'条件是'
'杀伤人员地雷'
'机关_'
'本质'
'本法'
'本届会议'
'期的'
'有这'
'有责任'
'有多'
'有义务'
'最高法院'
'最为'
'暴露'
'智利'
'是通过'
'是第'
'是用'
'是很'
'是如何'
'是你'
'星_'
'明确的'
'明年'
'时期_'
'时可'
'既然'
'无线电'
'无核武器'
'族_'
'旋转'
'旅费'
'施行'
'方法是'
'方向_'
'文书的'
'敲'
'数据和'
'敌对'
'效率和'
'故事_'
'政权'
'政党'
'改变了'
'收缩'
'收入_'
'支持和'
'擦'
'摘要_'
'搞'
'揭'
'提请'
'提出了一'
'提出一'
'提供资'
'提供给'
'提供服务'
'提供了一'
'推导'
'推出'
'控制系统的'
'接待'
'授'
'损坏'
'捐赠'
'捐助'
'挖'
'指标和'
'拔'
'抵达'
'抗体'
'投资的'
'投影'
'技术研究'
'承运人'
'承载'
'承包'
'扩'
'扔'
'手续'
'所载的'
'所谓的'
'所示_'
'战斗人员'
'战_'
'或者_'
'或更'
'或多'
'或加入'
'我相信'
'我和'
'我们认为_'
'我们能'
'成形'
'成就_'
'成员和'
'成人'
'成为一个'
'戏剧'
'戏'
'慷慨'
'意思'
'意义的'
'想想'
'想到'
'您可以'
'恶化'
'恰当'
'总数'
'总共'
'性别问题'
'性别观点'
'思考'
'思想_'
'快乐'
'必要性'
'心脏'
'心理学'
'心中'
'德里'
'得知'
'得不到'
'很好'
'当时的'
'当我们'
'当局_'
'当他'
'弱势'
'开采'
'开办'
'建筑物'
'廉价'
'康复'
'座位'
'底部'
'庆祝'
'幻'
'并行'
'并考虑'
'并提'
'并保'
'并促进'
'年第'
'年1'
'平_'
'席位'
'市场上'
'巴西_'
'巴勒斯坦被占领土'
'已经在'
'工程_'
'工作是'
'工作方案'
'崇拜'
'展开_'
'居民_'
'就是一'
'就业机会'
'就业_'
'尤'
'小组的'
'将有'
'将它'
'将他'
'将为'
'将与'
'将一'
'导致了'
'对照组'
'对新'
'对妇女'
'密封'
'家族'
'实际上_'
'实行_'
'实力'
'实_'
'宏'
'完成了'
'完善的'
'安_'
'守则'
'宇宙'
'宇'
'它们在'
'孩'
'学生_'
'学习的'
'孔隙'
'婴儿'
'委员会认为_'
'委员会的工作'
'委员会注意到'
'姆斯'
'妈妈'
'妇发基金'
'如果有'
'她对'
'她在'
'她们的'
'奥林匹克'
'奖学金'
'奏'
'夹'
'失望'
'夫人'
'大多'
'大会第五十'
'多次'
'处理器'
'处在'
'声称_'
'壮'
'塔利班'
'塑料'
'堡'
'型的'
'在进'
'在表'
'在电'
'在政'
'在开'
'在工作'
'在公'
'在全球'
'在促进'
'在两'
'在19'
'国际金融'
'国际法院'
'国际合作'
'国内外'
'回返'
'回应'
'回复'
'噬'
'喀麦隆'
'商定的'
'商品_'
'商务'
'哥斯达黎加'
'哈萨克斯坦'
'品的'
'哀'
'和非洲'
'和评'
'和西'
'和联'
'和相关'
'和时'
'和方案'
'和整'
'和数'
'和教'
'和技术'
'和意'
'和小'
'和审'
'和合'
'和原'
'和分析'
'和分'
'和减'
'和传'
'和他'
'和一个'
'和3'
'和201'
'告知'
'呆'
'吸附'
'启动_'
'含有'
'向该'
'向委员会'
'向大会第'
'向外'
'向他'
'后者'
'后勤'
'名字_'
'合_'
'各项目标'
'各自的'
'各位'
'号决议第'
'可能在'
'可疑'
'可以通过'
'可_'
'召集'
'只有一'
'另有'
'口译'
'叙述'
'变成了'
'变形'
'受益_'
'受的'
'受教育'
'受害者的'
'取得的进展'
'取得的成'
'发表的'
'双重'
'参加的'
'原籍国'
'原始'
'原则的'
'印度尼西亚_'
'印发'
'印刷'
'博物馆'
'协调委员会'
'协调和'
'协调厅'
'协调中心'
'升级'
'千年宣言_'
'医药'
'医生_'
'化合物'
'包括一'
'包容性'
'勘'
'劲'
'劫'
'加剧'
'劝'
'前南斯拉夫'
'制定了一'
'利于'
'初_'
'则可'
'列举'
'刑法'
'分类_'
'分析与'
'分数'
'分摊'
'出来'
'出售'
'决策_'
'农村妇女'
'农村地区'
'军官'
'写_'
'内罗毕'
'内在'
'典型'
'具有重要'
'其目'
'其他的'
'其中有'
'其中一'
'兴趣_'
'兴趣'
'关注的'
'关于在'
'关于国际'
'共振'
'共和党'
'六条'
'公式_'
'公平_'
'公务员'
'全体会议'
'免遭'
'充分执行'
'兄弟'
'兄'
'儿童权利公约_'
'催化剂'
'催'
'做出了'
'偏差'
'倾向于'
'借助'
'信号的'
'俄罗斯联邦_'
'便_'
'侵犯_'
'侵害'
'侵'
'使_'
'你有'
'你应该'
'作战'
'体制_'
'低温'
'但其'
'伤害_'
'传真'
'会见'
'会发'
'优质'
'任用'
'任何其他'
'任何一'
'价的'
'价值观'
'以支'
'以及最'
'以前的'
'以便在'
'代表在'
'代表发'
'他们是'
'他们会'
'仍是'
'仇恨'
'仅仅是'
'仁'
'人道主义和'
'人提供'
'人力'
'人们的'
'京都议定书_'
'亨'
'交给'
'五个'
'于2001年'
'事务和'
'了这一'
'了大'
'了国'
'了两个'
'了两'
'了2'
'书的'
'习惯_'
'也很'
'也已'
'也可'
'之处_'
'之上_'
'主义者'
'为这'
'为自己'
'为生'
'为基'
'为2_'
'丰富'
'中间'
'中没有'
'中应'
'个月'
'世界首脑会议'
'专家_'
'与社会'
'与国'
'与人'
'不用'
'不容'
'不够'
'下文'
'上最'
'上下'
'三届会议'
'三名'
'一面'
'一边'
'一级的'
'一点_'
'一次_'
'一些_'
'一个新的'
'一个_'
'」_'
'。(_'
'Ⅲ_'
'Ⅱ_'
'”(_'
'“ _'
'“'
'μg_'
' '
'~(-_'
'zon'
'yield_'
'yesterday_'
'xt'
'ws_'
'wr'
'wind'
'wide'
'welfare_'
'weigh'
'web_'
'wealth_'
'wave'
'warm_'
'ware_'
'wants_'
'volunt'
'vet'
'vere'
'variable_'
'ux'
'utilization_'
'utiliz'
'uta'
'ush'
'urs'
'urg'
'ured_'
'upt'
'universities_'
'unf'
'und_'
'unable_'
'ume'
'ul_'
'ue'
'typical_'
'twi'
'turned_'
'tun'
'tting_'
'trend_'
'trat'
'transferred_'
'trafficking_'
'traffic_'
'top'
'tis'
'thermal_'
'thank'
'terrorist_'
'temp'
'tect'
'teachers_'
'tag'
'sy'
'surve'
'surge'
'summarize'
'sui'
'suffer'
'subsidiary_'
'submission_'
'stra'
'store_'
'steady_'
'states_'
'stan'
'stages_'
'sso'
'spr'
'spo'
'spent_'
'specifica'
'species_'
'south_'
'sor'
'some'
'sma'
'sli'
'situations_'
'sions_'
'significance_'
'shot_'
'sh'
'severe_'
'sessions_'
'sent'
'sensitivity_'
'scheduled_'
'sag'
'rus'
'rs'
'row'
'rot'
'root_'
'romantic_'
'rog'
'ric_'
'revi'
'returned_'
'retr'
'respons'
'rese'
'resc'
'replaced_'
'repe'
'ren_'
'remaining_'
'relief_'
'reliability_'
'release_'
'reject'
'regime_'
'reflect_'
'reflect'
'recommends_'
'recept'
'receive_'
'reb'
'realized_'
'realiz'
'read'
'rapidly_'
'rapid_'
'radi'
'rac'
'quite_'
'punish'
'prosecut'
'propose'
'propagation_'
'prohibit'
'profit_'
'profile_'
'prof'
'priority_'
'presentation_'
'prepar'
'prec'
'practices_'
'pped_'
'positions_'
'poll'
'plant_'
'plan'
'places_'
'pipe'
'pic'
'photograph'
'performed_'
'pea'
'patient_'
'participat'
'par'
'pain_'
'pai'
'package_'
'ox'
'overs'
'ost'
'osis_'
'osi'
'orr'
'orn'
'ore'
'oph'
'oming_'
'oid_'
'offered_'
'offen'
'ody_'
'ode'
'occasion'
'observe_'
'obligation_'
'objectives_'
'numerical_'
'nting_'
'nst'
'none_'
'networks_'
'nerv'
'nel'
'nan'
'nai'
'mutual_'
'mut'
'multilateral_'
'mp_'
'mount'
'mixed_'
'mistake'
'miss'
'mine_'
'mina'
'micros'
'membrane_'
'mel'
'meaning_'
'maximum_'
'mation_'
'mat'
'mandat'
'managed_'
'make'
'maintain'
'mai'
'lus'
'logy_'
'logi'
'located_'
'loading_'
'listen_'
'lie_'
'lers_'
'leaves_'
'lav'
'laugh'
'lat'
'lad'
'ky'
'kit'
'kg_'
'judicial_'
'judge'
'joy'
'izing_'
'ize'
'ivi'
'ive'
'iva'
'itut'
'isn_'
'island_'
'iron_'
'ious_'
'ion'
'invited_'
'introduce_'
'interesting_'
'intention'
'integral_'
'inte'
'int'
'instruments_'
'institutional_'
'inspection_'
'inform'
'improvement_'
'imped'
'immun'
'iling_'
'ili'
'identify_'
'idate'
'ics_'
'hypo'
'hop'
'hole_'
'hin'
'hic'
'hem'
'hel'
'height_'
'guide_'
'gue_'
'graph'
'grant'
'gold_'
'gin'
'gh_'
'genetic_'
'generated_'
'gene_'
'gen_'
'fulfil'
'frame'
'forth_'
'formal_'
'forg'
'fold'
'flows_'
'fis'
'firms_'
'findings_'
'financing_'
'ffi'
'feel'
'favor'
'farm'
'fabric_'
'explanation_'
'expl'
'experiences_'
'exercise_'
'excit'
'excellent_'
'examples_'
'evening_'
'eum'
'esse'
'ess'
'entr'
'enth'
'ent'
'enjoy_'
'eni'
'enhanced_'
'enable_'
'employees_'
'empir'
'emphasize'
'ements_'
'elli'
'elastic_'
'ection_'
'eco'
'ece'
'ean_'
'drive_'
'drawn_'
'dr'
'dom_'
'doesn_'
'diversi'
'dit'
'distribut'
'discusses_'
'dig'
'differences_'
'die_'
'dic'
'diagram_'
'diag'
'determin'
'deployment_'
'democratic_'
'defect'
'decrease_'
'dea'
'curr'
'cular_'
'ction'
'corrosion_'
'correct_'
'copy_'
'cook'
'continues_'
'conta'
'consult'
'constitutional_'
'cons'
'conc'
'combined_'
'coc'
'clearly_'
'cities_'
'cies_'
'ches_'
'cher'
'ched_'
'chas'
'centr'
'categories_'
'catch_'
'cast_'
'cash_'
'cas'
'capability_'
'candidate_'
'butt'
'but'
'bus_'
'broade'
'brain_'
'bound'
'bought_'
'bottom_'
'blow'
'block'
'bles'
'binding_'
'beginning_'
'beams_'
'bai'
'bad_'
'baby_'
'aware_'
'availability_'
'attacks_'
'ates_'
'ast'
'assist'
'assa'
'aspect_'
'ash'
'aro'
'army_'
'arily_'
'ara'
'appl'
'apo'
'ant'
'answer_'
'ans_'
'ancient_'
'anal'
'ami'
'amb'
'allows_'
'allo'
'align'
'ak'
'agricultural_'
'afternoon_'
'ado'
'adi'
'add_'
'actually_'
'actor'
'acquisition_'
'ack'
'accomplish'
'abo'
'ably_'
'Zi'
'Zhang_'
'Zealand_'
'Z_'
'Yang_'
'Yan'
'XML_'
'Where_'
'VI'
'Training_'
'Tow'
'Timor_'
'Through_'
'Theory_'
'Test_'
'Ten'
'Tai'
'TION_'
'Sun'
'Sudan_'
'Studies_'
'Str'
'Steve'
'Sp'
'She'
'Ser'
'Second_'
'Sch'
'Ric'
'Rev_'
'Qua'
'Problem'
'Plasma_'
'Ph'
'Pen'
'Park'
'Para'
'PL'
'Organiz'
'Operation'
'Open'
'Once_'
'Oc'
'OM'
'OD'
'OC'
'Note_'
'Mn'
'Middle_'
'Medi'
'Mat'
'Lord_'
'Log'
'Lev'
'Labor'
'Indian'
'Indi'
'Imp'
'IT_'
'IL'
'IBM'
'Gra'
'GS'
'GC'
'GB'
'Fund_'
'Fourth_'
'Forum_'
'Fore'
'Fer'
'Fe_'
'FR'
'FE'
'Express'
'Education_'
'Ec'
'Dom'
'Distri'
'Discussion_'
'Die'
'Determin'
'DP'
'DNA'
'Current'
'Conta'
'Construction_'
'Consider'
'Compar'
'College_'
'Chr'
'Cel'
'Case'
'COMP'
'CAP'
'Bou'
'Ber'
'Before_'
'Association_'
'Arr'
'Ama'
'ATION_'
'AN_'
'ANALYSIS_'
'AG'
'? '
'94_'
'93_'
'91_'
'900_'
'83_'
'83'
'75'
'73_'
'6名'
'4月1'
'450'
'2次'
'20年'
'2015_'
'1993年_'
'1978'
'160'
'140'
'120_'
'10号'
'1000'
'0m'
'05'
'..._'
'...'
'-- _'
'''
' ; _'
'＞_'
'：《_'
'麻醉'
'高兴地'
'验证了'
'驳'
'马上'
'首脑会议的'
'饱和'
'食品_'
'颜色_'
'频繁'
'预防和'
'预见'
'预算的'
'顺序'
'项的'
'项建议'
'面谈'
'非洲的'
'非洲发展'
'非常重要_'
'露出'
'霜'
'雇员的'
'集群'
'难民和'
'隶'
'陪'
'院校'
'降解'
'降低了'
'际组织'
'阿根廷_'
'阿拉伯联合酋长国'
'阿卜'
'阶层'
'阳光'
'问题及'
'门的'
'长度'
'长官'
'镇_'
'镀'
'锅炉'
'链接'
'钢铁'
'里面'
'里有'
'采集'
'采用的'
'采取措施_'
'采取必要'
'采取后续行动'
'醉'
'酸盐'
'都要'
'都不会'
'部长级'
'部长_'
'部和'
'郊'
'邻居'
'那种'
'那就是'
'逝'
'通过一项'
'通过一'
'通知_'
'通信的'
'逗'
'透明度_'
'适应性'
'述的'
'迪_'
'违约'
'违法'
'进行评'
'进一步加强'
'这里的'
'这段'
'这方面的'
'这个问题_'
'这一点_'
'还需要'
'还有一'
'近的'
'运营'
'运算'
'运动的'
'运动员'
'过去_'
'过于'
'迄今为止'
'迄今'
'辣'
'载体'
'轻武器'
'身上_'
'踢'
'路的'
'越来越多'
'超过2'
'起诉_'
'起的'
'起源'
'走向'
'赦'
'赞'
'赛_'
'赔偿责任'
'赐'
'赋'
'资助的'
'费用的'
'贸易和'
'贫民'
'贪'
'负责任'
'负担'
'贝宁'
'谐振'
'谈谈'
'诺_'
'请联合国'
'请各'
'请参'
'说他'
'说什么'
'误差_'
'该缔约国'
'该法律'
'该委员会'
'诗人'
'评注'
'证据的'
'设计方'
'讲话_'
'记住'
'议事规则第'
'让他'
'讨论会'
'计算机_'
'计划和'
'警告'
'视察'
'见过'
'见的'
'见了'
'覆'
'要做_'
'要做'
'要使'
'西班牙_'
'西北'
'装饰'
'被看'
'被拘留者'
'被占领'
'衰落'
'表示欢迎_'
'补编第'
'行动计划'
'行事_'
'行业的'
'融合'
'虽'
'蓝色'
'蒸汽'
'著名的'
'营业'
'莲'
'荷载'
'药_'
'范围的'
'英文_'
'花费'
'节日'
'色的'
'色彩'
'良好做法'
'良好'
'航天'
'至_'
'至9'
'至3'
'臭氧'
'自由的'
'自由和'
'自然灾害'
'自治'
'自动化'
'脱离'
'能有'
'能使'
'聚合'
'联系起来_'
'联系的'
'联合国和'
'联合国人'
'联_'
'职责_'
'职业_'
'耶路撒冷'
'而采取的'
'而对'
'而且也'
'老龄'
'美的'
'署长'
'罚款'
'罗_'
'网页'
'缩短'
'编列'
'缔结'
'缔约方会议第'
'综合性'
'维度'
'维和行动'
'继续在'
'绝缘'
'给他'
'结果的'
'结构调整'
'经验教训'
'经济和社会'
'组织了'
'组建'
'线路'
'纺织品'
'纳米'
'纪'
'约束力的'
'约合'
'纠'
'素质'
'素的'
'系统中的'
'糟糕的'
'精密'
'粮食计划署'
'粮食_'
'类别_'
'管理方'
'算子'
'算_'
'签名'
'笼'
'第四次'
'第四十'
'第三条'
'第三方'
'第三_'
'第_'
'第2条'
'第21'
'第1条'
'第199'
'第12条'
'笑_'
'竹'
'端口'
'竞争_'
'穿过'
'空心'
'穴'
'秘书长报告'
'秘书处的'
'种族歧视_'
'种族主义'
'秋'
'离心'
'禁毒'
'禁令'
'祸'
'社会福利'
'社会和文化权利'
'研究报告'
'研所'
'知名'
'矛盾'
'眼的'
'眉'
'相信_'
'直线'
'直流'
'直升'
'盲'
'监督机'
'盆'
'皇'
'的马'
'的领'
'的阿'
'的部'
'的道'
'的进程'
'的身份'
'的身'
'的语言'
'的议程'
'的补'
'的行为_'
'的航'
'的联'
'的管理'
'的空间'
'的每一'
'的每'
'的母亲'
'的歧视'
'的某'
'的本'
'的文'
'的整'
'的措施_'
'的控制'
'的排'
'的报'
'的战'
'的成果'
'的意见_'
'的情'
'的心'
'的形'
'的应用'
'的市场'
'的局'
'的审'
'的实际'
'的处'
'的声'
'的增加'
'的在'
'的土'
'的含'
'的可能'
'的另一'
'的原因_'
'的加'
'的军事'
'的内容_'
'的内容'
'的依'
'的使用'
'的作用'
'的义务_'
'的下'
'的一项'
'的一切'
'的C'
'痴'
'疼痛'
'疯'
'疫'
'疗法'
'界限'
'电路的'
'电视_'
'电脑_'
'电站'
'电动机'
'由19'
'用户的'
'生涯'
'生活条件'
'生殖健康'
'生产中'
'现状_'
'现在的'
'现任'
'环境保护'
'献'
'独立专家'
'犹太人'
'犹太'
'特的'
'特权'
'特朗普的'
'特征的'
'物料'
'牧'
'版本_'
'爷'
'爆发'
'照_'
'烧结'
'点是'
'漆'
'满意的'
'溢'
'源于'
'温室气体'
'渗透'
'渗'
'清洗'
'深刻'
'淋'
'涵'
'涡'
'消除贫穷'
'海洋生'
'海水'
'海_'
'浓缩'
'流量'
'派_'
'泼'
'注入'
'波形'
'泡沫'
'法治_'
'法律规定'
'法律的'
'法律援助'
'法对'
'法制'
'油的'
'河流'
'没有这'
'沟通_'
'汽'
'汁'
'水平的'
'氯化'
'氢'
'氟'
'气温'
'民警'
'毫不'
'毫'
'比率'
'比如_'
'比其'
'段所'
'死了'
'武器和'
'正常_'
'正在进行'
'歉_'
'歇'
'款项'
'欺'
'欧元_'
'橱'
'概念的'
'楚'
'森林管理'
'棍'
'检察'
'桶'
'档案_'
'根据该'
'根据本条'
'样本'
'样子'
'标准和'
'柴油'
'查看'
'柜'
'染色'
'构成了'
'来看_'
'村庄'
'本组织的'
'本条例'
'本文在'
'本公司'
'朝鲜民主主义人民共和国'
'有用'
'有没有'
'有时候'
'有害'
'有大'
'有不'
'有一定'
'有一些'
'最有'
'最好的'
'最大限度'
'更改'
'更强'
'更具'
'显著性'
'是由于'
'是根据'
'是必'
'是可'
'是从'
'是1'
'易受'
'明星'
'时间的'
'时所'
'时刻'
'时代_'
'日益增'
'日内瓦_'
'无线'
'施_'
'方面发挥'
'方程的'
'方差'
'新生'
'新兴'
'新伙伴关系'
'斯科'
'斯洛伐克'
'斯基'
'斗_'
'文献'
'文化和'
'数额_'
'数量_'
'数据库_'
'数值'
'效力_'
'故意'
'故事的'
'政治权利'
'政治事务'
'政府间组织'
'政_'
'放大'
'收取'
'收到了'
'支柱'
'支撑'
'支付的'
'擅'
'撰'
'摧毁'
'摄'
'搭'
'搜查'
'提高妇女地位'
'提出报告_'
'提出一种'
'提供一'
'描述_'
'措施以'
'推出了'
'控制和'
'接受了'
'接到'
'探测'
'排气'
'排列'
'掉了'
'授权_'
'据说'
'挪威_'
'挣'
'指的'
'指控'
'拿起'
'拿出'
'拳'
'拘'
'拆除'
'担心_'
'折扣'
'投标'
'抓住'
'把握'
'技能_'
'扰'
'执行这'
'打交道'
'所采取的'
'所述的'
'所说的'
'所能'
'所有人'
'所发'
'所以我'
'或她們的'
'我去'
'我们这'
'我们认为'
'我们也'
'成就'
'成员国的'
'成员国_'
'感情'
'感兴趣'
'意志'
'意外'
'意义上'
'惯'
'惊讶'
'悔'
'恤'
'恐惧'
'总额为'
'总额_'
'总量'
'总部_'
'性质的'
'急需'
'怎么样_'
'态_'
'忍'
'微软'
'微波'
'很重要_'
'很快'
'很好_'
'很大的'
'很大_'
'影响因素'
'影响不'
'影_'
'形态'
'形_'
'当局和'
'当事'
'归还'
'强度的'
'强大的'
'弱_'
'弥补'
'引导'
'引入了'
'开放_'
'开拓'
'开展工作'
'开始的'
'开了'
'建议和'
'建立和'
'延迟'
'延续'
'廉'
'庭_'
'庞大'
'应该是'
'应该在'
'应有'
'应得'
'庆'
'广泛应用'
'幼儿'
'幸'
'并重'
'并被'
'并确'
'并就'
'并且在'
'年来'
'年底'
'年会'
'干的'
'市的'
'市民'
'巴勒斯坦人'
'已获'
'已经有'
'差距'
'左右'
'巡逻'
'峰会'
'履行机构'
'尽早'
'尼亚_'
'尺度'
'就此'
'就_'
'将这些'
'将由'
'将成'
'将对'
'将于200'
'射线'
'导出'
'对非'
'对象的'
'对某'
'对方'
'对手'
'对大'
'富有'
'家里'
'家具'
'害的'
'害怕'
'审评'
'审议的'
'实验结果表明'
'实质性会议'
'实的'
'官员的'
'官员和'
'完整的'
'完善_'
'安理会的'
'安理会_'
'安全保'
'它对'
'学和'
'孟加拉国'
'孟'
'存_'
'姿'
'委员会应'
'委员会审议'
'委员会关'
'姑'
'如果我们'
'好处_'
'好几'
'女童'
'奥运会'
'奥斯'
'奇怪的'
'奇_'
'央行'
'天线'
'大会和'
'多项'
'外交官'
'复员和重返社会'
'复原'
'备忘录'
'备_'
'处罚'
'增加的'
'增加到'
'填充'
'塔吉克斯坦'
'基础设施_'
'基_'
'域_'
'垫'
'坚定'
'块_'
'场的'
'场景'
'场地'
'地点_'
'地注意到'
'地址_'
'地图_'
'地位的'
'在这里_'
'在行'
'在联'
'在欧洲'
'在某些'
'在某'
'在国家一级'
'在哪'
'在南'
'在全国'
'在于_'
'在一起的'
'在3'
'土著民族'
'国集团'
'国际法_'
'国际人道主义法'
'国家工作队'
'国家保'
'国家人权'
'围绕'
'困难的'
'团长'
'团的'
'团伙'
'因为你'
'因为他'
'回顾了'
'回顾_'
'四年'
'囚犯'
'囊'
'噪声'
'嗯_'
'喜爱'
'喜欢_'
'商定'
'哈马'
'和进'
'和运'
'和设'
'和行动'
'和第二'
'和科'
'和水'
'和民'
'和未来'
'和有效'
'和政治'
'和支持'
'和投'
'和平进程的'
'和安'
'和处'
'和国'
'和南'
'和其它'
'和关'
'和与'
'和8'
'命运'
'呼吸'
'周期_'
'周年'
'呀_'
'吸引力'
'吨'
'吧'
'吗'
'向秘书'
'向大会'
'向国际'
'向其'
'后续行动_'
'后续行动'
'名额'
'名人'
'同时考虑到'
'同事'
'合约'
'各项活动'
'各机构'
'各国的'
'各国应'
'各国_'
'各主要'
'各_'
'号决议所设'
'可行性'
'可由'
'可用'
'可以说'
'召'
'变革'
'变得更'
'受害'
'发达'
'发票'
'发生在'
'发放'
'发展目标_'
'发展方案'
'发出的'
'反映了'
'参议'
'参考_'
'参与者'
'去了'
'原先'
'历史_'
'危险的'
'危及'
'卫生部'
'卫生组织'
'卫生和'
'卢旺达_'
'南斯拉夫'
'南北'
'单元_'
'协调的'
'协定的'
'华_'
'医疗_'
'包括通过'
'势_'
'努力的'
'助_'
'动物_'
'劣'
'加重'
'加剧了'
'办事处的'
'力求'
'力和'
'前进_'
'削弱'
'制裁_'
'制定了'
'刮'
'别_'
'利益的'
'判例'
'创始人'
'刚才'
'列为'
'刑法_'
'刑事诉讼'
'分钟_'
'分歧'
'分割'
'函数的'
'出现了'
'出版物_'
'出来的'
'出席了'
'减小'
'准许'
'净额'
'决议的'
'冰箱'
'冬'
'军方'
'军事和'
'内心'
'内容的'
'兽'
'其第'
'其有'
'其他机构'
'其他人'
'关键_'
'关切的'
'关于这'
'关于本'
'共同的'
'公里'
'公报'
'公园'
'公司在'
'公司和'
'公众对'
'全面_'
'入学'
'克里斯'
'克莱'
'充足的'
'儿童基金会_'
'健康_'
'停火'
'倡议的'
'修正_'
'俩'
'信道'
'信托基金'
'信息通'
'信息系统'
'信号_'
'信函'
'促进_'
'侧重于'
'供给'
'使他们'
'使他'
'作用下'
'作物'
'何种'
'低收入'
'但是这'
'但他们'
'伯利'
'传染'
'伟大'
'伟'
'会谈'
'会晤'
'会对'
'会员国和'
'会发现'
'会使'
'会不'
'优化设计'
'优势'
'伊斯'
'以外_'
'以及联合国'
'以及向'
'以及各'
'以及与'
'以南'
'以免'
'以保'
'以上的'
'令_'
'他现在'
'他们就'
'仔'
'从他'
'今后的'
'人道主义法'
'人道主义援助'
'人权问题'
'人有'
'人或'
'人居署'
'人一'
'产生了'
'产妇'
'交易_'
'些国家'
'些人'
'亚太'
'于2000年'
'了高'
'了在'
'了关于'
'了他'
'了人'
'了不'
'了一项'
'了一种'
'乡'
'也是一'
'也将'
'乙烯'
'乏'
'主体'
'主义的'
'主义和'
'为进'
'为它'
'为基础的'
'为例_'
'为他'
'为人'
'中部'
'中美'
'中的一'
'中止'
'中介'
'中不'
'中一'
'两_'
'丢'
'东道国'
'东欧'
'业务的'
'专用'
'专家小组'
'专业的'
'丑'
'与美'
'与实'
'与和解'
'与分'
'与全'
'与人权'
'不错的'
'不满'
'不清'
'不得不'
'不当'
'不完'
'不安全'
'不准'
'不人道或有辱人格的待遇或处罚'
'下放'
'上发'
'上午10时'
'一贯'
'一致的'
'一个月'
'㈠_'
'」'
'》；_'
'─_'
'℃'
'… _'
'”、“_'
'’'
'——'
'— _'
'β_'
'yon'
'yd'
'wrong_'
'winter_'
'will'
'wild_'
'welcom'
'weak'
'watching_'
'watch_'
'ward'
'wanted_'
'visual_'
'visit'
'visi'
'violations_'
'vin'
'vice_'
'vert'
'vent'
'vegeta'
'vat'
'vari'
'uti'
'usly_'
'use'
'urn'
'urin'
'unre'
'university_'
'units_'
'ultimate'
'ule'
'turning_'
'tum'
'tru'
'transi'
'train_'
'trai'
'trag'
'track_'
'torture_'
'tment_'
'tl'
'timely_'
'tie'
'threat_'
'thorough'
'thi'
'thesis_'
'thank_'
'test'
'tension_'
'television_'
'teen'
'tax'
'tat'
'targets_'
'tang'
'tall_'
'tal'
'symbol'
'swimming_'
'suspen'
'surp'
'suppo'
'suggestion'
'suggest_'
'suggest'
'sufficiently_'
'submit_'
'studying_'
'student_'
'stru'
'strongly_'
'stro'
'strengthened_'
'stream'
'strategies_'
'stood_'
'stom'
'stly_'
'sted_'
'stay_'
'stat'
'star'
'stands_'
'stal'
'spoke_'
'sphere_'
'spend_'
'speciali'
'space'
'sort_'
'sort'
'sna'
'sl'
'sim'
'shut'
'shop'
'shoe'
'shin'
'shared_'
'separation_'
'select_'
'see'
'secure_'
'sections_'
'secretariat_'
'season_'
'search'
'scra'
'scatter'
'sb'
'sand'
'sanctions_'
'safeguard'
'rp'
'routine'
'rock'
'rl'
'rk'
'risks_'
'ria_'
'rg'
'reviewed_'
'retire'
'retain'
'ress'
'respect'
'resp'
'res'
'represent_'
'repl'
'rep'
'rent_'
'remov'
'remind'
'rely_'
'relatively_'
'reiterate'
'regulation_'
'refuse'
'reflected_'
'red'
'rect'
'recon'
'recall'
'reality_'
'reacti'
'rdi'
'ray'
'rats_'
'ration'
'rat'
'ras'
'radia'
'raci'
'quir'
'quate'
'quarter'
'qualit'
'puts_'
'push_'
'public'
'pt_'
'provi'
'prote'
'prot'
'prospe'
'propos'
'properly_'
'produce'
'processed_'
'proc'
'priorities_'
'presence_'
'prepare_'
'preliminary_'
'practi'
'pping_'
'power'
'pou'
'pose'
'pon'
'poi'
'players_'
'played_'
'plat'
'plastic_'
'plane_'
'placed_'
'pipe_'
'pieces_'
'ped'
'peaceful_'
'pay'
'park'
'parat'
'parameter_'
'papers_'
'packaging_'
'own'
'owing_'
'overse'
'outline'
'our'
'oun'
'orp'
'orm'
'organs_'
'order'
'opinion_'
'operate_'
'operate'
'ones_'
'ome'
'ogy_'
'ocean'
'occupied_'
'obst'
'nz'
'ntr'
'novel_'
'normal'
'nl'
'ngs_'
'neu'
'negotiable_'
'necess'
'nec'
'national'
'named_'
'muscle_'
'multiple_'
'moved_'
'motor'
'mot'
'mostly_'
'moni'
'moment'
'ml_'
'mito'
'miss_'
'ministr'
'mining_'
'minimum_'
'mile'
'metall'
'merc'
'medic'
'manufacture'
'mann'
'manager_'
'majority_'
'magi'
'lux'
'lower'
'los'
'looks_'
'local'
'llow'
'lite'
'lis'
'lion_'
'linked_'
'lind'
'like'
'lf'
'les'
'lend'
'lega'
'lect'
'lau'
'landscape_'
'labor'
'ko'
'kk'
'ker'
'ken'
'kan'
'jun'
'join_'
'jobs_'
'jin'
'itu'
'itt'
'ition_'
'ition'
'islands_'
'ire'
'investigate_'
'interpret'
'interf'
'interaction_'
'intensity_'
'install'
'inst'
'inspect'
'insist'
'inl'
'ink'
'initiatives_'
'ining_'
'informal_'
'infect'
'indicates_'
'indic'
'indeed_'
'ind'
'incorporat'
'incomp'
'import_'
'immediately_'
'ime_'
'illi'
'illegal_'
'ific'
'ient'
'identification_'
'ico'
'ication_'
'hydrogen_'
'huge_'
'hs'
'hos'
'horr'
'hm'
'hing_'
'hesi'
'harm'
'hardware_'
'hang'
'hammer_'
'hair_'
'guy_'
'guide'
'grown_'
'grow_'
'gri'
'gree'
'governments_'
'gol'
'gge'
'generat'
'gat'
'gain'
'fy_'
'fte'
'fro'
'free'
'fre'
'fortun'
'format_'
'forma'
'forget_'
'flood'
'flight_'
'fish'
'fir'
'finding_'
'films_'
'filled_'
'fight_'
'fifty_'
'false_'
'fair_'
'fail_'
'fail'
'extraction_'
'extended_'
'explain'
'executive_'
'execute'
'exclusi'
'ew_'
'events_'
'eth'
'ep'
'envi'
'entities_'
'ensi'
'ening_'
'engaged_'
'engag'
'ener'
'ending_'
'ender'
'ended_'
'ende'
'encounter'
'emotion'
'emissions_'
'elect'
'ein'
'egg'
'edu'
'edi'
'eau_'
'eastern_'
'easily_'
'easier_'
'eas'
'earn'
'dw'
'durable_'
'driven_'
'draft'
'doll'
'distr'
'displacement_'
'discovered_'
'discipl'
'discharge_'
'disarmament_'
'disappeared_'
'disapp'
'disa'
'director_'
'direction_'
'dge_'
'destr'
'describ'
'demonstrate'
'dema'
'deliberat'
'defence_'
'dee'
'decide_'
'dece'
'dealing_'
'dangerous_'
'damage'
'cyt'
'cutting_'
'currently_'
'cult'
'cture'
'cts_'
'ctive_'
'cross'
'criteria_'
'creating_'
'craft'
'count'
'coordinat'
'conversation'
'convention_'
'contribut'
'containing_'
'constitute_'
'const'
'consi'
'confi'
'concept'
'completely_'
'competition_'
'compe'
'compar'
'commonly_'
'com_'
'color'
'collect_'
'colla'
'cod'
'cluster'
'cloth'
'client_'
'clean_'
'classi'
'claims_'
'circumstances_'
'cil'
'chip_'
'chin'
'check_'
'characters_'
'chair'
'cess'
'cav'
'cation'
'category_'
'capture'
'capab'
'buildings_'
'broken_'
'bright'
'brea'
'bre'
'br'
'born_'
'boat_'
'bill_'
'bilateral_'
'bia_'
'ber'
'begun_'
'bed'
'becomes_'
'bath'
'bat'
'background_'
'author'
'audio_'
'attitude_'
'attend'
'atmosphere_'
'astro'
'assigned_'
'asse'
'ars_'
'arrange'
'approval_'
'appreciation_'
'appreciate'
'appoint'
'applicable_'
'announced_'
'ances_'
'anat'
'analyse'
'ana_'
'ampli'
'alt'
'allocat'
'alis'
'ah'
'advertis'
'advantages_'
'advanc'
'administ'
'adjustment_'
'accuracy_'
'accounts_'
'accepted_'
'acceleration_'
'academic_'
'abuse_'
'Zu'
'Zh'
'Yi'
'Yet_'
'Ya'
'XI'
'Wu'
'William'
'Who_'
'Wen'
'Wan'
'WS'
'VIII_'
'VC'
'Use_'
'Ukraine_'
'UP'
'UC'
'Tri'
'Trea'
'Tra'
'Tor'
'Today_'
'Time_'
'Tim'
'Thus_'
'Third_'
'Tal'
'TA_'
'Swi'
'Subs'
'Stre'
'Station_'
'Stati'
'Spo'
'Soci'
'Sm'
'Slovenia_'
'Slo'
'Simulation_'
'Si_'
'Shen'
'Seri'
'Sen'
'See_'
'Sco'
'Scho'
'Sant'
'San_'
'Safety_'
'ST_'
'Rev'
'Resources_'
'Representative_'
'Ref'
'Red'
'Ran'
'Protection_'
'Propert'
'Pri'
'Practice_'
'Please_'
'Phase_'
'Permanent_'
'Performance_'
'Paul'
'Part_'
'PV'
'PT'
'PER'
'Opti'
'Object'
'OF'
'O2'
'Ni_'
'Nan'
'NN'
'Mou'
'Mol'
'Mode_'
'Met'
'Mean'
'Main'
'Mac'
'MW'
'MA_'
'MAT'
'Ly'
'Low_'
'Look_'
'Liu_'
'Lit'
'Light_'
'Legal_'
'Last_'
'LL'
'Ky'
'Kuwait_'
'King_'
'Kar'
'Kal'
'KI'
'Just_'
'Invest'
'Instead_'
'Indonesia_'
'Improv'
'Id'
'ION_'
'IO'
'INF'
'IG'
'Hol'
'Have_'
'Hav'
'Ham'
'Hal'
'HL'
'HC'
'Gua'
'Great_'
'Ge'
'Furthermore_'
'Fal'
'Fai'
'Facebook'
'Expl'
'Exp'
'England_'
'Engine'
'Emi'
'Em'
'Electro'
'Ei'
'Earl'
'ET'
'ERI'
'EP'
'EE'
'EA'
'Don'
'Different'
'Des'
'DL'
'DD'
'DC_'
'DC'
'DB'
'Cuba'
'Cre'
'Coo'
'Conse'
'Communist_'
'Colo'
'Cold_'
'Code_'
'Cl'
'Civil'
'Chu'
'Christ'
'Child'
'Change_'
'Chang'
'Cham'
'Cer'
'CE_'
'Bosnia_'
'Boo'
'Bol'
'Black'
'Bes'
'Bay_'
'BM'
'BL'
'BC_'
'Au'
'Art'
'Ari'
'And'
'Algorithm_'
'Alb'
'Abo'
'AP_'
'AP'
': '
'9日至'
'9日第'
'8月1'
'7月2'
'71_'
'6次'
'6月30日期间'
'5年6月'
'5号'
'5万'
'4年1'
'3号决议'
'2m'
'220'
'212_'
'210'
'20世纪'
'2010年1'
'2009两年期'
'2005年1'
'2001年1'
'1次'
'1994年_'
'1990年'
'1990_'
'18个'
'170'
'150_'
'142'
'12月31日'
'12月1'
'10月2'
'10月1'
'106'
'07'
'.” _'
'.)'
',''
'). _'
'))_'
') (_'
'(《_'
'"(_'
' “ _'
' ) '
' ('
'？ _'
'；'
'１'
'＋'
'！”_'
'龙_'
'麻委会'
'鱼_'
'高级官员'
'验证_'
'马达加斯加_'
'饮用水'
'饭店'
'餐_'
'飞机的'
'飘'
'风险的'
'题目'
'颗'
'领土的'
'预计将'
'预算外'
'预期成绩'
'顿_'
'顾问_'
'项目是'
'韧'
'面包'
'面前的'
'非洲经'
'非洲人'
'非政府组织_'
'非政府'
'需要和'
'雷斯'
'零件'
'雇佣'
'集装箱'
'集的'
'集团的'
'难民_'
'难_'
'隐私'
'随后_'
'限度'
'陈述_'
'附属机构'
'阿里'
'阿尔及利亚'
'阿塞拜疆'
'防范'
'防腐'
'队_'
'阔'
'阀门'
'问题有'
'问题所'
'问题工作组'
'问题国际会议'
'问题国际'
'长达'
'长期以来'
'长大'
'锥'
'锤'
'销毁'
'银行和'
'铲'
'铬'
'钟_'
'钛'
'针对妇女'
'量子'
'量分'
'重返社会'
'重视_'
'重要的_'
'重要作用_'
'重点放在'
'重点_'
'采取措施'
'醛'
'酸性'
'酰'
'酚'
'都没有'
'部落'
'那么你'
'那_'
'遣返'
'逾'
'造的'
'造成不'
'通过向'
'通信系统'
'通信_'
'适配器'
'追求'
'迭'
'进行这'
'进行研究_'
'进行审查_'
'进行合作'
'进来_'
'进展情况_'
'进了'
'这里_'
'这笔'
'这种方'
'这种_'
'这有'
'这是因为'
'这座'
'这几'
'这些问题_'
'这些活动'
'这一问题'
'还没有'
'近东救济工程处'
'运输_'
'迈克'
'过程和'
'过程中的'
'过一'
'达成一'
'输送'
'较大的'
'轻松'
'身边'
'身上'
'踏'
'路上'
'跌'
'趣'
'超过了'
'超出'
'赢得'
'赞赏地注意到'
'资金来'
'贿'
'贩'
'质量和'
'货运'
'货币基金组织'
'财政资源'
'负担_'
'负债'
'貌'
'谨慎'
'谈论'
'谈_'
'课题_'
'课程的'
'诺贝'
'请你'
'说这'
'诱导'
'语音'
'语言的'
'语的'
'语发言_'
'详细的'
'详细地'
'该项'
'该案'
'该司'
'该决定'
'该公约'
'诞生'
'评估的'
'访问的'
'设置_'
'设立_'
'论文_'
'论坛上'
'许可_'
'议程的'
'让他们'
'订单'
'计算出'
'计划是'
'警察和'
'解释性'
'解析'
'解决方案'
'角落'
'视角'
'规模的'
'规则的'
'规例'
'要确'
'褐'
'裤'
'裁定_'
'裁定'
'袭击_'
'被送'
'被用'
'袋_'
'表演_'
'表1'
'补贴'
'衣服'
'衡'
'行李'
'行星'
'行政首长'
'行政部门'
'行政法'
'行动纲要_'
'行了'
'血统'
'血压'
'蜡'
'蛇'
'薪酬'
'薄膜'
'蔽'
'蔓'
'萨尔瓦多'
'菲律宾_'
'获悉_'
'获得_'
'荷兰_'
'荣誉'
'草案的'
'草_'
'范畴'
'范围和'
'芽'
'芯'
'节目_'
'色谱'
'良好_'
'艇'
'致命'
'至少有'
'至7'
'至6'
'至201'
'自然资源'
'自1'
'腿'
'脊'
'脆弱性'
'能满足'
'胞'
'背后'
'肯定_'
'股东'
'肌肉'
'聚集'
'聚合物'
'聚会'
'联网'
'联合国系统各组织'
'联合国秘书'
'联合国教育_'
'联合国开发计划署'
'联合国人权'
'联刚特派团'
'职类'
'而无'
'而我'
'而已_'
'而且在'
'考虑的'
'耀'
'群众'
'美联储'
'署的'
'罩'
'罕见'
'罐'
'缸'
'缩小'
'编写_'
'缔约国在'
'缉'
'维持和平行动部'
'维持和平行动_'
'维_'
'续_'
'绩'
'继续努力'
'继续为'
'给人'
'绘图'
'绕组'
'结论和'
'结果与'
'结束后'
'结合_'
'经社'
'经理_'
'经济和社会事务'
'经历_'
'经修'
'细则'
'组和'
'纽'
'纳米比亚'
'纱'
'约束_'
'约会'
'系数的'
'精神病'
'精神_'
'类似的'
'米尔'
'篮'
'管辖权_'
'管理国'
'签名_'
'筛选'
'答案_'
'答_'
'等的'
'第四条'
'第二章'
'第二_'
'第三章'
'第7条'
'第3条'
'第31'
'第2款_'
'第27'
'第14'
'符合_'
'端_'
'童工'
'竟'
'竖'
'突出的'
'穆斯林'
'稳定性_'
'称为_'
'积累'
'秘鲁_'
'秘书长的信_'
'秘书长特别代表'
'秘书'
'科的'
'科技咨询机构'
'科学的'
'科学及文化组织'
'种种'
'种植'
'种子'
'禽'
'禁止酷刑'
'神秘'
'社区的'
'示范法_'
'確'
'碑'
'确保在'
'硕士'
'研究中心'
'矮'
'知识的'
'知情'
'睡眠'
'真相'
'真理'
'真是'
'真主是'
'看着'
'看上去'
'看一'
'省_'
'相机'
'相似的'
'监察员'
'盆地'
'的高级'
'的选择'
'的进一步'
'的边'
'的资金'
'的资源'
'的费用_'
'的责任_'
'的许'
'的认'
'的计划_'
'的计'
'的角度'
'的视'
'的规定'
'的要求'
'的节'
'的背景'
'的耐'
'的缔约'
'的经济_'
'的组成'
'的第1'
'的程序_'
'的社会'
'的看法'
'的申请'
'的状况'
'的犯罪'
'的特殊'
'的特征'
'的爱'
'的热'
'的演'
'的活'
'的正'
'的概念_'
'的标准'
'的条款'
'的方案_'
'的方案'
'的改'
'的支持_'
'的抗'
'的投资'
'的成员'
'的快'
'的形式'
'的建'
'的平均'
'的就'
'的威'
'的增长'
'的和平'
'的合作_'
'的司法'
'的受'
'的参与'
'的原'
'的医'
'的动'
'的准'
'的决定_'
'的共同'
'的信_'
'的优'
'的任务_'
'的人口'
'的书'
'的义务'
'的举措'
'的临'
'的东'
'的三'
'的一种'
'的D'
'的6'
'的200'
'百分'
'白俄罗斯_'
'疾病的'
'疆'
'电子邮件'
'电子商务'
'电_'
'由联合国'
'由199'
'用水'
'生物多样性公约'
'理论基础'
'理查德'
'理会'
'理事国'
'玻'
'现在已'
'猜测'
'狱'
'狄'
'狂'
'状_'
'特里'
'特色'
'特别程序'
'特别的'
'特别是_'
'物质的'
'照片_'
'照会'
'焚烧'
'烷'
'烃'
'灯光'
'激烈的'
'激光器'
'演示'
'演化'
'滩'
'滤波'
'满意'
'滞后'
'游泳'
'游_'
'温和'
'深远'
'淀'
'涌'
'涉及到'
'消防'
'消灭'
'消毒'
'海域'
'海事'
'海上'
'测量的'
'测定_'
'测_'
'流通'
'流动_'
'活力'
'注销'
'法语'
'法案'
'法是'
'法庭的'
'泊'
'泉'
'沿着'
'沾'
'没有_'
'沟通'
'汤'
'污水'
'污染的'
'污染物'
'永远不'
'水质'
'水电'
'水印'
'水体'
'气象组织'
'民间社会组织'
'民政'
'毕竟'
'毕'
'比亚'
'每周'
'每个人'
'段时间'
'死刑_'
'死亡的'
'歧视的'
'此后'
'正如我'
'款额'
'欺诈'
'欧洲_'
'欢'
'概要'
'楼_'
'椅'
'检察官办公室'
'械'
'桌面'
'案中'
'格林'
'格拉'
'根据19'
'核准的'
'样品'
'架构'
'枪_'
'构想'
'极为'
'来说是'
'来解决'
'来源于'
'来文_'
'来实现'
'条第3款'
'材_'
'权力机构'
'权力和'
'机能'
'机场_'
'机上'
'朱'
'术后'
'本的'
'本文件'
'本文介绍了'
'本周'
'本公约'
'未来_'
'服装'
'服务贸易'
'服务提供'
'有限的'
'有限公司'
'有益'
'有机会'
'有意义'
'有意'
'有利'
'有其'
'有关的问题'
'有关各'
'有个'
'有三'
'最近在'
'最强'
'最大化'
'最后的'
'更重要的'
'更广泛'
'暴力的'
'暂行'
'暂'
'智利_'
'普遍存在'
'普查'
'显著_'
'显然_'
'是至'
'是美国'
'是现'
'是我国'
'是基于'
'是国家'
'是发'
'是其'
'是关'
'是不可'
'星期五'
'昂'
'旱'
'无效'
'无害'
'方针'
'方法进行'
'新鲜'
'新闻发布会'
'新闻中心'
'新闻_'
'新时'
'新一'
'斯顿'
'斯的'
'斯塔'
'斯先生'
'整个联合国'
'数目_'
'数学模型_'
'数字_'
'数十'
'教堂'
'救助'
'效应的'
'效地'
'政府对'
'放射'
'收集和'
'支持者'
'支持国'
'支付_'
'支_'
'撤出'
'摸'
'摩托'
'摄影'
'摄动'
'携'
'搁'
'握'
'插入'
'提案国'
'提到的'
'提供的资料_'
'提供有'
'提供技术'
'提交报告'
'措'
'控制器_'
'接纳'
'排斥'
'授权的'
'据此'
'损失的'
'损_'
'捞'
'捐款_'
'捉'
'挤压'
'按照国际'
'指派'
'指控的'
'持久的'
'拱'
'拉的'
'拉伯'
'报表'
'报告还'
'报告所述'
'护_'
'折射'
'抖动'
'投票_'
'抑郁'
'技术支'
'技术援助_'
'技术在'
'扭转'
'扩散_'
'扩大_'
'执行情况的'
'打破'
'所需资源'
'所造成的'
'所提出的'
'所带来的'
'房间_'
'或者是'
'或指'
'或任何'
'或以'
'我这'
'我看'
'我最'
'我可以'
'我们都'
'我们欢迎'
'我们应该'
'我们一'
'我从'
'成为_'
'成一'
'成_'
'慕'
'愿望'
'愤怒'
'意义和'
'想起'
'想法_'
'惯例'
'悉尼'
'悉'
'悄'
'恐怖主义行为'
'性的_'
'态的'
'忽视'
'忘记'
'志愿人员'
'忌'
'必须进'
'必须加'
'心里'
'德的'
'微量'
'微机'
'微分方程'
'律师_'
'很快就'
'很多人'
'彼得'
'影响了'
'彩色'
'当时_'
'当地的'
'当中_'
'当一个'
'强制执行'
'弱势群体'
'弃权'
'开支_'
'开心'
'开幕'
'开始了'
'开启'
'开发银行'
'开发署_'
'开发人员'
'建设的'
'廷'
'度假'
'应采取'
'应当在'
'广告_'
'广东'
'幸存者'
'并鼓励'
'并给出'
'并用'
'并根据'
'并强调'
'并建立'
'并应'
'并于'
'年轻的'
'年来_'
'平面'
'平衡的'
'平民_'
'平方公里'
'干扰_'
'干_'
'常见'
'常数'
'常会'
'帮助下'
'帝国'
'市场经济'
'巾'
'巴基斯坦_'
'已经是'
'已不'
'差别_'
'差不多'
'工商'
'工作量'
'工作条件'
'工作和'
'工会'
'工人的'
'工业化'
'巢'
'岛上'
'履'
'展的'
'届会议_'
'局长'
'局的'
'尽力'
'尼斯'
'尼尔'
'就可'
'就业的'
'尖'
'尔的'
'尔德'
'小姐'
'将非'
'将该'
'将提'
'将在20'
'将发'
'射击'
'封面'
'封锁'
'封信'
'导致的'
'导_'
'对金'
'对美国'
'对环境'
'对政府'
'对大鼠'
'对国家'
'对受'
'对其进行'
'对儿童'
'寡'
'密码'
'寂'
'家长'
'室里'
'宣言和'
'宣传活动_'
'实际的'
'实行的'
'实现这'
'定理_'
'定期报告'
'定居点'
'宏观经济'
'安置'
'安排的'
'它所'
'学科'
'学生的'
'存款'
'娘'
'娃'
'委员会鼓励'
'委员会注意到_'
'委员会提出'
'委员会对'
'委员会在其'
'姆_'
'妇女署'
'妇女地位'
'妇女和'
'妇女参与'
'如果他'
'她还'
'她是'
'奥运_'
'奠定'
'奖励'
'契约'
'奏_'
'头的'
'头发'
'太空'
'大概'
'大楼'
'大幅度'
'大家都'
'大多数人'
'大厦'
'大卫'
'大会在'
'多米尼'
'多年来'
'多元'
'外汇'
'外勤'
'外交部长'
'处理这'
'声明的'
'士_'
'增长的'
'增益'
'增强_'
'塞内加尔'
'塑性'
'堂_'
'基督教'
'基本上'
'基地'
'基因的'
'培'
'垄断'
'坚信'
'均有'
'均为'
'地雷_'
'地铁'
'地提'
'地利用'
'地下水'
'在预'
'在这次'
'在设'
'在西'
'在经'
'在确'
'在此基础上_'
'在正'
'在日本'
'在日内瓦'
'在整'
'在很'
'在建'
'在学校'
'在委员会'
'在国'
'在周'
'在区域'
'在分'
'在其中'
'在保'
'在低'
'在亚'
'在了'
'在10'
'土地_'
'图书馆_'
'国际经济'
'国际合作_'
'国际刑事法院'
'国有'
'国提供'
'国家行'
'国家机'
'国家提供'
'国家在'
'国家和国际'
'国国'
'固有'
'固体'
'因为我'
'回顾其'
'四川'
'四十'
'噪'
'嘲'
'喻'
'喘'
'喂'
'商会'
'唐纳德_'
'哪里'
'哪儿'
'和防'
'和适'
'和谐'
'和能力'
'和组织'
'和约'
'和研究'
'和知'
'和监测'
'和监'
'和现'
'和环境'
'和特'
'和治疗'
'和歧视'
'和检'
'和新闻'
'和改'
'和支'
'和恐'
'和建'
'和平进程'
'和工作'
'和定'
'和增'
'和土'
'和受'
'和发'
'和利'
'和出'
'和军'
'和儿童'
'和信'
'和促进'
'和乌'
'和三'
'和9'
'周_'
'告诉我_'
'告诉他'
'吸引了'
'君'
'吓'
'向受'
'后果_'
'后勤基地'
'名称_'
'名义'
'名为_'
'同类'
'同等'
'同性恋'
'同学'
'合法性_'
'合格'
'合同_'
'各缔约'
'各人'
'司法机'
'司法和'
'号议定书'
'号法'
'可见'
'可能需要'
'可能性'
'可根据'
'可持续性'
'可分'
'可信'
'可供'
'可以发'
'古典'
'口的'
'口头'
'叠'
'叙'
'变迁'
'变的'
'变压器'
'受害者提供'
'受害者_'
'取的'
'取向'
'取_'
'发表了'
'发的'
'发现的'
'发现了'
'发展项目'
'发展中'
'反思'
'反射'
'反对_'
'及相关'
'及在'
'及其所'
'及其家庭'
'及其在'
'叉'
'又是'
'又一'
'县_'
'去世'
'压力的'
'历_'
'厄立特里亚'
'厄瓜多尔'
'厄'
'厂_'
'即使是'
'危害人类罪'
'危害_'
'危'
'印度尼西亚'
'单独的'
'协调一致'
'半岛'
'升高'
'千年发展目标_'
'医疗保'
'区内'
'北方'
'匈牙利'
'包括对'
'包括与'
'包含了'
'勘探'
'劳动者'
'务人员'
'务_'
'加紧'
'加的'
'加热'
'加强联合国'
'加强各'
'加强了'
'加州'
'办法是'
'办公室的'
'办公室_'
'剧_'
'剥'
'前景'
'前所'
'制度和'
'制定一'
'别为'
'利用的'
'利特'
'利息'
'利和'
'判定'
'初期'
'创业'
'列出了'
'划分'
'刑罚'
'刊'
'分离_'
'分析方法'
'分析中'
'分形'
'分布式'
'分子_'
'分之'
'函数_'
'出资'
'出台'
'几种'
'几内亚比绍'
'几个月'
'减肥'
'凌'
'净化'
'决策者'
'决定将'
'军火'
'内阁'
'典_'
'具有_'
'其最'
'其后'
'其他一些'
'兵_'
'关心的'
'共和国总统'
'六个月'
'公民_'
'公布的'
'公司是'
'全球性'
'全新'
'全国人'
'全体会议上'
'兑'
'免除'
'免疫机能丧失'
'克里'
'克罗地亚'
'先生的'
'充分利用'
'元素_'
'儿童和'
'儿童与'
'储蓄'
'储'
'偿_'
'停留'
'做出的'
'做什么'
'假如'
'债务人'
'借口'
'修理'
'修建'
'信心_'
'信心'
'保留的'
'保护所有'
'保护儿童'
'保守'
'俗'
'促进发展'
'促'
'侵蚀'
'依照_'
'供资_'
'供应_'
'例子_'
'例句'
'使用这'
'使用情况'
'你真'
'你去'
'你一'
'作出_'
'作为对'
'余额'
'体验'
'体外'
'但这些'
'但对'
'估计数'
'伦理'
'传送'
'伟大的'
'伙伴_'
'优于'
'休息'
'伊拉克政'
'仿真_'
'仲裁庭'
'以解决'
'以色列的'
'以致'
'以及这'
'以及该'
'以减少'
'代表欧洲联盟'
'代表性'
'代码_'
'代的'
'他最'
'他提'
'他将'
'他们有'
'仔细'
'从一'
'从1'
'介质'
'仅为'
'人道主义事务'
'人民_'
'人权领域'
'人权状况'
'人权和'
'人受伤_'
'人力资源管理'
'人体'
'人们对'
'亮_'
'产品和服务'
'产_'
'些_'
'五届会议'
'于其'
'于2009年'
'二十一世纪'
'事务高级专员'
'事务处'
'事件的'
'事件发生'
'了那'
'了吗_'
'了他们'
'乳腺癌'
'买方'
'买卖'
'也许是'
'也可能'
'也发'
'乘客'
'乌拉圭'
'乌兹别克斯坦'
'之间的协调'
'之时'
'之日'
'之外'
'之后的'
'久_'
'举行会议_'
'举行一次'
'主要目'
'主要原因'
'为确保'
'为止_'
'为有'
'为提高'
'为各'
'为何'
'为7'
'为4_'
'为10'
'中立'
'中的作用_'
'中文'
'中心和'
'中得到'
'中可'
'个问题_'
'个案'
'个有'
'个小时'
'个体'
'个人的'
'个主'
'严重违反'
'两位'
'两人'
'丝_'
'东方'
'东南'
'东北'
'丙烯'
'世的'
'世界贸易组织'
'世界大战'
'世界卫生组织'
'专家的'
'专家和'
'专员_'
'与这'
'与生'
'与此'
'与有'
'与开发'
'与安全'
'与合作'
'与他'
'与中国'
'与一'
'不起'
'不结盟'
'不符合'
'不稳定'
'不知道'
'不知'
'不法行为'
'不断增'
'不一'
'下述'
'下跌'
'下半'
'下一个'
'上网'
'上看'
'上文第'
'上提'
'上帝'
'三角'
'三方'
'万人_'
'万人'
'一起_'
'一般事务人员'
'一段'
'一座'
'一切_'
'㈢_'
'》）_'
'─'
'∞'
'″'
'”）'
'γ'
'í'
'×'
'~'
'zy'
'yuan_'
'ytic'
'yp'
'yl_'
'ye_'
'xu'
'xis'
'xia'
'xes_'
'xed_'
'written_'
'wri'
'wou'
'wood_'
'witness'
'with'
'wishes_'
'win_'
'wh'
'welcomed_'
'welcome_'
'warned_'
'vulnerable_'
'virus_'
'vidual'
'via_'
'verification_'
'verif'
'van'
'utter'
'utin'
'urg_'
'urb'
'uran'
'universal_'
'unity_'
'ung'
'unemployment_'
'unch'
'ugh'
'ues_'
'uel'
'ucti'
'tz'
'tude_'
'tted_'
'trie'
'trends_'
'treati'
'tre'
'travel'
'transparent_'
'transparency_'
'transform_'
'tracking_'
'touch'
'tos'
'topic_'
'tooth_'
'tolerance_'
'tle'
'tive'
'title'
'tip'
'tiny_'
'time'
'tile'
'tific'
'thy_'
'there'
'therapy_'
'ther_'
'thematic_'
'tests_'
'ters_'
'tern'
'tende'
'tele'
'team'
'teaching_'
'tch'
'tau'
'tasks_'
'tary_'
'tariff'
'talent_'
'tables_'
'systematic'
'synthetic_'
'synchron'
'switch_'
'surviv'
'supplies_'
'supplement'
'superior'
'sup'
'sul'
'subjects_'
'sub_'
'street_'
'stock'
'stereo'
'square_'
'squa'
'spring_'
'spot_'
'spl'
'speech_'
'speculat'
'specialized_'
'spatial_'
'sought_'
'sod'
'sno'
'smo'
'smart'
'siti'
'sites_'
'sing'
'simulat'
'signing_'
'sig'
'sia'
'shr'
'shore_'
'shooting_'
'shift_'
'shell_'
'share'
'seventh_'
'settlement'
'served_'
'serum_'
'seri'
'sensor_'
'sell_'
'selected_'
'segment'
'seems_'
'seat'
'seas'
'screen_'
'screen'
'sci'
'schem'
'schedule_'
'sch'
'satisfy'
'satisf'
'satellite_'
'sam'
'sale_'
'salar'
'sad'
'ry'
'rule'
'rte'
'rta'
'rotation'
'rota'
'rose_'
'rop'
'rooms_'
'rit'
'ris'
'ries_'
'rib'
'revealed_'
'return'
'rete'
'restriction'
'restor'
'resis'
'replace'
'rent'
'removal_'
'remember'
'reme_'
'remarks_'
'relative_'
'relati'
'rehabilitation_'
'regulator'
'regre'
'reforms_'
'reflecti'
'ref'
'reduced_'
'recorded_'
'reasons_'
'rational_'
'rank'
'rang'
'rand'
'radiation_'
'quo'
'quick_'
'quer'
'qual'
'pus'
'pulse_'
'pul'
'publish'
'protocol_'
'protective_'
'proposals_'
'promot'
'programming_'
'profits_'
'productive_'
'procurement_'
'proceed'
'probability_'
'prison'
'prev'
'pressi'
'press'
'premi'
'pref'
'precision_'
'preci'
'pra'
'poverty_'
'possibility_'
'porta'
'ple_'
'playing_'
'planet'
'pl'
'pital'
'pill'
'pil'
'phenomenon_'
'pes'
'permanent_'
'perception_'
'pe_'
'pati'
'partial'
'paragraphs_'
'pages_'
'oxygen_'
'outstanding_'
'outs'
'outr'
'outp'
'outer_'
'ous'
'ote'
'orti'
'orte'
'origin_'
'organizational_'
'org_'
'ordinary_'
'orc'
'option_'
'optimis'
'optimal_'
'operator'
'opened_'
'open'
'oned_'
'ond'
'onary_'
'onal'
'oma_'
'ogra'
'oga'
'odi'
'occurs_'
'occ'
'observers_'
'observation_'
'northern_'
'nor_'
'nomi'
'node'
'nm'
'nk'
'nity_'
'nit'
'nis'
'night'
'nge'
'neuro'
'nent_'
'negotiation_'
'nee'
'nda_'
'nas'
'nano'
'mus'
'mur'
'mped_'
'moti'
'mortality_'
'morph'
'modul'
'model'
'mix'
'missing_'
'misc'
'mirror'
'mini'
'mind_'
'migrants_'
'microscope_'
'meta'
'mess'
'mer_'
'mental_'
'mens'
'memori'
'membership_'
'melt'
'medicine_'
'medi'
'measured_'
'mean'
'mbi'
'maybe_'
'mate_'
'marked_'
'margin'
'managers_'
'magnet'
'macro'
'lv'
'luen'
'lude'
'lth'
'loy'
'lowest_'
'lou'
'listen'
'liquid_'
'lip'
'ling'
'lig'
'lies_'
'license'
'librar'
'liabilit'
'ley_'
'lett'
'ler'
'lear'
'leads_'
'laund'
'launch_'
'latter_'
'latin'
'las'
'lap'
'lant'
'kt'
'knows_'
'kni'
'kn'
'kid'
'key'
'kers_'
'kept_'
'jus'
'jurisdiction'
'jur'
'judici'
'j_'
'ix'
'iver'
'itim'
'ites_'
'istic_'
'isin'
'ish'
'irre'
'iro'
'iri'
'involv'
'invite_'
'invi'
'invest'
'invention_'
'inva'
'intr'
'inten'
'intelligent_'
'insulat'
'insul'
'insufficient_'
'instrument_'
'installation_'
'inse'
'ino'
'innovation_'
'inno'
'inject'
'infr'
'iner'
'industries_'
'incre'
'incident_'
'impu'
'imposed_'
'impli'
'immigra'
'imaging_'
'ill'
'ik'
'ified_'
'ideolog'
'identity_'
'icult'
'ically_'
'iation_'
'ht_'
'housing_'
'hotel_'
'hospitals_'
'hospital_'
'hon'
'hme'
'hion'
'hil'
'helping_'
'helped_'
'heating_'
'heal'
'hazard'
'hat_'
'hai'
'habit'
'gular'
'guarantee_'
'gre'
'graphic_'
'gran'
'graduat'
'govern'
'gos'
'gn_'
'glu'
'gli'
'gic'
'gger_'
'get'
'generates_'
'gener'
'gea'
'gation_'
'gastric_'
'gas'
'gain_'
'fus'
'fund_'
'fun_'
'friendly_'
'foster'
'forming_'
'force'
'focus'
'fly_'
'fluid_'
'flower'
'floc'
'flo'
'fine_'
'filter'
'fficien'
'ffic'
'feedback_'
'federal_'
'feasib'
'fall'
'fair'
'failed_'
'faci'
'faces_'
'faced_'
'eye'
'extremely_'
'extension_'
'expos'
'expect_'
'exh'
'exer'
'exempt'
'excess_'
'examine'
'ex'
'ew'
'evaluated_'
'estimates_'
'estimat'
'ers'
'erp'
'ern_'
'erit'
'erg'
'ere'
'equi'
'ensur'
'eno'
'engagement_'
'enemy_'
'ends'
'encourages_'
'enar'
'enact'
'enabl'
'employee_'
'emerging_'
'eme'
'elo'
'elin'
'eliminati'
'elaboration_'
'ee_'
'editor'
'ede'
'economi'
'earthquake_'
'duty_'
'drop_'
'drivers_'
'driver_'
'dos'
'door'
'div'
'ditio'
'district_'
'disseminat'
'display_'
'disaster_'
'disab'
'difficulties_'
'differential_'
'died_'
'die'
'dict'
'diam'
'det'
'destroyed_'
'designate'
'dera'
'deposit'
'depends_'
'delegations_'
'del'
'definit'
'deeply_'
'deepe'
'declare'
'danger_'
'dam_'
'dal'
'dai'
'customers_'
'cup'
'crowd'
'crop'
'criminal'
'credit'
'creativ'
'couples_'
'count_'
'cost'
'corner'
'corn_'
'coordinate_'
'cooperative'
'convey'
'conventional_'
'conve'
'controlling_'
'contributed_'
'constraint'
'considerable_'
'consequen'
'connecti'
'connected_'
'configuration_'
'concluded_'
'composite'
'compose'
'compil'
'compete'
'compensation_'
'commission_'
'comment_'
'collapse_'
'coin'
'club_'
'clu'
'clothes_'
'clos'
'classification_'
'cide'
'chol'
'chocolate_'
'ching_'
'chil'
'chen'
'chemi'
'chee'
'cham'
'challenge_'
'chain_'
'cere'
'cer_'
'carri'
'capacities_'
'cand'
'camps_'
'calc'
'buy'
'buck'
'brush'
'broadcast'
'brin'
'breath'
'breakfast_'
'box'
'boundary_'
'bottle'
'bos'
'book'
'bone_'
'blue'
'blin'
'biological_'
'bili'
'biennium_'
'bic_'
'believed_'
'bee'
'beauty_'
'bac'
'azi'
'award'
'avoid'
'ava'
'autonom'
'authorize'
'audit_'
'audience_'
'audi'
'attractive_'
'ational_'
'associat'
'assess'
'assembly_'
'arrived_'
'arrest_'
'aria'
'arbitra'
'aqu'
'approximat'
'approaches_'
'applica'
'appar'
'apart'
'ao'
'answer'
'anger'
'anced_'
'analys'
'amp'
'amount'
'ame'
'alternati'
'allie'
'ala'
'ake'
'ail'
'aggre'
'affecting_'
'advoca'
'adopting_'
'adjo'
'adapta'
'activist'
'accuse'
'accu'
'account'
'accom'
'accident'
'accelerat'
'acced'
'absorb'
'abr'
'abandoned_'
'][_'
'\u _'
'\u'
'Zo'
'Zn'
'Yugoslavia_'
'Yes_'
'Will_'
'Why_'
'Weld'
'Wednesday_'
'Wave'
'War_'
'Wal'
'WTO'
'WP_'
'WI'
'Vice_'
'Ver'
'Ven'
'VB'
'Up'
'Ultra'
'UNMI'
'UNEP_'
'UL'
'Typ'
'Turkey_'
'Tradi'
'Tokyo_'
'Thailand_'
'Teaching_'
'Tax'
'TU'
'TO_'
'S的'
'Swed'
'Sup'
'Strength'
'Stock'
'Stan'
'Spe'
'Spanish_'
'Soli'
'Six'
'Sit'
'Simpl'
'Sign'
'Shar'
'Several_'
'Sc'
'Saudi_'
'SS_'
'SR_'
'SP_'
'SL'
'Rwanda_'
'Rub'
'Romania_'
'Robert_'
'Rest'
'Relations'
'Red_'
'Reco'
'Rai'
'RF'
'RE_'
'Qin'
'Qa'
'QT'
'Py'
'Pur'
'Publi'
'Prop'
'Project_'
'Program'
'Pressure_'
'Pr'
'Poland_'
'Plan'
'Phili'
'Peace'
'Pan'
'Palestin'
'Pakistan_'
'PA_'
'Ox'
'Operat'
'Op'
'Ok'
'Off'
'Obama_'
'OT'
'OI'
'Norway_'
'Nob'
'Nevertheless_'
'Nat'
'Nas'
'NT_'
'NGO'
'NET'
'Motor'
'Moreover_'
'Moon_'
'Monitoring_'
'Mill'
'Mil'
'Mig'
'Micro'
'Mel'
'Maybe_'
'Mart'
'Mark'
'MM'
'ML'
'Ltd_'
'London_'
'Local_'
'Loa'
'Liber'
'Li_'
'Lar'
'La_'
'LAB'
'Kos'
'Kin'
'Jin'
'Jia'
'Jes'
'Jam'
'Jac'
'JA'
'Integra'
'Insi'
'Influence_'
'Inde'
'Identi'
'IB'
'Huang'
'Hot'
'Hor'
'Herzegovina_'
'Harvard_'
'HR'
'HO'
'Guang'
'Gri'
'Gree'
'Gre'
'Governing_'
'Good_'
'Gl'
'Ger'
'Gen'
'GIS_'
'GI'
'GH'
'Four'
'Financial_'
'Fifth_'
'Federal_'
'FU'
'FP'
'FF'
'Eve'
'Eu'
'Et'
'Est'
'Equal'
'Environment_'
'Eli'
'EU_'
'ENT_'
'EF'
'Dop'
'Disp'
'Direct'
'Develop'
'Denmark_'
'Dea'
'DU'
'DIS'
'Cur'
'Cultur'
'Countr'
'Coun'
'Continu'
'Cont'
'Cond'
'Compre'
'Compl'
'Comp'
'Cl_'
'Cap'
'Cai'
'CG'
'CA_'
'CAD_'
'Bri'
'Bran'
'Bla'
'Bet'
'Ban'
'Bal'
'BO'
'Archi'
'Appli'
'Annex_'
'Ann'
'Air'
'Ai'
'Agent'
'Afghanistan_'
'Affairs_'
'Acti'
'APPLICATION_'
'@_'
'='
'; (_'
'9年_'
'97_'
'950'
'92'
'81_'
'7月31日'
'7月1日至200'
'77国集团和中国'
'6段'
'5号决议'
'4段'
'400美元'
'3年1'
'3和'
'2日第'
'2号决议'
'2O_'
'21世纪'
'2020'
'202'
'2016'
'2007年1'
'2005年_'
'2003'
'2002年_'
'2002年3月'
'2000年_'
'2000年1'
'2000'
'1年1'
'1号决议'
'1个P_'
'1997年1'
'1991_'
'1949'
'186'
'139'
'11月2'
'115'
'113'
'104'
'0月2'
'0年代'
'0年1'
'0号'
'0万美元'
'0s_'
'09'
'07_'
'---'
'); _'
'%)。_'
'#_'
' 《_'
' ℃'
' /_'
' ($_'
'～'
'９'
'－'
'％）'
'鼓励_'
'麻醉药品'
'鲁_'
'魅力'
'高原'
'高中'
'骄傲'
'马耳他'
'马克'
'马丁'
'香港的'
'首要'
'馆_'
'饼'
'饲料'
'饱'
'餐厅'
'飞行员'
'额外的'
'题的'
'领导人的'
'领导下'
'预期_'
'预定'
'顾客'
'非洲和'
'非洲_'
'非常重要的'
'需要加强'
'需要一'
'集会'
'难民营'
'难民事务高级专员'
'隐藏'
'陪伴'
'除外_'
'陌生'
'附加议定书'
'阿_'
'阵线'
'防空'
'阱'
'阅'
'阁下_'
'闸'
'闷'
'问题仍然'
'问题专家'
'门户'
'长远'
'长时间'
'长和'
'银行业'
'钩'
'钦'
'钥'
'钓'
'量为'
'野外'
'重要性'
'重的'
'重点是'
'重新审'
'重大_'
'里约'
'采访时'
'采访'
'采用_'
'采取适当'
'采取的行动_'
'采取的措施'
'采取有效'
'酷刑的'
'酵母'
'配备'
'配_'
'都被'
'都是在'
'都可'
'部门和'
'部长级会议'
'部分原因'
'部位'
'那么多'
'那一'
'遗憾的是_'
'遍'
'通过以'
'通过了关于'
'通过了一'
'途_'
'透明的'
'选项'
'逆转_'
'逆转'
'适当地'
'适_'
'送_'
'退还'
'追究'
'追溯'
'迹象_'
'迫切需要'
'连贯'
'连接到'
'违反_'
'远的'
'进行有'
'进行审'
'进行协'
'进行分析_'
'进的'
'这种做法'
'这时'
'这所'
'这名'
'这可能'
'这包括'
'这使'
'这些人'
'还请'
'还能'
'还可以'
'还与'
'还_'
'运转'
'运用_'
'迁移'
'辨识'
'辞职'
'辐'
'辊'
'轴承'
'转动'
'转到'
'身份_'
'路线图'
'跨国公司'
'跟他'
'起飞'
'走路'
'赫尔'
'赠款'
'赞比亚'
'赞扬_'
'赔偿_'
'费的'
'费率'
'贸易的'
'贸易和发展'
'贫穷和'
'贫困和'
'贫困_'
'质疑_'
'货物和'
'账目'
'财政管理'
'财富'
'财产的'
'负面影响'
'负载'
'贝尔'
'豁免_'
'谎'
'谋杀'
'调用'
'课_'
'请注意'
'说道_'
'说法_'
'说了'
'说一'
'语用'
'语和'
'该议'
'该等'
'该特'
'该模型'
'该机构'
'该国政府'
'该协'
'该分'
'话题'
'话的'
'诗_'
'词语'
'诉讼_'
'评估小组'
'证实_'
'证件_'
'设计出'
'设计了'
'设计与'
'设立了一'
'设施和'
'设备的'
'论坛第'
'许多国家'
'许可'
'讲话'
'讲_'
'记_'
'议程项目_'
'让_'
'认可_'
'订明'
'计算方法_'
'计划署_'
'计划中'
'警察_'
'解释说_'
'解决了'
'观念_'
'观察员_'
'見'
'要求提供'
'要有'
'裙'
'裕'
'裂纹'
'袭'
'被逮捕'
'被迫'
'被认为是'
'被捕'
'被指'
'被剥夺'
'被_'
'衰退'
'衰减'
'表示关切_'
'表示关'
'表决_'
'表2'
'补助'
'衔'
'行政当局'
'行政_'
'行性'
'行动方案'
'行使_'
'行为负责'
'行为和'
'行业_'
'血液'
'蜂'
'虽然这'
'虐待_'
'蕾'
'蓬'
'蒸'
'菜单'
'菌_'
'菇'
'获的'
'草案第'
'草地'
'范围内_'
'英里_'
'苦_'
'花_'
'芬兰_'
'艺术家'
'艰难'
'艰苦'
'舰'
'航空公司'
'舟'
'舒服'
'舆论'
'致_'
'至第'
'至少1'
'至4'
'至19'
'至12'
'自身的'
'自愿捐款_'
'自决权'
'自信'
'自201'
'膏'
'能让'
'能够在'
'能受'
'能做'
'能会'
'胶质'
'胜任'
'胚胎'
'胖'
'背景下_'
'胀'
'肯尼亚'
'肩'
'肢'
'联黎部队'
'联想'
'联塞'
'联合国维'
'联合国工'
'联合国大'
'联合国全'
'而遭'
'而进行的'
'而设'
'而易'
'而将'
'而做'
'而作出的'
'而上'
'者在'
'者可以'
'老挝'
'翅片'
'群体的'
'美金'
'美尼亚'
'美好的'
'美国政府'
'美国和'
'美_'
'罪行的'
'罪名'
'罗姆'
'罗伯'
'网站上'
'网的'
'缺陷的'
'编写一份'
'维持和平行动的'
'维尔'
'维亚'
'续会'
'继续努力_'
'继续与'
'继电'
'统计的'
'统计学'
'给她'
'给他们'
'给_'
'结束时'
'经验的'
'经验和'
'经费筹措'
'经营_'
'经济活动'
'终于'
'细胞的'
'线电'
'线圈'
'纽约时报_'
'纶'
'纵向'
'纳入国家'
'纲领_'
'纲'
'纪录'
'约为'
'约2'
'红十字'
'纠纷_'
'紧急状'
'紧张_'
'索赔_'
'素质_'
'系统进行'
'系统地'
'糟糕'
'糖_'
'糕'
'糊'
'粉红色'
'粉末'
'类的'
'类别的'
'管辖权的'
'简直'
'签证'
'签订的'
'策_'
'筑'
'等离子'
'等国'
'第十四'
'第十一'
'第五条'
'第一章'
'第8条'
'第61_'
'第5款'
'第23'
'符合国际'
'竭'
'竞争力_'
'竞'
'立陶宛'
'立_'
'空调'
'空军'
'稳定和'
'移民_'
'称赞'
'称的'
'积极地'
'秘书处和'
'科学技术'
'科学家们'
'科威特_'
'种族歧视'
'种族主义_'
'种族_'
'秋季'
'禽流感'
'祭'
'神的'
'祝贺'
'社会服务'
'社会和经济'
'礼的'
'礼_'
'示例'
'磁性'
'确认的'
'确实_'
'确保联合国'
'硬度'
'硫酸'
'硝'
'破碎'
'破坏了'
'研究结果'
'研究生'
'研究显示_'
'研究成果'
'研究对'
'研究人员'
'研制的'
'石头'
'短_'
'矢'
'着这'
'着的'
'着我'
'真诚'
'看到了'
'看到_'
'盾'
'相结合的'
'相符'
'相当_'
'相干'
'相对较'
'相关方'
'直接的'
'盟友'
'盛行'
'盗版'
'的领导'
'的预算'
'的项目_'
'的非洲'
'的限制'
'的部分'
'的邮'
'的那样_'
'的速度'
'的这一'
'的还'
'的运动'
'的车'
'的资料_'
'的资料'
'的说'
'的话'
'的设计_'
'的设'
'的角色'
'的要'
'的老'
'的综合'
'的结果_'
'的结构'
'的紧'
'的系统'
'的筹'
'的竞'
'的积极'
'的科学'
'的病'
'的用户'
'的现象'
'的特点_'
'的特别'
'的深'
'的消息'
'的活动'
'的步'
'的正式'
'的检'
'的条件_'
'的服务_'
'的最高'
'的最后'
'的旅行'
'的方'
'的故事'
'的政策_'
'的收入'
'的措施'
'的损失'
'的房'
'的战略'
'的感觉'
'的弹'
'的延'
'的年度'
'的客户'
'的审议'
'的实质'
'的实施'
'的官员'
'的宗旨'
'的完'
'的安全_'
'的孩子'
'的学'
'的存在'
'的女性'
'的头'
'的声明'
'的培训'
'的同时_'
'的可持续'
'的变化'
'的原因'
'的原则'
'的危'
'的协议'
'的化'
'的初'
'的准则'
'的决'
'的关系_'
'的关于'
'的信心'
'的使用_'
'的位置'
'的会'
'的优先'
'的任务'
'的事情_'
'的事_'
'的了'
'的主要原因'
'的临时'
'的5'
'百分比'
'癌症'
'症_'
'病和'
'病变'
'病例'
'疗效'
'疑虑'
'界面_'
'电阻率'
'电阻'
'电网'
'电气'
'申请_'
'用这'
'用以'
'生素'
'生理'
'生日'
'生效后'
'生态系统的'
'生命的'
'理论研究'
'理论和'
'理解的'
'理学'
'球队'
'球的'
'珍'
'珊'
'环节_'
'环境下'
'玩_'
'玉'
'猎'
'狮子'
'狭窄'
'犯罪行为'
'犯_'
'牺牲'
'特朗普总统'
'特工'
'特别注意'
'特别_'
'特丹'
'牵头'
'爱沙尼亚'
'爱情'
'爱尔兰_'
'煮'
'焦虑'
'点和'
'炎_'
'激活'
'激发'
'演习'
'漏洞'
'漆_'
'滚动'
'溶剂'
'渠道_'
'渐渐'
'渐开线'
'添'
'深处'
'深圳'
'深刻的'
'液_'
'润滑'
'涉嫌'
'消除对妇女歧视'
'消除对妇女'
'涂层'
'流行病'
'派的'
'派出'
'活的'
'活性_'
'活动有'
'洛杉矶'
'注的'
'波的'
'法律框架_'
'法学'
'法令'
'法人'
'泄漏'
'泄'
'沥青'
'没能'
'没有一'
'沙拉'
'沉积'
'污染_'
'汇编_'
'汇率'
'求解'
'汀'
'水溶'
'水文'
'水分'
'氛'
'气流'
'民族的'
'民主_'
'比利时_'
'比利时'
'比以'
'毁灭性武器'
'毁灭'
'残疾儿童'
'死去'
'死于'
'武装团体'
'此方'
'此一'
'正规'
'正好'
'正在采取'
'正交'
'歌曲'
'款规定_'
'欢迎秘书长'
'次级'
'次序_'
'横向'
'概览_'
'椒'
'植物_'
'检索'
'检察院'
'梯度'
'桥_'
'档'
'桃'
'格兰'
'根源'
'根据这些'
'根据安'
'核证'
'核能'
'核心问题'
'栋'
'标记_'
'标的'
'标志着'
'标志_'
'标志'
'标准化'
'查阅'
'查找'
'某人'
'架_'
'林的'
'极高'
'板上'
'来进行'
'来看'
'来提'
'来加'
'来了_'
'来了'
'条款的'
'杠'
'杉'
'权利宣言'
'机票'
'机构及'
'机控制'
'机动'
'机关的'
'机会平等'
'术语_'
'本项'
'本次'
'本案'
'本月'
'本文通过对'
'本文研究了'
'本文根据'
'本区域'
'木材'
'有趣'
'有资'
'有能力'
'有罪不罚'
'有组织犯罪'
'有理'
'有明显'
'有很'
'有关国际'
'有两个'
'有一天'
'月份'
'月3'
'最高_'
'最近的一'
'最近的'
'最富'
'更正'
'更是'
'暴力侵害妇女'
'暗示'
'晋'
'時_'
'显示出'
'显示了'
'是非常'
'是自'
'是的_'
'是没有'
'是更'
'是无'
'是支'
'是什么_'
'是什么'
'是为'
'是中'
'是不能'
'是2'
'星期三'
'明确地'
'时间表_'
'时间和'
'时机'
'时报'
'时刻_'
'时也'
'旬'
'早些时候'
'日第'
'日历'
'无视'
'旁边'
'施政'
'方面进行'
'方面有'
'方面提'
'方面取得的进展'
'方法研究'
'方法来'
'方案中'
'方和'
'新闻部'
'新西兰'
'斯德哥尔摩'
'断_'
'斗争'
'斐济'
'文职人员'
'文章_'
'整数'
'数百'
'数据库的'
'数据处理'
'数值模拟'
'数以'
'教学的'
'教学中'
'效率的'
'故_'
'政策和方案'
'政治和'
'政府提供'
'放的'
'改革和'
'改性'
'支配'
'操纵'
'播放'
'摆在'
'摄像'
'援引'
'揭示了'
'提示'
'提升_'
'提出的问题'
'提出了一种基于'
'提倡'
'提供资料_'
'提供经'
'提供有关'
'提供援助'
'提供一个'
'掺杂'
'措词'
'措施和'
'掩'
'接头'
'接受这'
'接受的_'
'接下来'
'接_'
'探测器'
'掘'
'排序'
'排名'
'挑战和'
'按照第'
'指责'
'指明'
'指控_'
'指挥官'
'持续不断'
'持和平行动'
'持久性'
'拿到'
'拯救'
'拟议预算'
'拖延'
'拓扑'
'拍照'
'拉加'
'拉克'
'担负'
'抵押'
'报复'
'报告第'
'报告以'
'报告了'
'护照'
'护人'
'抚养'
'投入_'
'把这些'
'把自己'
'技术人员'
'技巧_'
'技巧'
'承诺和'
'承受'
'扯'
'扩张'
'执行部分第'
'托管'
'托克'
'打击恐怖主义'
'扎伊'
'手册'
'扁'
'所面临的'
'所采'
'所表'
'所用'
'所有权_'
'所有权'
'所有会员国'
'所有人都'
'所承'
'所学'
'所做'
'所以这'
'所以我们'
'房产'
'战略框架'
'战斗_'
'战士'
'战争罪'
'或非'
'或经'
'或可'
'或公'
'或一'
'我需要'
'我给'
'我没有'
'我必'
'我已经'
'我可'
'我发现'
'我做'
'我们需要'
'我们相信'
'我们现在'
'我们正'
'我们最'
'我们是'
'我们才'
'我们可'
'我们仍'
'我不能'
'成绩_'
'成立的'
'成立了'
'成效_'
'懒'
'慰'
'慢慢'
'慢性'
'慢_'
'慎'
'感染的'
'意愿_'
'意在'
'意图'
'愉快'
'想象'
'惩治'
'惜'
'惑'
'惊人'
'情景'
'情形'
'悲伤'
'悬挂'
'悬'
'患者_'
'悠'
'息的'
'恨'
'恐怕'
'总计划'
'总统_'
'总线'
'性状'
'性意'
'急性'
'思路'
'忙_'
'必须对'
'必须为'
'必定'
'心脏病'
'心灵'
'得起'
'得到执行'
'得出的'
'得_'
'徒_'
'很多_'
'征求'
'往来'
'影响力'
'形状'
'形容'
'当的'
'当日'
'当今'
'归属'
'强调指出_'
'强大'
'强制性'
'弹道导弹'
'张力'
'弊'
'开玩笑'
'开展合作_'
'开始实'
'开发和'
'建设性'
'建议缔约国'
'建议对'
'建立起'
'建立信'
'度和'
'废水'
'废料'
'底_'
'应考虑'
'应注意'
'应变'
'序言部分第'
'广场'
'幸运'
'并防止'
'并进行'
'并要求'
'并注意到'
'并无'
'并提出了'
'并开'
'并尽'
'并实'
'并制'
'并利用'
'并分'
'并作'
'并且不'
'年期'
'年初'
'年12月'
'平等和'
'平方'
'帽'
'常驻联合国'
'常驻代表'
'常见的'
'常用'
'带到'
'帕特'
'希望在'
'师的'
'布雷顿森林'
'布莱'
'布拉格'
'布什总统'
'布_'
'市政'
'币_'
'巴拉圭'
'巴布'
'已经开始'
'已经不'
'已成为'
'己的'
'工资率'
'工资_'
'工程的'
'工程师'
'工的'
'工厂_'
'工作组提'
'工作方案的'
'工作场所'
'工作地点'
'岁时'
'岁以下'
'屿'
'属性_'
'属_'
'展示了'
'屏'
'屈服'
'居民的'
'层空间'
'尼日利亚_'
'尸体'
'就是这'
'就已经'
'就决议草案A_'
'少量'
'小部'
'小说_'
'小波'
'小武器'
'小时_'
'小心'
'小孩'
'對'
'尊重人权'
'将自己'
'将包括'
'将出'
'将人'
'封闭'
'导航'
'导致_'
'对那'
'对自'
'对称'
'对流'
'对比_'
'对有关'
'对性'
'对应'
'对工'
'对小'
'对她'
'对和'
'对以'
'家属'
'家园_'
'家具_'
'宣传_'
'客户的'
'审查会议'
'审查了'
'审慎'
'实验_'
'定稿'
'定性'
'定价'
'定于20'
'宗旨和'
'安全问题'
'安全部门'
'安全理事会第1'
'安全理事会的'
'安全理事会主席'
'它可以'
'它们提'
'孩子的'
'学院的'
'学研究'
'学术界'
'孤独'
'孤'
'字符'
'字段'
'嫌疑'
'委员会已'
'妈妈_'
'妇女发展'
'如果在'
'如果他们'
'如同'
'如今_'
'好的_'
'好吧_'
'女子'
'奠定了'
'奇怪'
'央'
'夫妇'
'大选'
'大臣'
'大纲'
'大约1'
'大学生'
'大大提高'
'大会还'
'大会第5'
'大众'
'大不列颠及北爱尔兰联合王国'
'多哈'
'多人'
'外的'
'外层空间'
'外围'
'外包'
'复合材料'
'备受'
'备份'
'增大_'
'填料'
'基斯坦'
'基地_'
'基准'
'基伍'
'基于D'
'城市化'
'城堡'
'均衡'
'地进行'
'地形'
'地基'
'在这种情况下_'
'在这种'
'在规'
'在被'
'在英'
'在网'
'在第一'
'在秘'
'在科索沃'
'在海'
'在波'
'在法律'
'在水'
'在武装冲突'
'在总'
'在布'
'在处理'
'在可'
'在发'
'在农'
'在内_'
'在作'
'在伊'
'在一定程度上'
'在7'
'在2008年'
'在20'
'在1999年'
'圣诞节'
'图案'
'国际社会的'
'国际电'
'国际安全'
'国际和'
'国际原子能机构'
'国际劳工组织'
'国防'
'国王'
'国家都'
'国家能'
'国家管'
'国家方'
'国内生产总值'
'园区'
'因素的'
'因此需要'
'因为_'
'回家'
'回去'
'四名'
'嘴_'
'啦_'
'哭'
'哥本哈根'
'咨询意见'
'咨询和'
'咨商地位'
'和黑'
'和集'
'和金融'
'和转'
'和语言'
'和计'
'和规'
'和虐待'
'和网络'
'和经济发展'
'和经'
'和第2'
'和程序'
'和私'
'和确'
'和目'
'和生产'
'和理'
'和消除'
'和有关'
'和方法'
'和效'
'和承'
'和扩'
'和所'
'和战'
'和成'
'和年'
'和家庭'
'和委内瑞拉'
'和基本自由'
'和全球'
'和体'
'和优'
'和他的'
'和产'
'和交'
'和中国'
'和专'
'和S'
'和6'
'和5'
'和10'
'呵'
'周日'
'吻合'
'吸烟'
'听起来'
'听取了'
'听_'
'否决'
'向联合国'
'向缔约'
'向第'
'后果'
'后期'
'后发'
'后代'
'名词'
'同期'
'同一个'
'吉尔'
'合理_'
'合物'
'合伙'
'各国政府和'
'叶_'
'史蒂'
'史密斯'
'可靠的'
'可通过'
'可行'
'可能还'
'可持续发展问题'
'可再生能源'
'可以看到'
'可以提'
'可以帮助'
'可以为'
'叫_'
'另一些'
'句子_'
'古老的'
'古巴_'
'口基金'
'变革_'
'变更'
'受过'
'受到了'
'受了'
'取得进展_'
'发育'
'发生变'
'发挥作用'
'发布了'
'发展机'
'发展伙伴'
'发展与'
'反恐怖主义'
'及的'
'及国'
'及各'
'及其对'
'及2'
'参观'
'参加这'
'参加者'
'参与了'
'去的'
'原理'
'历史性'
'厅_'
'卵巢'
'却有'
'却是'
'却不'
'即使在'
'危害'
'危地马拉_'
'危地马拉'
'印第安'
'博士_'
'南苏丹'
'南南合作_'
'单片'
'单向'
'协调机'
'协会_'
'华尔街'
'半径'
'半导体'
'千年'
'十届'
'十分重要的'
'十分重'
'十八'
'十五'
'医院的'
'区域间'
'区域组织'
'区域和国际'
'区域协'
'区域中心'
'区和'
'区别_'
'北京的'
'化工'
'化和'
'化了'
'勾'
'募'
'勇'
'勃'
'助长'
'动机'
'加深'
'加强国际'
'加强和'
'加密'
'加固'
'加共'
'加入了'
'力度_'
'副主席_'
'前进'
'前提下'
'前任'
'前一'
'刻_'
'刹'
'制裁委员会'
'制成'
'到20'
'利用这'
'利用自'
'利用外'
'利斯'
'初创'
'创立'
'创意'
'创建一'
'刚刚'
'则应'
'刑事法'
'分量'
'分的'
'分析法'
'分区'
'分别是'
'分列'
'凿'
'出发'
'出了一'
'几百'
'几十年'
'减缓'
'减灾'
'减少灾害'
'减压'
'减免'
'凋'
'决议草案的'
'决不'
'冬天'
'农业部'
'军队_'
'军用'
'军备'
'军事人员'
'写作'
'冗'
'内政'
'内存'
'养老金'
'养成'
'养_'
'具体_'
'其结'
'其对'
'其国'
'其发'
'其他方'
'关于儿童'
'关于20'
'共同主'
'六种'
'公里_'
'公认的'
'公约草案'
'公约的'
'公立'
'公安'
'公告_'
'公共部门会计准则'
'公共卫生'
'八_'
'全球经济'
'全球化的'
'全民'
'入侵'
'兑换'
'光度'
'先知'
'先生在'
'先生和'
'先生主持'
'充分参'
'儿基会'
'健全'
'做一'
'偏离'
'假期'
'倾向'
'俱'
'保护人权'
'保健服务'
'促进了'
'侧重'
'侣'
'供应链'
'例外_'
'使这'
'使用武力'
'使用了'
'使我们'
'使它'
'使国'
'使团'
'佣'
'你需要'
'你这'
'你认为'
'你是否'
'你必须'
'你可能'
'你只'
'你了'
'作家'
'作出贡献_'
'作出决定'
'作为第'
'作为其'
'住院'
'住所'
'住房_'
'位的'
'但没有'
'但是在'
'但却'
'但_'
'似宜'
'估计数_'
'伪造'
'伤亡'
'伤_'
'会议提供'
'会计制'
'会期'
'会是'
'伙_'
'众人'
'伍'
'伊朗伊斯兰共和国_'
'伊斯兰会议组织'
'份报告'
'任务规定_'
'件的'
'以适'
'以联合国'
'以法'
'以改善'
'以帮助'
'以外'
'以增强'
'以及非'
'以及其'
'以及全'
'以及为'
'以利'
'代表团的'
'代表以'
'代理主'
'代之'
'他那'
'他认为'
'他被'
'他正'
'他很'
'他可'
'他决'
'他们能'
'他们将'
'他们一'
'他为'
'从各'
'从上'
'从一开始'
'从19'
'仍然有'
'仍未'
'今晚'
'什么样的'
'人身'
'人说'
'人类的'
'人权文书'
'人才'
'人对'
'人员在'
'人们_'
'亲属'
'享有的'
'产生_'
'交_'
'亡率'
'亚洲及太平洋'
'亚太经社会'
'互补'
'云南'
'于2013年'
'于2008年'
'于2004年'
'于2002年'
'事项的'
'事的'
'事宜'
'事务的'
'争论'
'了解和'
'了解到'
'了第'
'了有'
'了我们'
'了很'
'了她'
'了各'
'了你'
'了他的'
'了个'
'了20'
'乱_'
'书籍'
'书处'
'乡村'
'乡_'
'习_'
'也要'
'也就'
'乔治_'
'之际_'
'之间的联系_'
'之路_'
'之外的'
'之内_'
'举行第'
'举行的非'
'举行的第'
'举措的'
'丽莎'
'主题_'
'主要研究'
'为高'
'为联合国'
'为维'
'为法'
'为每'
'为提'
'为我们'
'为我'
'为外'
'为国'
'为保'
'为促进'
'为3_'
'为200'
'临时议程_'
'临时议程'
'中非共和国'
'中等'
'中有关'
'中方'
'中提出的'
'中存在'
'中华人民共和国'
'中包'
'中加'
'中列'
'中分'
'中也'
'个非'
'个小'
'个国家_'
'丧'
'严肃'
'严峻'
'两年期的'
'两家'
'东盟'
'世贸组织'
'世界中'
'专门知识_'
'专门的'
'专家组的'
'与日'
'与外'
'与公'
'与儿童'
'与信'
'与之'
'不行'
'不致'
'不敢'
'不想'
'不幸'
'不平等'
'不安_'
'不好'
'不同文'
'不同意'
'不利影响_'
'不分'
'不公'
'不佳'
'不住'
'下次'
'下来'
'上不'
'三条'
'三届'
'三大'
'三分之一'
'万国'
'万_'
'一问题'
'一部'
'一语'
'一种新的'
'一的'
'一段时间'
'一次会议'
'一方'
'一周'
'一台'
'一份_'
'一些不'
'一个问题'
'〕'
'〔_'
'。）'
'。” _'
'○'
'△_'
'℃,'
'• _'
'”——_'
'“(_'
'μm'
'ε_'
'·'
'zer_'
'zen'
'zak'
'yu'
'yri'
'yourself_'
'yar'
'xy'
'xie'
'xe'
'www_'
'wro'
'writer_'
'worse_'
'wors'
'worry_'
'workshop_'
'wonder'
'wle'
'whom_'
'western_'
'wei'
'weekend_'
'waters_'
'wasn_'
'warning_'
'walk'
'waiting_'
'vulnerability_'
'voi'
'voca'
'vital_'
'vita'
'visitors_'
'virtual_'
'viole'
'violation_'
'viat'
'venture'
'vehicle_'
'vascular_'
'vary'
'valua'
'uty_'
'ution_'
'utely_'
'usual_'
'usion_'
'urr'
'upper_'
'upgrad'
'uo'
'uns'
'unless_'
'union'
'uniform_'
'undertake_'
'unb'
'umn'
'uld'
'ulat'
'uds_'
'ude'
'ually_'
'tub'
'trust_'
'truc'
'troop_'
'trip_'
'tril'
'trees_'
'treat'
'travele'
'transp'
'transmitte'
'transit_'
'transactions_'
'trading_'
'trade'
'toxici'
'tow'
'touris'
'tough'
'tory_'
'topo'
'tle_'
'tiz'
'tissue'
'tis_'
'tired_'
'til'
'tige'
'tical_'
'threa'
'thousand_'
'thin_'
'thermo'
'tha'
'text'
'territori'
'terri'
'termin'
'tera'
'tens'
'tend'
'telephone_'
'tee'
'tea_'
'tea'
'tched_'
'tati'
'tas'
'tant'
'talk'
'tale'
'symptom'
'sy_'
'switch'
'suspicio'
'surviva'
'surr'
'supervision_'
'sulf'
'sufficient_'
'substantive_'
'subst'
'subsi'
'subsequent'
'subs'
'subregion'
'subparagraph'
'subm'
'subject'
'stuff'
'structural_'
'stronger_'
'strip'
'strictly_'
'strict_'
'stressed_'
'strat'
'storm'
'stone_'
'sting_'
'stimulation_'
'stim'
'stica'
'stea'
'stay'
'statistics_'
'starting_'
'star_'
'stal_'
'stain'
'staff'
'ssor'
'ssion'
'sses_'
'spline_'
'spir'
'spend'
'speakers_'
'soy'
'southern_'
'sound'
'sold_'
'soc'
'smile_'
'smil'
'smel'
'sm'
'slope_'
'sixth_'
'sity_'
'sister'
'simulated_'
'simpli'
'signals_'
'signa'
'sick'
'show'
'shop_'
'shock'
'shipp'
'shing_'
'shi'
'sharp_'
'servi'
'serv'
'ser_'
'ser'
'separate'
'seeking_'
'seed_'
'scores_'
'samples_'
'sal_'
'rument'
'ruct'
'rre'
'route_'
'roots_'
'roller'
'rolled_'
'river_'
'rising_'
'rip'
'rim'
'rif'
'rie'
'rial_'
'rge'
'revo'
'revised_'
'rever'
'reveal_'
'reti'
'resum'
'restrain'
'restaurant_'
'rest'
'responded_'
'respective_'
'resolv'
'resid'
'researches_'
'researched_'
'rer'
'requiring_'
'repr'
'reporte'
'repeated'
'remove_'
'remo'
'reme'
'remark'
'relationships_'
'reinforc'
'regulat'
'registered_'
'register_'
'rega'
'refu'
'referred_'
'refere'
'refer'
'rede'
'records_'
'receiving_'
'recei'
'rds_'
'rch'
'ratify'
'rate'
'rap'
'rain_'
'rai'
'rah'
'rage_'
'quote'
'quet'
'qualifi'
'qi'
'py_'
'puri'
'pup'
'pts_'
'pto'
'psycho'
'pru'
'protest'
'protecting_'
'proportion_'
'proper_'
'project'
'process'
'printing_'
'prime_'
'prim'
'preventi'
'pregnan'
'predicti'
'predict'
'precise'
'powder_'
'pore_'
'populations_'
'pool_'
'pole'
'polar'
'pment'
'plenary_'
'pledge'
'plays_'
'pla'
'pions'
'pie'
'pick'
'phr'
'philosophy_'
'phil'
'phase'
'persiste'
'perpetrat'
'permit_'
'perfor'
'penetrati'
'peace'
'patri'
'path'
'passi'
'partnership_'
'particles_'
'participants_'
'partic'
'pare'
'paras_'
'pal_'
'pair_'
'painting_'
'paint'
'packing_'
'pack'
'pace_'
'ours'
'ough'
'oth'
'osed_'
'orial_'
'organize'
'organ'
'ord'
'optimize'
'opposition_'
'oppos'
'oppo'
'opinions_'
'opera'
'op_'
'oon'
'ood'
'onis'
'onia'
'one'
'ome_'
'olve'
'olu'
'oll'
'ola'
'og_'
'oduc'
'occup'
'ocat'
'observations_'
'obse'
'oat'
'nutrition_'
'nutri'
'nucle'
'nta'
'nov'
'nota'
'north'
'norm'
'nom'
'nob'
'nnia'
'nn'
'nmar'
'nitro'
'nis_'
'nine_'
'nia'
'ni_'
'nf'
'newspaper_'
'neutral'
'nest'
'nesse'
'neither_'
'neighbo'
'nds_'
'navigat'
'myc'
'muni'
'multipl'
'mpl'
'mouth'
'motivat'
'moral_'
'moo'
'moi'
'module_'
'moda'
'mod'
'mobiliz'
'mn'
'mite'
'minute_'
'minorities_'
'minister'
'minimal_'
'mines_'
'mineral_'
'mine'
'mild'
'mig'
'meter'
'mes_'
'melod'
'mediat'
'measur'
'mble'
'math'
'mate'
'master_'
'markets_'
'mark'
'map_'
'manual'
'manifest'
'mang'
'manage_'
'mana'
'mal_'
'makers_'
'lys'
'lung_'
'lp'
'loved_'
'love'
'lot'
'losses_'
'lor'
'lock_'
'lock'
'loa'
'lma'
'lling_'
'lization_'
'limitation'
'lift_'
'lif'
'lib'
'lete_'
'lenc'
'legislative_'
'lecti'
'lean_'
'leadership_'
'layers_'
'lated_'
'languages_'
'lace'
'lab'
'kon'
'ko_'
'knock'
'knee'
'km'
'killed_'
'kill_'
'kar'
'ka_'
'kV'
'journ'
'joined_'
'ji_'
'jade_'
'iz'
'itor'
'iterat'
'ists_'
'iste'
'ison_'
'iso'
'ision_'
'ise'
'ire_'
'ir_'
'ipi'
'iou'
'iona'
'involvement_'
'invitation_'
'investors_'
'investigat'
'inver'
'invasion_'
'introduction_'
'intim'
'inters'
'interrupt'
'interpretation_'
'internationally_'
'intergovernmental_'
'interc'
'intend'
'instruct'
'inputs_'
'initiated_'
'inhibit'
'inha'
'inh'
'inge'
'influence'
'inflam'
'iness_'
'industriali'
'indicators_'
'incorporated_'
'inal_'
'impr'
'impossible_'
'impose_'
'imi'
'ime'
'imagin'
'images_'
'ily_'
'ill_'
'ilities_'
'ii_'
'igh'
'iev'
'idenc'
'ideal_'
'ida'
'icul'
'icle'
'icit'
'ich'
'ibilities_'
'iag'
'iP'
'hyper'
'hydraulic_'
'husband_'
'huan'
'host_'
'horizontal_'
'hori'
'hoped_'
'honor'
'holiday_'
'holes_'
'holds_'
'holders_'
'hold'
'hn'
'hl'
'historical'
'histo'
'hire'
'highlight'
'hie'
'heri'
'here'
'hei'
'hear_'
'heads_'
'hav'
'hau'
'harmoniz'
'harmoni'
'hara'
'happi'
'handle'
'han_'
'gul'
'gues'
'guarantee'
'gst'
'grin'
'grey_'
'green'
'greatly_'
'greatest_'
'grav'
'graphi'
'gram'
'gradually_'
'good'
'gment'
'glyco'
'glad'
'girlfriend'
'giant'
'geometr'
'gene'
'gathered_'
'gap_'
'gam'
'fying_'
'fund'
'function'
'fun'
'fru'
'frequent_'
'frame_'
'fracture_'
'fraction'
'formulate'
'forest'
'foods_'
'flow'
'fitting_'
'fit'
'fish_'
'finger'
'filling_'
'figures_'
'fight'
'fifth_'
'fift'
'fibr'
'fel'
'fei'
'fect'
'fat_'
'faste'
'faith_'
'fad'
'facilitat'
'ez'
'extract'
'extra_'
'extend_'
'exten'
'expressi'
'explosion_'
'explor'
'exper'
'expensive_'
'exe'
'exception'
'exce'
'ex_'
'even'
'eve'
'evaluate_'
'ev'
'euro'
'etin'
'ethe'
'esti'
'este'
'establishing_'
'ese'
'erv'
'ersi'
'err'
'erc'
'eran'
'eradicat'
'equity_'
'equilibrium_'
'ept'
'entire_'
'entin'
'ented_'
'ens_'
'enl'
'engineer'
'ened_'
'encr'
'empo'
'employer'
'emphasis_'
'emission_'
'embo'
'embedded_'
'emba'
'em_'
'elle'
'eliminate'
'eless_'
'election_'
'efficien'
'eding_'
'ect_'
'ecolog'
'ech'
'ebra'
'ears'
'ear_'
'ead'
'dus'
'dura'
'dual_'
'drugs_'
'drive'
'drill'
'dream_'
'drawing_'
'dramatic'
'dop'
'doctor'
'dium_'
'distinct'
'displaced_'
'dism'
'discriminat'
'discovery_'
'disciplinary_'
'disabilities_'
'directi'
'diploma'
'dimension'
'dim'
'diet'
'dies_'
'dicat'
'dib'
'dial'
'diagnose'
'df'
'detention_'
'detector_'
'detaine'
'deta'
'destination'
'despite_'
'desire'
'designing_'
'describe_'
'depressi'
'depr'
'dependenc'
'depend_'
'depart'
'dep'
'deni'
'dence_'
'degrada'
'definitely_'
'defines_'
'decreased_'
'debt'
'deaths_'
'dding_'
'dde'
'das'
'dam'
'daily_'
'curve'
'cure'
'cultivat'
'culati'
'cte'
'cruel'
'crack_'
'crack'
'cover'
'correspond'
'corre'
'corporation'
'coronary_'
'copper_'
'conversion_'
'convergen'
'contain_'
'cont'
'consultation_'
'constituti'
'consol'
'consisting_'
'considers_'
'consent_'
'consen'
'conscious'
'confidential'
'concluding_'
'conclude_'
'comput'
'compressi'
'compr'
'compound_'
'composition_'
'compliance_'
'completion_'
'complain'
'competitive_'
'compatib'
'comparing_'
'communi'
'commodit'
'column_'
'collective_'
'colle'
'coheren'
'cogniti'
'coating'
'cloud_'
'clay'
'classes_'
'class'
'cker'
'cken'
'civil'
'citizen'
'cis'
'circle_'
'cinat'
'cin'
'cie'
'chron'
'chor'
'chloro'
'chlori'
'chemicals_'
'cheap_'
'charged_'
'characteriz'
'chapter_'
'certifi'
'center'
'cent'
'cel'
'cease'
'cce'
'cate'
'catal'
'cart'
'carrying_'
'carrier_'
'cabinet_'
'cab'
'business'
'bun'
'bull'
'bul'
'brow'
'bringing_'
'brica'
'bread'
'brati'
'boy'
'borrow'
'borat'
'boom'
'bold'
'blu'
'blend'
'blan'
'blade_'
'biod'
'bin_'
'bile_'
'biggest_'
'bia'
'berg_'
'benefi'
'bein'
'behavior'
'bec'
'bear_'
'bean_'
'bbl'
'battle'
'baskets_'
'basi'
'barrier'
'ban_'
'avi'
'auto_'
'attribute'
'atti'
'attain'
'ats_'
'atr'
'atmospheric_'
'ative'
'atic_'
'ately_'
'ata'
'asy'
'ast_'
'assumed_'
'assum'
'asking_'
'ase'
'asc'
'artist_'
'arti'
'artery_'
'arrive'
'arrest'
'arithm'
'ario'
'argue'
'arg'
'architect'
'approximately_'
'appraisal_'
'applying_'
'applies_'
'appeal_'
'appea'
'anticipat'
'antib'
'animals_'
'ande'
'analyzing_'
'analyze'
'ana'
'amplifier_'
'ammoni'
'amental'
'amaz'
'alumin'
'allowing_'
'alleged'
'allegations_'
'alive_'
'alia_'
'alg'
'alfalfa_'
'alert_'
'agree_'
'agency_'
'aga'
'affects_'
'advance_'
'adult'
'ads'
'admissi'
'addressing_'
'adaptive_'
'ada'
'achieving_'
'ace'
'accordingly_'
'acceptab'
'acc'
'absolute_'
'absol'
'abou'
'abilit'
'abd'
'aba'
'\\'
'Zho'
'Year_'
'Xia'
'Writ'
'Wor'
'Won'
'Within_'
'Wil'
'White_'
'Whe'
'Wh'
'Welcome'
'Wea'
'Wat'
'WITH_'
'WH'
'WG_'
'WE'
'Vol'
'Vienna_'
'Van'
'VII_'
'Urban'
'Ur'
'Unit'
'UNCTAD_'
'Two_'
'Turn'
'Treatment_'
'Tool'
'Tom_'
'Thou'
'Therm'
'Thank'
'Terrorism_'
'Territories_'
'Terr'
'Tempe'
'TT'
'TMS320'
'TER'
'Syrian_'
'Syn'
'Still_'
'Steph'
'Steel_'
'Statement'
'Standard_'
'Source_'
'Somali'
'Sn'
'Small_'
'Sierra_'
'Sh'
'Seve'
'Senat'
'Scien'
'SN'
'SE_'
'SBS'
'SB'
'Rom'
'Rig'
'Rh'
'Respons'
'Request'
'Republican'
'Rem'
'Registration_'
'Reg'
'Recommend'
'Recogniz'
'Real'
'Rat'
'Radi'
'Rac'
'RT_'
'RT'
'RS'
'RC'
'Professor_'
'Production_'
'Processing_'
'Proce'
'Principle'
'Premier'
'Pos'
'Political_'
'Policy_'
'Police_'
'Point_'
'Plat'
'Plant'
'Pla'
'Pl'
'Physical_'
'Peter'
'Pay'
'Patrick_'
'Partners'
'PU'
'P2_'
'Over'
'Optic'
'Only_'
'Olympic_'
'Official'
'Office'
'OU'
'OG'
'Num'
'New'
'Never_'
'NS_'
'NP'
'NO_'
'NL'
'NCE_'
'NAS'
'Mya'
'Mrs_'
'Mountain_'
'Mongolia'
'Monday_'
'Mexico_'
'Meta'
'Men'
'Mem'
'Medical_'
'Mechanism'
'Measurement_'
'Matt'
'Material'
'Mas'
'Marke'
'Mao'
'Mag'
'Machine'
'MV'
'MB_'
'Lon'
'Liv'
'Life'
'Lic'
'Library_'
'Lib'
'Learn'
'Laun'
'Lau'
'Latin_'
'Later_'
'Lang'
'Land_'
'LE_'
'Journal'
'Jon'
'Jav'
'Jan_'
'James_'
'Islands_'
'Island_'
'Islamic_'
'Iraqi_'
'Iran_'
'Inv'
'Introduc'
'Int'
'Insta'
'Inst'
'Industr'
'Ic'
'Ib'
'IU'
'IE'
'ICA'
'Hungary_'
'Hous'
'Holl'
'High'
'Her_'
'Haw'
'Has'
'Haiti'
'HT'
'Guinea_'
'Goo'
'Goals_'
'Give'
'Generat'
'Gate'
'GT'
'GRA'
'GR'
'GPS'
'GP'
'GM_'
'GM'
'GE_'
'Fuzzy_'
'From_'
'Free_'
'Fre'
'Frank'
'Found'
'For'
'Follow_'
'Flow'
'Flor'
'Fla'
'Fina'
'Fan'
'Famil'
'Fac'
'FS_'
'FPGA'
'FBI'
'Exte'
'Every_'
'Every'
'Evaluation_'
'Es'
'Energy_'
'End'
'Element'
'Electron'
'EV'
'ECT'
'EAR'
'Dri'
'Dra'
'Dou'
'Document'
'Dis'
'Den'
'Dat'
'Dar'
'Dai'
'Czech_'
'Cyprus_'
'Cut'
'Cu_'
'Croatia_'
'Cro'
'Crime_'
'Covenant_'
'Counter'
'Coul'
'Cou'
'Cos'
'Cong'
'Compa'
'Coa'
'Clea'
'Circu'
'Characteristic'
'Ch'
'Centre_'
'Carr'
'Canad'
'Call'
'CT_'
'CO2'
'CHA'
'CEF'
'Bush_'
'Bru'
'Bod'
'Blu'
'Belgium_'
'Basi'
'Base'
'Bang'
'Back'
'BS'
'BRA'
'BP_'
'BP'
'Audit'
'Atom'
'Ash'
'Area_'
'Are'
'Arc'
'Apple_'
'Ap'
'Analy'
'Ali'
'Add'
'Ada'
'Academy_'
'Absor'
'Abd'
'AA'
'9月_'
'9号决'
'997'
'8日至'
'8日第'
'8号'
'850'
'7日第'
'7号决'
'700美元'
'700'
'6月_'
'6号决议'
'6万'
'5段'
'5月_'
'5日第'
'5和'
'4年_'
'3种'
'3月_'
'2的'
'2月3'
'2月15日'
'290'
'260'
'211'
'2009年1'
'2008年_'
'2006年1'
'2005'
'2004年_'
'2003年_'
'2002年1'
'2000年7月'
'1时'
'1999年1'
'1995年_'
'1993年'
'1982'
'193'
'179'
'162'
'15年'
'1373_'
'135'
'125'
'124_'
'120'
'11年'
'111_'
'10个'
'103'
'100万'
'0段'
'0日至'
'0万美元_'
'02_'
'001'
')/_'
')-'
'()'
'%)'
'%(_'
'$_'
'$ _'
'"；_'
'! '
' ]'
' - '
' +'
' )_'
' )'
'： '
'０'
'）”'
'％、_'
''
'鼓励所有'
'默认'
'默_'
'麻醉品'
'鲍'
'鲁棒'
'高速公路'
'高级管理'
'高级专员办事处'
'高水'
'高昂'
'骨折'
'骨头'
'骤'
'驻地协调员'
'驱动程序'
'马达'
'马力'
'马克思'
'马克_'
'香烟'
'香料'
'首都'
'首先要'
'馏'
'饮水'
'饭_'
'餐馆'
'食_'
'飞行_'
'风俗'
'颤'
'颜'
'频技术'
'领导_'
'领先'
'预防犯罪和刑事司法'
'预计在'
'预应力'
'预先'
'颁发'
'顽'
'须由'
'音乐_'
'韩民国'
'鞋_'
'面试'
'面对的'
'面上'
'非经'
'非法贩运'
'非法_'
'非正式协商_'
'非正式协商'
'非国'
'静_'
'霉素'
'震惊_'
'需要采'
'需要进一步'
'需要确'
'需要更'
'需要大'
'需要制'
'需求和'
'零部件'
'零件的'
'雇'
'集束弹药'
'难道'
'难民的'
'随之'
'除其他外_'
'院长'
'院的'
'限的'
'限制了'
'降示'
'际法'
'附带'
'附件二_'
'阿曼'
'阿拉伯叙利亚共和国_'
'阿尔巴尼亚'
'阿尔及利亚_'
'阻力'
'阶级'
'阵列'
'防护'
'防卫'
'队员'
'阅_'
'间谍'
'问题时'
'问题提出'
'问题作'
'问题世界'
'长时间_'
'长一'
'镁'
'锻'
'错误的'
'锅'
'铭'
'钥匙'
'钢筋混凝土'
'钢_'
'钞票'
'金融中'
'金的'
'重返'
'重申其'
'重新安置'
'重新_'
'重建_'
'重大进展_'
'重大的'
'重叠'
'里程碑'
'里斯'
'里奥'
'里克_'
'释放_'
'释_'
'采购_'
'采访中'
'采矿'
'采用了'
'采取行动的'
'采取的行动'
'采取一切'
'酷刑和其他残忍_'
'酶活'
'配置_'
'配偶'
'都已'
'都因'
'部队的'
'部门之'
'部委'
'部分是'
'邮票'
'那只'
'那些被'
'那些人'
'那不'
'邀'
'避开'
'遭'
'遗产'
'道路上'
'道理'
'遏制'
'遍_'
'通过这'
'通过谈判'
'通过自'
'通过联合国'
'通过在'
'通过其'
'通过使用'
'通常是'
'透露_'
'透明度'
'选用'
'选择了'
'选举法'
'适足'
'适时'
'适应_'
'适宜'
'送给'
'送到'
'退化'
'迹象'
'迷_'
'迪拜'
'迟于20'
'违反国际'
'进行过'
'进行监'
'进行分'
'进行了讨论'
'进行了研究_'
'进行了分析'
'进程和'
'进去_'
'进出'
'进入中'
'进入_'
'进一步审'
'进一步发'
'这表'
'这篇'
'这种行'
'这次会'
'这样一个'
'这并不'
'这就是我'
'这只'
'这些都是'
'这么说'
'这个词'
'这个国'
'还表'
'还有很'
'还是在'
'还指出_'
'还必须'
'还原'
'返社会'
'运送'
'运输和'
'运行的'
'运营的'
'运移'
'过这'
'过去几'
'过分'
'达成协'
'达尔富尔混合行动'
'达6'
'辟'
'辜'
'输送机'
'输出_'
'辉'
'较高_'
'较小的'
'较好_'
'较多'
'较低的'
'较低'
'较为'
'轻微'
'轮机'
'转让_'
'转变为'
'转_'
'轨道_'
'躺'
'身处'
'身份证'
'身于'
'路透'
'距离_'
'趣的'
'越来越多地'
'超高'
'超过3'
'超出了'
'起火'
'赴'
'走私'
'走廊'
'赦免'
'赋权'
'资讯科技'
'资讯'
'资源和'
'资格的'
'资料来'
'资助恐怖主义'
'资助_'
'贺'
'购置'
'贫民窟'
'质性'
'货币政策'
'货_'
'财物'
'财政期间'
'财务报表'
'负面'
'负起'
'貌_'
'谐'
'谅解备忘录_'
'谅'
'调解人'
'调查的'
'调控'
'调幅'
'课件'
'读_'
'诺夫'
'请秘书长在'
'请求国'
'请您'
'请将'
'说它'
'说她'
'说出'
'说不'
'误差的'
'误导'
'语篇'
'详情'
'该问题'
'该船'
'该研究'
'该机'
'该方法的'
'该文件'
'该文'
'该战略'
'该工作'
'该小'
'该命令'
'询'
'话语'
'诚实'
'试验结果表明'
'试验结果'
'试试'
'试_'
'诈'
'识_'
'评论和'
'评定'
'评分'
'评价的'
'评价方'
'评_'
'证明是'
'证件'
'证了'
'证书制度'
'设计了一'
'设置为'
'记载'
'记录表决_'
'议院'
'议定书的'
'议员_'
'训练的'
'认识的'
'认同'
'计算方'
'计算公式'
'警报'
'警告说'
'言语'
'触犯'
'解释了'
'视力'
'规约'
'规章'
'规划的'
'观点的'
'见解'
'见下'
'见S_'
'要点_'
'要把'
'要想'
'西兰'
'装的'
'装_'
'裁员'
'被贩'
'被认为'
'被要求'
'被控'
'被忽'
'被告人'
'袋子'
'衷'
'表达的'
'表示遗憾'
'表示感谢'
'表中'
'补助金'
'衍生'
'行动者'
'行事'
'血浆'
'螺杆'
'融合_'
'蜜蜂'
'蛋白_'
'虚假'
'虐'
'蕴'
'蒸气'
'落入'
'落_'
'萨摩亚'
'萨拉'
'萨姆'
'萨卡'
'萨_'
'萧'
'营_'
'萝'
'获得通过'
'莫斯'
'荧'
'荣幸'
'荣'
'草拟'
'英镑'
'英里'
'英格兰'
'英国人'
'英_'
'苦难_'
'苍'
'花一'
'芒'
'节的'
'色散'
'色列'
'艰难的'
'艇_'
'舞蹈'
'至关重要的'
'至8'
'自决'
'自主权'
'膜_'
'膀'
'腐败_'
'腌'
'脑中'
'脉冲'
'脆弱的'
'脆弱性和'
'脆'
'能给'
'能成为'
'能不'
'胰岛素'
'肯尼亚_'
'肖'
'聘用'
'联络_'
'联科行动'
'联格观察团'
'联合声明'
'联合国财'
'联合国系统内'
'联合国环境规划署'
'联合国打击跨国有组织犯罪公约'
'联合国所'
'联合国大会'
'联合国国家工作队'
'联合国国'
'联合国各机构'
'联合国发'
'联合国会'
'职权范围'
'职工会'
'职位的'
'耕'
'而采取的措施_'
'而该'
'而提'
'而开展'
'而又'
'而出'
'而你'
'而产生'
'而20'
'者提'
'者对'
'者之间'
'翰'
'翘'
'群_'
'羟'
'美洲_'
'美学'
'美国总统'
'美国对'
'置_'
'罪和'
'罢'
'罗德'
'网络中'
'缴纳'
'编号'
'编制的'
'编_'
'缔约方提'
'缔约方大会'
'缔约国_'
'缓慢_'
'缓存'
'缓冲'
'缆'
'综述'
'综合症'
'绸'
'维纳斯'
'维斯'
'维护国际'
'维护和'
'维多利亚'
'绳'
'继续提'
'继续审'
'继续增加'
'继续向'
'继续加'
'统计_'
'统筹'
'绝大多数'
'络合物'
'结算'
'结果显示_'
'结果是'
'结晶'
'结成'
'绒'
'经纪'
'经济学家'
'经济合'
'经济危机'
'经济上'
'经合'
'经典的'
'终身'
'细节_'
'细则_'
'组织结'
'组织形'
'组织之'
'组织中'
'组成部分'
'组成和'
'组分'
'纺'
'纸上'
'纳入联合国'
'纲领'
'级联'
'级别_'
'约旦'
'约20'
'红十字国际委员会'
'纠纷'
'繁殖'
'紧急情况'
'系统分'
'系统内'
'系统不'
'系指'
'精心'
'精力'
'粮食和'
'粮食及农业组织'
'粘性'
'粒度'
'粉煤'
'类化'
'米的'
'篡'
'管理部门'
'管理机构'
'管理层'
'管理处'
'管理及'
'管制的'
'管制_'
'简称'
'简报_'
'筹资机'
'等领域'
'等生'
'等特'
'等教育'
'等效'
'等字'
'第十八'
'第十五'
'第十二'
'第十七'
'第六条_'
'第六委员会'
'第八'
'第二条_'
'第二届'
'第一部分'
'第一届'
'第9条'
'第70'
'第4条'
'第4_'
'第35'
'第26'
'第1款_'
'第17'
'第14条'
'笋'
'竞赛'
'竞争者'
'立法的'
'立刻'
'窗_'
'窍'
'空间的'
'程序设计'
'程_'
'移位'
'称作'
'秘书处将'
'科特迪瓦_'
'种族歧视委员会'
'种新'
'福祉_'
'福建'
'福利_'
'神圣'
'祖国'
'礼物'
'示范条'
'示的'
'碗'
'确切'
'确保有'
'破_'
'研究表明_'
'研究工作'
'研究发'
'砍'
'矿山'
'石灰'
'石油_'
'短时间'
'矫'
'瞬间'
'着眼于'
'着他'
'着人'
'眼前'
'眠'
'真主的'
'看的'
'看法'
'相连'
'相结合_'
'相比之下'
'相当的'
'相对于'
'相关问题'
'相关法'
'相关性'
'相关国际'
'相互作用'
'直径'
'直在'
'目录_'
'目录'
'目前还'
'目前已'
'目前为止'
'盟_'
'盖_'
'监督和'
'监测系统'
'监测和评估'
'监测和评价'
'监测和报告'
'监测和'
'监护'
'益于'
'皇帝'
'皇家'
'的香'
'的食'
'的飞'
'的青年'
'的难'
'的长期'
'的长'
'的钱'
'的金融'
'的金'
'的里'
'的配'
'的那个'
'的遗'
'的进展'
'的过程中_'
'的过程中'
'的过程_'
'的趋势'
'的资金_'
'的资'
'的贫'
'的请求'
'的评价'
'的讲话'
'的认识'
'的观察员'
'的裁决'
'的行动_'
'的营'
'的范围_'
'的联系'
'的职业'
'的考'
'的群体'
'的罪行'
'的网络'
'的维'
'的统'
'的结'
'的红'
'的答'
'的第5'
'的第3'
'的程度'
'的程序'
'的神'
'的研制'
'的知识'
'的眼睛'
'的目的是'
'的监测'
'的痛'
'的电子'
'的独'
'的父'
'的燃'
'的灵'
'的潜'
'的游'
'的温'
'的混'
'的测'
'的法律_'
'的治'
'的污染'
'的民主'
'的武'
'的框架'
'的材料'
'的权力_'
'的机构'
'的机制_'
'的最佳'
'的普通'
'的普'
'的時候_'
'的数量'
'的效果'
'的效'
'的政府'
'的改变'
'的援助'
'的措辞'
'的探'
'的指控'
'的指导'
'的拟'
'的报告中'
'的投'
'的承诺_'
'的扩'
'的打'
'的所'
'的战略_'
'的感'
'的性质'
'的思想'
'的态'
'的必要性'
'的必'
'的得'
'的很'
'的形成'
'的当'
'的建筑'
'的应'
'的年'
'的平'
'的帮'
'的巴勒斯坦'
'的工具_'
'的宣'
'的失业'
'的基础上'
'的基础_'
'的基本原则'
'的城市'
'的地方'
'的地区_'
'的图'
'的吸'
'的各个'
'的可能性_'
'的叙'
'的发言'
'的反应'
'的参'
'的原因是'
'的原则_'
'的区'
'的加工'
'的办法_'
'的力量'
'的前提'
'的判'
'的切'
'的决议草案'
'的农'
'的内部'
'的具'
'的公共'
'的儿子'
'的健'
'的例'
'的住'
'的估'
'的价格'
'的代表团'
'的人道主义'
'的人的'
'的事实'
'的个人'
'的业务'
'的世界_'
'的世界'
'的与'
'的不同'
'的一般'
'的一名'
'的A'
'皂'
'白的'
'白俄罗斯共和国'
'白俄罗斯'
'白人'
'登记的'
'登记处'
'瘾'
'瘫'
'痛苦的'
'症的'
'症状'
'病理'
'疽'
'疲软'
'疲'
'疯狂'
'疫苗的'
'疑问_'
'畸'
'留的'
'画_'
'电源'
'电场'
'申明_'
'由各'
'由于没'
'用电'
'用在'
'用品_'
'生物多样性'
'生活方式'
'生活中'
'生成的'
'生存的'
'生和'
'生命_'
'生动'
'生产商'
'瓦的'
'瓜和'
'瓜_'
'琼'
'理论进行'
'理论分'
'理想_'
'理工'
'理事会第1'
'理事会在'
'现已'
'环节'
'环氧'
'环境部'
'环境署_'
'环境与'
'玫'
'王_'
'玉米'
'率分'
'独特'
'犯罪活动'
'犯人'
'犯下的'
'特殊需要'
'特异'
'特和'
'特别法'
'特别是与'
'特别提'
'特别关注'
'物价'
'爽'
'爸爸'
'父母的'
'父亲的'
'爱德华'
'爱尔兰'
'熟_'
'煽动'
'焊缝'
'焊接'
'烯'
'热线'
'热情'
'热器'
'热_'
'烟囱'
'点击'
'点上'
'炸药'
'火器'
'激进'
'激情'
'激动'
'澳门'
'潜力_'
'演讲_'
'演出'
'滨'
'滥杀'
'满意地注意到'
'溴'
'源的'
'湖区'
'港_'
'温度和'
'渥'
'渔船'
'清除'
'清楚的'
'清楚地'
'清单的'
'添加剂'
'深感'
'深入研'
'深入的'
'淘汰'
'淋巴瘤'
'淋巴'
'液晶'
'润_'
'消化'
'海运'
'海啸'
'浴'
'浪费'
'浪潮'
'测验'
'测的'
'测井'
'浅谈'
'流程_'
'流域'
'流动性'
'流体'
'洽'
'活化'
'活动和'
'洲联盟'
'洲国'
'津巴布韦'
'注意力'
'注册的'
'泥土'
'波_'
'法院的'
'法规_'
'法治和'
'法律效'
'法律制度'
'法律事'
'法定'
'法典'
'泌'
'治和'
'油气'
'河_'
'没法'
'没有被'
'没有提供'
'没有得到'
'没有在'
'没有受到'
'没什么'
'沙_'
'沉重'
'汉_'
'汇集'
'求_'
'水果'
'水性'
'氨基酸'
'氧气'
'氧化物'
'气的'
'气氛'
'民间社会_'
'民用'
'民兵'
'民主党'
'毛额'
'比尔'
'比例_'
'毒品和'
'毁坏'
'段落'
'段和'
'残疾问题'
'残忍_'
'殊'
'死的'
'歧视和'
'武装冲突问题'
'武力'
'步伐'
'此前'
'正的'
'正则'
'歌_'
'款和'
'欧洲经济'
'欧洲委员会'
'欧洲人'
'欧元区'
'欧_'
'欣赏'
'欣见'
'欠款'
'模板'
'模型对'
'概述的'
'概算_'
'棚'
'检组'
'梗'
'档案'
'案件中'
'栽培'
'根除'
'根据联'
'根据国际'
'核算'
'核武器的'
'核武器国家'
'核准了'
'核不'
'核_'
'样机'
'样本_'
'校正'
'校园'
'栓'
'树林'
'树_'
'柴油机'
'柱_'
'查询_'
'查询'
'染色体'
'某种程度上'
'柏林'
'构成_'
'构和'
'构件'
'极大的'
'极化'
'极为重要'
'杰克'
'杯_'
'杭'
'来这'
'来讲_'
'来的_'
'来参'
'条第1'
'条提'
'条例和细则_'
'权限'
'权能'
'权益'
'权力的'
'机遇_'
'机理_'
'机构在'
'机构之间'
'机密'
'朵'
'术语'
'本身的'
'本身_'
'本研究'
'本文研'
'本文将'
'本报告所'
'本国的'
'本国法'
'本决议的'
'末_'
'未被'
'未经表'
'未成年人'
'未成'
'未得到'
'期限_'
'期刊'
'朗_'
'有组织'
'有益的'
'有源'
'有条'
'有更'
'有报'
'有所增'
'有待'
'有四'
'有力的'
'有利_'
'有几个'
'有关联'
'有关政'
'有关当局'
'有关国家'
'有任何'
'有争'
'有4'
'月31日'
'最重'
'最贫困'
'最终目'
'最终_'
'最小'
'最后一个'
'最严重'
'替换'
'曾是'
'曼谷'
'更高的'
'曝光'
'暴力侵'
'晶体管'
'景观'
'普遍的'
'普遍性'
'普遍定期审'
'普遍_'
'普拉'
'晚些时候'
'显示的'
'显然不'
'是高'
'是谁'
'是正'
'是我的'
'是实现'
'是大'
'是多少'
'是地'
'是可以'
'是另一'
'是保'
'是会'
'是他们'
'是两'
'是世'
'是一场'
'是一位'
'昨晚'
'星期一'
'星期_'
'明确表示'
'明的'
'明了'
'昆'
'昂贵'
'时说_'
'时提'
'时候都'
'时代的'
'早就'
'早在'
'早_'
'旨在促进'
'旧的'
'日至'
'日志'
'日和'
'既定'
'既不'
'无需'
'无限'
'无论如何'
'无国'
'族裔_'
'旋_'
'方面采'
'方面的问题'
'方面是'
'方案规划'
'方案支助'
'方当'
'方式和'
'方在'
'新西兰_'
'新法'
'新方法_'
'新技术_'
'新技术'
'新成'
'新形'
'斯洛文尼亚_'
'斯拉'
'斯尼亚'
'斗争_'
'文职'
'文第'
'文化遗产'
'文化权利'
'文件是'
'文件所'
'文书和'
'数码'
'数据显示_'
'敦'
'教育问题'
'教育方'
'教育教'
'教室'
'救灾'
'敌人'
'效益_'
'效果的'
'效_'
'政府间机'
'政府部'
'政府通'
'政府认'
'政府组织的'
'政府机构'
'政务'
'放疗'
'放电'
'放松'
'放射性'
'放到'
'放入'
'攻击的'
'改进了'
'改动_'
'改_'
'收获'
'收入分'
'支持这'
'支持各'
'支助和'
'攀'
'操作的'
'撕'
'撒哈拉'
'摩纳哥'
'摩尔多瓦'
'摊款_'
'搬迁'
'援助和'
'揭示'
'提高其'
'提及的'
'提前'
'提到了'
'提出这'
'提出建议_'
'提供更多的'
'提供更'
'提供支持'
'提供援助_'
'提供技术援助_'
'提供必要'
'提供协助_'
'提供关于'
'提供充'
'提供人'
'提交一份'
'控制中'
'接洽'
'排放量'
'捷克共和国'
'据报道'
'据报'
'捕鱼'
'捕获'
'捐款和'
'捐助_'
'捐'
'捍卫者'
'捍卫'
'挨'
'挑选'
'按钮'
'按时'
'指示_'
'指导意见'
'指导委员会'
'指向'
'持续发展'
'持和'
'持久解决'
'拿大'
'拨款'
'拦'
'拥有一'
'拟议的'
'招募'
'拘留的'
'拘留中心'
'拘留_'
'拖欠'
'拓展'
'拌'
'拉特'
'拉丁'
'拆'
'担任主席'
'抵消'
'抱怨_'
'抱怨'
'报酬_'
'报酬'
'报告提交'
'报告所'
'抚'
'抗原'
'投资于'
'抑制剂'
'把_'
'技能的'
'技术援助方'
'技术指'
'技术及'
'承载力的'
'承担的义务'
'承付'
'批准了_'
'扭'
'扫盲'
'执行第'
'执行秘书'
'执行情况的报告_'
'执行安全理事会'
'执行和'
'执法机'
'托马'
'打算在'
'打_'
'扎_'
'才是'
'才可'
'才会'
'手工'
'手动'
'手中'
'所需要'
'所附'
'所谓_'
'所要求的'
'所犯'
'所有正'
'所有工作'
'所有其他'
'所有人权'
'所提供的'
'所指的'
'所开'
'所处'
'所取得'
'所关'
'户_'
'戴着'
'截止'
'战略计划'
'战略规划'
'战略目标'
'战略和'
'或行'
'或自'
'或缺'
'或特'
'或某'
'或对'
'或处'
'或地方'
'或名'
'我跟'
'我的意思是'
'我现在请'
'我来'
'我提'
'我所'
'我愿'
'我想我'
'我家'
'我回'
'我喜欢'
'我们赞'
'我们自'
'我们知道'
'我们没'
'我今'
'我为'
'成立以来'
'成本效益'
'成年人'
'成型'
'成功地'
'成为世界'
'戈兰'
'慈善'
'愿景'
'感觉到'
'感到关切的是_'
'感到关'
'意识形态'
'想过'
'想要的'
'惩罚的'
'惧'
'惟一'
'情形_'
'情况以及'
'悬浮'
'恶性'
'恶劣'
'恩斯'
'恢复和重'
'恐怖主义_'
'总额的'
'总的来说'
'总的'
'怨'
'性问题_'
'性行'
'性能的影响'
'性格'
'性别平等和'
'性别分'
'性侵'
'性与'
'怎么办'
'怀孕'
'怀_'
'忽'
'快的'
'忧虑'
'忧'
'志愿者'
'必需的'
'必需'
'循'
'徙'
'得有'
'得多'
'律的'
'很高的'
'很高兴'
'很重要'
'很明显'
'很小'
'影响力的'
'影像'
'彭'
'形变'
'彗星'
'录像'
'当前的'
'归纳'
'强调必须'
'强调各'
'弹塑性'
'张贴'
'弗雷'
'引进'
'引人'
'异议'
'异步'
'异性'
'开来'
'开幕_'
'开展的工作'
'建立了一个'
'廷_'
'延期'
'延伸'
'度分'
'废弃物'
'庞'
'店_'
'应用的'
'应按'
'应将'
'应对这'
'应享'
'床_'
'广阔'
'广泛地'
'广播电'
'广义'
'并采取'
'并联'
'并结合'
'并敦促'
'并提出'
'并按'
'并执行'
'并就此'
'并处'
'并分析了'
'年度报告_'
'年度会议_'
'年中'
'年3'
'平行'
'平等的'
'干燥'
'幕_'
'常驻联合国代表给'
'常驻联合国代表团'
'常设委员会'
'常任'
'带的'
'帝'
'帐篷'
'希望能'
'希尔'
'布鲁'
'布基纳法索'
'市长'
'市场和'
'市场准入'
'巴的'
'巴巴'
'巴塞尔'
'巴哥'
'巴勒斯坦领土'
'巴勒斯坦问题'
'已采取'
'已经进'
'已经完成'
'已确'
'已知'
'已从'
'已于20'
'差额'
'差旅'
'差异有'
'巫'
'巧克力'
'工艺的'
'工程处'
'工作队_'
'工作要'
'工作文件'
'工作提'
'工作报'
'工作原理'
'州市'
'嵌入'
'嵌'
'崩溃'
'崇'
'岩的'
'履行_'
'屠杀'
'屠'
'届会议上'
'届_'
'居留'
'居住的'
'层和'
'局面_'
'局限性_'
'尽管有'
'就非'
'就职'
'就是为'
'就必须'
'就其'
'尤为'
'尚不'
'尔巴'
'少女'
'少于'
'小鼠'
'小额'
'小企'
'小于'
'将通过'
'将近'
'将要'
'将能'
'将此'
'将增'
'将可'
'将使'
'寿'
'导向'
'寻求庇护者'
'对高'
'对这个'
'对这一'
'对象_'
'对话的'
'对自己'
'对联'
'对等'
'对电'
'对现'
'对比'
'对妇女的'
'对发展'
'对决'
'对你'
'对付'
'对中'
'对上'
'对200'
'寸'
'富汗'
'密集'
'密的'
'密切的'
'寄生'
'宽度'
'家有'
'家庭或'
'家和'
'家乡'
'宰'
'宪法法'
'宣传和'
'客户端'
'客户提'
'审计_'
'审法'
'实验结果'
'实际情况'
'实际_'
'实现可持续'
'实现全'
'实例_'
'宝贵的'
'定额'
'定罪_'
'定期报告中'
'定于'
'官长'
'宗旨_'
'宗教或信仰'
'完整性'
'安全局'
'安全与'
'它能够'
'它提'
'它们有'
'它们对'
'它也'
'它与'
'学位_'
'孤立'
'孤儿'
'存在重'
'存在的问题_'
'存在性'
'存在于'
'字的'
'孕产妇'
'子和'
'媒介'
'婆'
'威尔'
'姬'
'委员会通过'
'委员会进'
'委员会赞'
'委员会负责'
'委员会认'
'委员会第四'
'委员会第五十'
'委员会第三十'
'委员会提'
'委员会工作'
'委员会20'
'委内瑞拉'
'委任'
'妻'
'妥善'
'妊娠'
'妈'
'妇女问题'
'妇女和女'
'如果你想'
'如果你们'
'如果你不'
'如上'
'如一'
'她说'
'奶_'
'女性_'
'女孩_'
'奥尔'
'奎'
'奇迹'
'夸'
'头脑'
'失踪人'
'失败_'
'失去了'
'太平洋岛'
'太多的'
'大韩民国_'
'大豆'
'大海'
'大学的'
'大地'
'大会正式'
'大会审'
'大会200'
'夜间'
'夜晚'
'多方面'
'多年的'
'多少_'
'多学'
'多大'
'多国'
'多名'
'外面'
'外资'
'外贸'
'外观'
'外表'
'外联'
'外籍'
'外科'
'外界'
'外交和'
'复苏_'
'复苏'
'复杂性'
'处理方'
'处理工'
'处理了'
'处处'
'处决_'
'处不'
'壶'
'声明中'
'士兰'
'墨西哥_'
'增殖'
'增效'
'增多_'
'增_'
'境内_'
'塞尔'
'塑造'
'堆积'
'基质'
'基本法_'
'基地组织'
'基于性别的'
'培训课程'
'培训的'
'培训机'
'培训方案_'
'城市的'
'垃圾_'
'垂直'
'垂'
'坟'
'坚决支持'
'坚决'
'块的'
'坐下来'
'均衡的'
'均应'
'均可'
'地说'
'地看'
'地球上'
'地方政府'
'地方和'
'地应'
'地将'
'地和'
'地参与'
'地参'
'地加'
'地中海'
'地一'
'在香港'
'在适'
'在这方面的'
'在这一方面_'
'在该区域'
'在讨论'
'在苏'
'在职'
'在美国_'
'在经济'
'在第1'
'在科'
'在社'
'在现'
'在特'
'在法'
'在民'
'在未'
'在文'
'在支'
'在接受'
'在打'
'在所'
'在总部'
'在德国'
'在当'
'在开发'
'在工'
'在尼'
'在将'
'在大会第'
'在大会'
'在土'
'在和'
'在发展'
'在印度'
'在前'
'在利比'
'在冲突'
'在内的国'
'在伊拉克'
'在任何情况下'
'在任何'
'在今后'
'在人权'
'在东'
'在C'
'在2015年'
'在2009年'
'在2000'
'在2'
'在12'
'圣经'
'土_'
'圆满'
'圆桌会议'
'圆柱'
'图形'
'国际行'
'国际海'
'国际法庭'
'国际标准_'
'国际工'
'国际努力'
'国际公约'
'国际公'
'国际义务'
'国民_'
'国家集团'
'国家警察'
'国家经济共同体'
'国家组'
'国家立'
'国家发'
'国家元首'
'国家不'
'国土'
'国务院'
'国内的'
'国内流离失所者'
'国代表'
'国人'
'园的'
'园_'
'因素和'
'因为我们'
'因为它们'
'回家_'
'回头'
'四种'
'四条'
'器在'
'喜_'
'商的'
'商务部'
'商一致'
'唱_'
'唤'
'哪个'
'哈里'
'咸'
'咨询服务'
'咨'
'和面'
'和重建'
'和通过'
'和边'
'和轻'
'和赔'
'和贸易'
'和贩运'
'和财政'
'和谐_'
'和解_'
'和结构'
'和精神'
'和移'
'和的'
'和由'
'和海'
'和流'
'和民间'
'和欧'
'和模'
'和标'
'和权利'
'和机构'
'和日'
'和政府首脑'
'和推广'
'和持续'
'和打'
'和情'
'和总'
'和影响_'
'和影响'
'和当'
'和强'
'和建议_'
'和应'
'和平和'
'和平协'
'和平与安全_'
'和宗'
'和安全理事会'
'和安全'
'和学生'
'和她'
'和国内'
'和商'
'和后'
'和发展_'
'和参'
'和压'
'和单'
'和动'
'和决'
'和内'
'和全'
'和克'
'和俄'
'和便'
'和你'
'和作'
'和任'
'和他们'
'和亚'
'和二'
'和个'
'和两'
'和业'
'和世界'
'和M'
'和C'
'和B'
'和19'
'和11'
'呼吁国际社会'
'味道'
'员工_'
'吸取'
'吵'
'听说'
'听取'
'含糊'
'含义_'
'否则_'
'吕'
'向有'
'向我们'
'向安全理事会'
'向国家'
'向人'
'向一'
'名联合国'
'名法'
'名工'
'名学'
'名单上'
'同联合国'
'同情'
'同上_'
'吉布'
'吉尔吉斯斯坦'
'合资'
'合作方'
'各项决议'
'各组'
'各有关'
'各成员国'
'各实'
'各国政府_'
'各代表'
'各个方'
'吃午'
'司的'
'司法部长'
'司令部'
'号码_'
'号法律公告'
'号法令'
'号和第'
'号决议和'
'号决定'
'号一般性'
'史上'
'史_'
'台_'
'可预'
'可达到'
'可获得'
'可能受'
'可能发'
'可疑交易'
'可爱的'
'可持续性_'
'可怕的'
'可归'
'可否'
'可取'
'可使'
'可作为'
'可以被'
'可以看'
'可以把'
'可以作'
'可不'
'叫做'
'只需要'
'只需'
'只是一'
'只想'
'只会'
'另外还'
'另外一'
'另一国'
'另一名'
'古代'
'口头订正'
'叠加'
'变电'
'变化和'
'受欢迎的'
'受国'
'受压'
'受_'
'取得的'
'取得成功_'
'取得成'
'发起的'
'发署'
'发生的事'
'发展计划'
'发动机的'
'发了'
'反映出'
'反应堆'
'反对种族'
'反叛'
'双方都'
'双手'
'双向'
'友谊'
'及非'
'及应用'
'及工'
'及以'
'参量'
'参赛'
'参与国'
'去找'
'厨'
'原有'
'原料_'
'原则上'
'压迫'
'厉'
'历史的'
'即在'
'印尼'
'卫队'
'卫生保健'
'卫生_'
'占用'
'博弈'
'南非_'
'南极'
'南亚'
'单词'
'单晶'
'卓'
'协商一致'
'半_'
'升级_'
'千万'
'十足'
'区间'
'区域经济'
'区域性'
'区域合作'
'区域一级'
'化妆'
'包括联合国'
'包括就'
'包括为'
'包括东耶路撒冷'
'包括20'
'勒_'
'勇气_'
'势头_'
'动脉'
'动物的'
'务委员会'
'加速_'
'加载'
'加斯'
'加强国家'
'加强其'
'加利亚'
'加入的'
'加入为'
'功能性'
'办法的'
'办事处和'
'办_'
'力量的'
'力度'
'力发'
'副总'
'削过程'
'制造业'
'制裁的'
'制定并'
'制定国'
'到目前'
'到期'
'到底是'
'到其'
'到他'
'别人的'
'利益攸关者'
'利用该'
'利用率'
'利息_'
'利影响'
'判处'
'初次'
'初始化'
'创造条件'
'创造有'
'创造了'
'创伤_'
'创伤'
'则不'
'列支敦士登'
'划界'
'刑_'
'刊登'
'刊_'
'切除'
'切的是'
'分项'
'分类的'
'分析师'
'分支'
'分担的'
'击_'
'出血'
'出色'
'出的努力_'
'出现这'
'出版物'
'出境'
'出口_'
'出人'
'凶'
'几项'
'几率'
'几乎没'
'凝胶'
'凝聚'
'减少贫穷'
'准_'
'冷静'
'冷战'
'决议和'
'冲突中'
'冰岛'
'农耕'
'农业和'
'农业发展'
'军队的'
'军事化'
'写道_'
'写下'
'再现'
'再一'
'冈'
'内陆发展中国家'
'内陆'
'内部监督事务厅'
'养殖'
'养恤金'
'养人'
'具有高'
'具有的'
'具有法律约束力'
'具有很'
'具_'
'其次_'
'其成'
'其意'
'其审'
'其任务'
'其他联'
'其他职'
'其他组织'
'其中大'
'其中4'
'其中1'
'关系中'
'关于该'
'关于海'
'关于提'
'关于大'
'关于其'
'共处'
'共和国总统_'
'共同努力'
'兰经'
'六月'
'六年'
'公约任择议定书_'
'公民身份'
'公民的'
'公民权'
'公正的'
'公式'
'公寓'
'公共服务'
'公共和'
'全面禁'
'全面审查'
'全球环境基金'
'全是'
'全家'
'入侵和占领'
'入了'
'兒'
'免于'
'克鲁'
'克罗'
'光盘'
'充分尊重'
'充分合作_'
'充分_'
'元素的'
'儿童死'
'僵局'
'催化剂的'
'储备金'
'停在'
'停下'
'做过'
'做准备_'
'偏见'
'假定'
'借此'
'修饰'
'信通技术'
'信息网'
'保护平民'
'保健_'
'保人'
'促进男女'
'促进和平'
'促进人权'
'便宜'
'便利_'
'侵略'
'侵犯行为'
'侵犯人权行为'
'依法'
'供应商的'
'使该'
'使者_'
'使用者'
'使她'
'使各国'
'使之'
'你还'
'你自己'
'你的主'
'你将'
'你和'
'你可能会'
'你們的'
'你們_'
'你们有'
'你们一'
'你什么'
'你为'
'作者的'
'作用和'
'作品的'
'作品_'
'作出的努力'
'作出承诺'
'作出一'
'作了发言_'
'作业_'
'余_'
'体面'
'体罚'
'体内'
'住了'
'位置的'
'位数'
'但该'
'但由于'
'但现在'
'但最'
'但是当'
'但是如果'
'但是他们'
'但并'
'但她'
'但一'
'似的'
'似乎是'
'估计的'
'传染病'
'传播_'
'伟的'
'会谈_'
'会议期间'
'会议开'
'会议和'
'会第'
'会更'
'会成'
'会员'
'会产生'
'优良的'
'优秀的'
'优惠'
'优化_'
'优先考虑'
'众所周知'
'伊斯兰教'
'仿真结果'
'任的'
'任何地'
'们所'
'仪器_'
'以防止'
'以避免'
'以西班牙语发言_'
'以获'
'以有效'
'以更'
'以推'
'以实现'
'以实'
'以增'
'以在'
'以及第'
'以及社'
'以及有'
'以及政'
'以及如何'
'以及国际'
'以及关于'
'以及人'
'以前_'
'以供'
'以人为'
'以下简称'
'以下的'
'以下国家'
'令我'
'代谢'
'代表团对'
'代理_'
'代价_'
'付诸'
'他要'
'他有'
'他是一个'
'他指出_'
'他把'
'他感'
'他们都'
'他们说_'
'他们要'
'他们对'
'他们不'
'他于'
'从自'
'从人'
'从事的'
'从不'
'从3'
'从2003年'
'仍需'
'介绍一'
'今天的'
'仅是'
'什麽'
'什么事'
'亿人'
'人能'
'人类发展'
'人权机'
'人权方面'
'人机'
'人心'
'人工智能'
'人居'
'人员提供'
'人口贩'
'人发'
'人事'
'人之间'
'人与'
'亲自'
'亲密'
'产物_'
'产物'
'产品质量'
'交织'
'交换_'
'交了'
'些问题'
'亚美尼亚'
'亚洲和'
'亚洲_'
'亚当'
'五大'
'五分之'
'互动_'
'于任何'
'于人'
'于2007年'
'于2005年'
'于2003年'
'二者'
'二氧化'
'二是'
'二元'
'事者'
'事故_'
'事情的'
'争辩'
'争议_'
'争_'
'了重'
'了这些'
'了言'
'了联合国'
'了美'
'了特'
'了更'
'了5'
'买了'
'书和'
'书中'
'也门'
'也被'
'也正'
'也必须'
'也不会'
'九条'
'乘坐'
'乔_'
'乐队'
'之间的相'
'之间在'
'之类的'
'之所'
'之久'
'之中'
'久的'
'主要集'
'主要问题'
'主要用'
'主要涉及'
'主要有'
'主要会议'
'主要_'
'主权_'
'主教'
'主持人'
'主意_'
'主席说_'
'为非'
'为重'
'为解决'
'为目'
'为由'
'为最'
'为指'
'为加强'
'为制'
'为依据'
'为什么不'
'为了保'
'为了使'
'为了_'
'为中心'
'为4'
'为20'
'丹麦_'
'丸'
'临界'
'串联'
'中选'
'中还'
'中规定'
'中表'
'中的一个'
'中毒'
'中断'
'中性'
'中开'
'中小企业'
'中将'
'中子'
'中国是'
'中国对'
'中国国'
'中取'
'中去'
'中华'
'中保'
'个新的'
'个地'
'丧生_'
'严重关'
'严重侵'
'严谨'
'严格遵守'
'两组'
'两方面'
'东帝汶的'
'丛'
'业的'
'业发展'
'世纪_'
'世界经济'
'世界人权'
'世卫组织'
'专题讨论'
'专题的'
'专题_'
'专门知识'
'专家会议'
'专家们'
'与维'
'与某'
'与本'
'与新'
'与我们'
'与工'
'与家'
'与实现'
'与地'
'与印度'
'与区'
'与前'
'与传'
'不限'
'不过我'
'不良'
'不等'
'不稳定_'
'不相'
'不然'
'不断的'
'不扩散核武器条约_'
'不成'
'不必要'
'不开'
'不应该'
'不存在'
'不如'
'不好_'
'不大'
'不可或缺的'
'不变_'
'不及'
'不动'
'不具'
'不信'
'不但'
'不丹'
'不上'
'下载_'
'下来的'
'下提'
'上诉法院'
'上而'
'上次'
'上文'
'上市公司'
'上大学'
'上半'
'上写'
'上个'
'上一个'
'三月'
'万物'
'万欧元'
'一顿'
'一群'
'一经'
'一章'
'一直是'
'一生中'
'一片'
'一款'
'一枚'
'一方面'
'一年的'
'一年_'
'一小'
'一天_'
'一只'
'一分'
'一些问题_'
'一事'
'一个好'
'一个大'
'一个关于'
'》、'
'》/《_'
'》)_'
'。（《_'
'①'
'℃，_'
'℃._'
'℃ _'
'′_'
'‰'
'• '
'”)'
'” (_'
'–_'
'σ'
'μmol_'
'μ'
'α1'
'ó'
'á'
'zon_'
'zin'
'zil'
'zes_'
'zar'
'zan'
'ywo'
'yr'
'youth_'
'younger_'
'yle'
'yer_'
'yellow_'
'yal'
'xo'
'xin'
'xic'
'xi_'
'worst_'
'worrie'
'works'
'workp'
'worker_'
'wooden_'
'withdrawal_'
'withdr'
'wir'
'winning_'
'wine_'
'win'
'width_'
'widespread_'
'wic'
'where'
'wheels'
'what'
'wearin'
'weak_'
'wastewater_'
'wards'
'walls_'
'wait'
'vul'
'vr'
'votes_'
'vote'
'vor'
'voice'
'visits_'
'vision_'
'visco'
'violate'
'villages_'
'village_'
'vil'
'view'
'vie'
'vide'
'vertical'
'verse_'
'verba'
'vend'
'ven_'
'vector_'
'vation'
'vast_'
'variation'
'variables_'
'van_'
'validate'
'vali'
'vak'
'uts_'
'util'
'usness_'
'ure'
'ural'
'urage'
'updating_'
'update_'
'unto'
'unst'
'unpr'
'universa'
'undo'
'undi'
'unders'
'underl'
'underg'
'ultras'
'ulsi'
'ulation'
'ulate'
'uk'
'uis'
'ugu'
'ught_'
'ufa'
'uctu'
'uati'
'uate'
'uage'
'typic'
'ty'
'twe'
'tut'
'tus'
'tud'
'tuber'
'tube_'
'tual'
'tte'
'tructure'
'trouble'
'tropic'
'tron'
'tribu'
'treaty_'
'transmit'
'translati'
'transfers_'
'tral'
'tradition_'
'trace_'
'tp'
'toward_'
'touche'
'totall'
'tors'
'topic'
'tol'
'tna'
'tion'
'tings_'
'till'
'tight_'
'tig'
'thyr'
'thri'
'threats_'
'thre'
'thoughts_'
'thou_'
'thm'
'thir'
'thickness_'
'thick'
'theore'
'theat'
'tested_'
'terward'
'terror'
'terr'
'terio'
'terin'
'tered_'
'tensi'
'tene'
'tenc'
'temporar'
'telling_'
'tel'
'tedly_'
'tech_'
'teach'
'tative'
'tast'
'target'
'tar'
'tape'
'tangible_'
'tam'
'tage_'
'tactics_'
'tackl'
'tach'
'tac'
'synthesi'
'sweep'
'sw'
'suspected_'
'suspect'
'sus'
'surrounding_'
'suppression_'
'supplie'
'supers'
'summit_'
'summary_'
'sum'
'sugar'
'suffer_'
'success'
'succeed'
'suc'
'substrate'
'substantial'
'substan'
'subp'
'sua'
'styl'
'sty'
'stur'
'stry_'
'struggl'
'stress'
'strang'
'stores_'
'stopped_'
'ston_'
'stipulat'
'stine'
'sthe'
'sten'
'stem_'
'stem'
'stead'
'stars_'
'standardiz'
'stam'
'stakeholders_'
'stairs_'
'stag'
'stabiliz'
'ssin'
'spreading_'
'sponsor'
'spon'
'spokesman_'
'spoke'
'spermat'
'spectr'
'specify_'
'speak_'
'spar'
'sow'
'south'
'somebody_'
'solving_'
'solven'
'solv'
'solub'
'solid'
'sold'
'societ'
'socialist_'
'social'
'sni'
'smooth_'
'slow_'
'slo'
'slid'
'sixty_'
'sio'
'simple'
'similarit'
'silk_'
'signed_'
'signature'
'sie'
'sibl'
'shouldn_'
'shoulder_'
'shir'
'shift'
'shield'
'shelter'
'sheet'
'shea'
'shaped_'
'shaft'
'sew'
'settl'
'sett'
'serves_'
'sequence_'
'sentence_'
'sensing_'
'sen_'
'semi_'
'selling_'
'selecti'
'sel_'
'sei'
'seeks_'
'seed'
'sediment_'
'sed'
'secretar'
'seam'
'scu'
'scor'
'scientists_'
'scien'
'school'
'scholars'
'saving'
'save'
'sation'
'sali'
'ryl'
'rve'
'rvati'
'rush'
'rum'
'rubb'
'rtu'
'rtion_'
'rter_'
'rra'
'rout'
'rough_'
'roof'
'rolling_'
'roll_'
'role'
'robe'
'roads_'
'rl_'
'rk_'
'rity_'
'riti'
'ris_'
'rid_'
'rice_'
'rical_'
'rian'
'ri_'
'rhythm'
'rhe'
'rf'
'rew'
'revis'
'revenue'
'restore'
'ression_'
'resses_'
'respond_'
'resolve_'
'reso'
'resistan'
'residu'
'reservoir_'
'reserve_'
'reservation'
'research'
'represents_'
'represented_'
'represent'
'repeat_'
'repair_'
'repa'
'reor'
'rene'
'remained_'
'religion_'
'reli'
'rele'
'relax'
'relates_'
'reimbursement'
'reh'
'regularly_'
'registr'
'regime'
'regards_'
'refra'
'refr'
'refine'
'ree'
'reducing_'
'reduce'
'redu'
'recur'
'recti'
'recording_'
'recons'
'recogniz'
'recess'
'reas'
'rear_'
'realize_'
'reaffirm'
'reacto'
'reaching_'
'ravi'
'ratu'
'rating_'
'ratified_'
'rape_'
'rance'
'ran_'
'rail_'
'rail'
'rahi'
'radar_'
'raction_'
'ract_'
'race'
'quie'
'quest'
'quently_'
'queness_'
'quar'
'quanti'
'quad'
'putting_'
'pursui'
'purp'
'purchase_'
'pump_'
'pula'
'publication_'
'ptic'
'provisional_'
'provider_'
'protected_'
'prosecutor'
'pros'
'promoted_'
'promise'
'program'
'prognosis_'
'professionals_'
'profession'
'producti'
'proceedings_'
'probe'
'prob'
'printe'
'print_'
'principal_'
'previ'
'pretty_'
'prete'
'president'
'preserv'
'prescribe'
'pred'
'pper'
'pota'
'pot_'
'pot'
'postp'
'posit'
'pos'
'ports_'
'poor'
'polymer'
'politician'
'politically_'
'pointe'
'poet'
'pocket'
'pn'
'pm'
'plus_'
'plug_'
'plu'
'plic'
'pleasure_'
'play'
'plates_'
'plas'
'plac'
'pite'
'pis'
'pio'
'pin_'
'pile_'
'pie_'
'pid_'
'pictures_'
'picking_'
'physics_'
'physi'
'photos_'
'photo_'
'phospho'
'phone'
'phic'
'phenomena_'
'pheno'
'phal'
'pes_'
'perspective_'
'personalit'
'persist'
'perse'
'permitt'
'permi'
'perm'
'periods_'
'performing_'
'perform_'
'perfect'
'perc'
'pend'
'penal'
'pel'
'peculiar'
'peak'
'pave'
'pattern'
'pathologica'
'passing_'
'passengers_'
'partner'
'partit'
'parent_'
'parad'
'pad'
'packet_'
'oxida'
'ownership_'
'owner_'
'ower_'
'ovi'
'overhea'
'overcome_'
'ova'
'outlet'
'ounded_'
'ound'
'oto_'
'otic_'
'other'
'osp'
'osition_'
'osing_'
'oscillat'
'ors'
'oro'
'ormation_'
'orm_'
'orit'
'orient'
'organis'
'ored_'
'ord_'
'orbit_'
'orate_'
'oral_'
'optimiz'
'ople'
'opa'
'ony'
'ono'
'ones'
'onds'
'ondi'
'omnes_'
'omin'
'ometer_'
'olog'
'olat'
'oir'
'oint'
'oh'
'ogical_'
'offs'
'offering_'
'ocyte'
'occurrence'
'occur_'
'occupation'
'oca'
'obt'
'obstacle'
'oblig'
'objecti'
'numerous_'
'nth'
'ntati'
'nstein_'
'nso'
'now'
'nou'
'notice'
'north_'
'nning_'
'nne'
'nna'
'nline'
'nk_'
'nick'
'nica'
'nial_'
'ngl'
'nge_'
'newly_'
'new'
'ners_'
'neo'
'nen'
'negotiat'
'neck_'
'near'
'nding'
'nde'
'ndan'
'nda'
'ncia'
'natural'
'nate_'
'nate'
'nast'
'narrow_'
'narrat'
'myself_'
'ms'
'mping_'
'movie_'
'move'
'mous'
'mountain_'
'mortgage'
'mone'
'molecular_'
'modulat'
'modification'
'moderni'
'moderat'
'mob'
'mmo'
'mmen'
'mixture_'
'mist'
'missile_'
'minister_'
'minim'
'mind'
'minati'
'milk_'
'mice_'
'mic_'
'mic'
'mia'
'metric_'
'metho'
'meteor'
'metas'
'merit'
'menu'
'mention_'
'meat_'
'mbo'
'mbling'
'max'
'matur'
'mathematical'
'match'
'marks_'
'marker'
'marin'
'map'
'mans_'
'mandates_'
'mala'
'mainstream'
'magnif'
'magazine'
'machinery_'
'mach'
'mL_'
'mL'
'lying_'
'lw'
'luti'
'lut'
'lsif'
'loud'
'losing_'
'lonization_'
'logistic'
'locati'
'loan_'
'llen'
'lish'
'liquid'
'limit'
'limb'
'licen'
'liberal'
'liar'
'lg'
'lex'
'lesson_'
'legitimate_'
'leg_'
'lectric'
'lder'
'lawyer'
'lato'
'lati'
'lateral_'
'laid_'
'lage'
'lade'
'lac'
'labour_'
'knowing_'
'kind'
'kilomet'
'kha'
'kh'
'keep'
'justi'
'journalist'
'joining_'
'jiang_'
'jian'
'ji'
'ja_'
'iy'
'iveness_'
'ived'
'iu'
'itud'
'itary_'
'issuing_'
'isol'
'ises_'
'irri'
'irat'
'ipa'
'ip_'
'ior_'
'investment'
'investigati'
'inventor'
'introducing_'
'intri'
'intervention_'
'intervene'
'interv'
'interr'
'internet'
'interim_'
'interacti'
'intensif'
'intelligence_'
'intellectual'
'integrity_'
'integrate'
'inta'
'int_'
'insu'
'instructions_'
'institution'
'insti'
'instan'
'inspir'
'innovative_'
'inn'
'injured_'
'initiati'
'initially_'
'init'
'influen'
'infl'
'infinit'
'inferior'
'inevitab'
'inet'
'inen'
'ined_'
'induc'
'indicator_'
'indicating_'
'inclusion_'
'inclu'
'incidence'
'incid'
'ination_'
'inac'
'improve'
'impri'
'impress'
'implicati'
'implant'
'impl'
'immo'
'immediate_'
'ils_'
'illustrate'
'iled_'
'ile'
'igne'
'igat'
'ify_'
'ificat'
'ier'
'iel'
'identi'
'ide_'
'ida_'
'icted_'
'ick'
'icia'
'icati'
'ibb'
'iban'
'iance_'
'h的'
'hys'
'hydrop'
'hydrolog'
'hydrat'
'hybrid'
'hut'
'hurr'
'hur'
'hundred_'
'humanity_'
'hten'
'hte'
'hot'
'hops_'
'honour_'
'hers_'
'herland'
'heren'
'hensive'
'hemi'
'helps_'
'help'
'helicopter'
'heavi'
'heave'
'hearing'
'hear'
'headquarters_'
'headed_'
'hc'
'hate_'
'harvest'
'hardly_'
'happen_'
'happen'
'handling_'
'ham_'
'hall'
'ha_'
'gure'
'gun_'
'gun'
'guard'
'gru'
'grounds_'
'groove'
'gress'
'grave_'
'grass_'
'gotten_'
'gone_'
'gniti'
'gned_'
'gm'
'global'
'gina'
'gift'
'ghts'
'gha'
'gets_'
'gest'
'geographical_'
'genu'
'gentl'
'gent_'
'generations_'
'gency_'
'gem'
'gel_'
'garden'
'ganiz'
'games_'
'gaine'
'furnace_'
'furn'
'functional_'
'fulness_'
'fs_'
'frig'
'freely_'
'frau'
'fragment'
'founded_'
'forum'
'fort_'
'formulation_'
'formula'
'forecasting_'
'foot_'
'foo'
'flux_'
'fluo'
'fluctuation_'
'float'
'flexib'
'flat_'
'flan'
'fit_'
'fired_'
'finished_'
'finali'
'filters_'
'ficial_'
'few'
'fever'
'fest'
'fertil'
'fees_'
'fee_'
'feat'
'fears_'
'fea'
'favour_'
'favour'
'fault'
'fate_'
'farmer'
'fare_'
'fanc'
'fami'
'fam'
'falli'
'factor'
'extraordinar'
'extradit'
'extra'
'extensive_'
'exposed_'
'export'
'expo'
'explosive_'
'exploit'
'explain_'
'experienced_'
'experi'
'expense'
'expenditure_'
'expansion_'
'expand_'
'expand'
'exists_'
'execution'
'excuse'
'exchange'
'excessive_'
'except'
'examin'
'exac'
'evolution'
'evalu'
'ety_'
'ett'
'etr'
'ethi'
'eter_'
'estate_'
'essay'
'esh'
'escap'
'escalat'
'esc'
'ert_'
'erse'
'errors_'
'erior_'
'erga_'
'ered_'
'equivalent'
'equipped_'
'equal'
'epithelia'
'entrance'
'ential'
'ental'
'enta'
'ense'
'ensat'
'enquir'
'enhanc'
'endu'
'endorsed_'
'encouraging_'
'enco'
'ence'
'enabled_'
'ena_'
'emu'
'empty_'
'emergen'
'embr'
'emb'
'ematic'
'ema'
'els'
'ella'
'ell'
'elevat'
'elementary_'
'electrode_'
'electoral_'
'elections_'
'elder'
'elat'
'eig'
'ehouse_'
'ega'
'ef_'
'eers_'
'een'
'edy_'
'eds_'
'ecu'
'ecti'
'economies_'
'ease'
'dynamics_'
'duce'
'dropp'
'drinking_'
'drew_'
'dress'
'dream'
'dre'
'drastic'
'drag'
'dov'
'doubt_'
'doubt'
'dor_'
'dor'
'donors_'
'donor_'
'dominat'
'dominan'
'dol'
'dog_'
'documenta'
'doc'
'dm'
'dles'
'dle'
'distinction_'
'disr'
'dispos'
'displ'
'disor'
'discussions_'
'disclose'
'disadvantage'
'dir'
'diffusion_'
'different'
'diction'
'dia_'
'di_'
'dh'
'devo'
'devices_'
'devi'
'develop'
'dev'
'deter'
'details_'
'dest'
'desert'
'description_'
'desc'
'derland'
'deriv'
'deposition_'
'deployed_'
'depl'
'depending_'
'depend'
'dent_'
'demonstration'
'dele'
'degre'
'deficit_'
'defens'
'defendant'
'defend'
'defe'
'deduc'
'decorat'
'decomp'
'deco'
'declin'
'declaration_'
'decades_'
'decade_'
'deba'
'deb'
'dder_'
'dang'
'dal_'
'curvature'
'cum'
'crystalli'
'crown'
'criticism_'
'critic'
'crew_'
'creates_'
'cracks_'
'covers_'
'court'
'courses_'
'coupling_'
'countryside_'
'countermeasures_'
'counsel'
'cotton'
'corruption_'
'correlation_'
'correction'
'corr'
'corpora'
'copie'
'cool'
'convince'
'converte'
'conver'
'conventions_'
'convenient_'
'controller_'
'control'
'contrast_'
'contrary_'
'continua'
'contest'
'consumers_'
'consumer'
'constructi'
'constitutes_'
'consolidation_'
'consists_'
'consiste'
'considering_'
'conservative'
'consequences_'
'connect'
'cong'
'confro'
'conformity_'
'confirm'
'conductiv'
'condu'
'condo'
'condition'
'condemn'
'cond'
'concert'
'conception_'
'concentrati'
'concentrated_'
'computation'
'compre'
'composition'
'complicated_'
'compli'
'complexity_'
'complementary_'
'complaint'
'compl'
'competent'
'compensa'
'compare_'
'comparative'
'compa'
'comp'
'communist'
'communicate_'
'commitments_'
'commit'
'commis'
'commentar'
'combin'
'combat'
'collecti'
'collected_'
'coll'
'coerci'
'coefficient_'
'coe'
'coat'
'coast_'
'cm3'
'close'
'clin'
'climb_'
'clients_'
'click'
'clean'
'clarifi'
'cking_'
'cker_'
'civilians_'
'circulated_'
'circular_'
'cipa'
'cine'
'church'
'chroma'
'chrom'
'chose'
'chea'
'charges_'
'chap_'
'chanics_'
'chairman_'
'certificate'
'ceremony_'
'cereb'
'ceramic'
'cepti'
'centre_'
'cens'
'ceme'
'celebrate_'
'cele'
'cela'
'cate_'
'catalyst_'
'casualt'
'cast'
'careful_'
'cardio'
'card'
'capita'
'candle'
'campaign_'
'cam'
'call'
'cali'
'calculating_'
'calculated_'
'calculate_'
'cake'
'burst'
'burden'
'bump'
'bulk'
'budget'
'bubble_'
'brother_'
'bron'
'broke_'
'briefing_'
'brid'
'brick'
'branch_'
'branch'
'boy_'
'bour'
'bot'
'born'
'bore'
'bonds_'
'bomb'
'bolic_'
'boiler'
'boards_'
'boa'
'blog'
'bis'
'birth'
'birds_'
'bills_'
'bie'
'bidde'
'beside'
'berr'
'bend'
'belongs_'
'belonging'
'believes_'
'belief'
'begin'
'beat'
'battery_'
'batch_'
'barrel'
'bann'
'banking_'
'balance'
'bal'
'bacteria_'
'bacco_'
'babi'
'aye'
'axe'
'ax'
'avo'
'automo'
'automatically_'
'autom'
'aust'
'aur'
'ature'
'attracti'
'attach'
'ator_'
'ater'
'asti'
'assure'
'assurance'
'assignment'
'assi'
'asset_'
'assess_'
'aspir'
'ask_'
'arts_'
'art'
'arriv'
'arm_'
'arm'
'arly_'
'ariz'
'arity_'
'aries_'
'argument'
'aren_'
'aren'
'archi'
'appeared_'
'appearance_'
'anyw'
'any'
'antl'
'antenna'
'announce'
'anniversary_'
'ania_'
'analysts_'
'amo'
'amin'
'amendments_'
'amend'
'ambigu'
'amat'
'alloys_'
'allowance_'
'alliance_'
'alli'
'alk'
'aliza'
'ald'
'alcohol'
'alc'
'aking_'
'ak_'
'airp'
'aine_'
'agr'
'afo'
'advisory_'
'advice_'
'adve'
'admit'
'admi'
'adequate_'
'additive'
'acute_'
'activat'
'acter'
'acqui'
'acl'
'acknowledge'
'achievements_'
'acet'
'accurate_'
'accounted_'
'acco'
'accessi'
'accept_'
'accept'
'abundan'
'absorption'
'absence_'
'absen'
'ab_'
']。_'
'\\_'
'[ _'
'['
'Zha'
'Ze'
'Year'
'YN'
'Xian'
'XXX'
'XXI'
'XX'
'Wol'
'Windows_'
'Whi'
'Wei'
'Water_'
'Vil'
'Vari'
'Vac'
'VI_'
'UNHCR_'
'UNF'
'UNA'
'Tw'
'Ts'
'Tro'
'Treaty_'
'Transi'
'Trac'
'TiO_'
'Thor'
'Tha'
'Text'
'Test'
'Tell'
'Technique'
'Tech'
'Task_'
'Table_'
'TS'
'TRA'
'TL'
'TION'
'TB_'
'TAL'
'Sym'
'Sw'
'Surv'
'Supplement'
'Supp'
'Summ'
'Sub_'
'Stud'
'Structur'
'Strateg'
'Stea'
'Stat'
'Standard'
'Spr'
'Spi'
'Speed_'
'Spain_'
'Soviet_'
'Southe'
'Sou'
'Song'
'Some'
'Solu'
'Soft'
'Smith'
'Sl'
'Single'
'Singapore_'
'Simon'
'Similar'
'Silico'
'Serve'
'Serbia'
'Sem'
'Section_'
'Scr'
'Scott'
'Sciences_'
'Schem'
'Scal'
'Saturday_'
'Sara'
'SYSTEM_'
'STR'
'SQ'
'SPECT'
'SOAP_'
'SM_'
'SF'
'SEM'
'SD_'
'SAR'
'Rus'
'Rules_'
'Rou'
'Rot'
'Rol'
'Roh'
'Rod'
'Rob'
'Ris'
'Rich'
'Reserv'
'Research'
'Rela'
'Rel'
'Regulations_'
'Regulation_'
'Regist'
'Region'
'Reduc'
'Real_'
'RS_'
'RR'
'RNA'
'RC_'
'Qui'
'Question'
'Que'
'Put'
'Pulse'
'Pu'
'Provi'
'Prote'
'Prosecut'
'Professional_'
'Prince'
'Prime'
'Pric'
'Prev'
'Prese'
'Pres'
'Prec'
'Post_'
'Pop'
'Pol'
'Photo'
'Philipp'
'Person'
'Pb_'
'Parti'
'Parliament_'
'Parliament'
'Paragraph_'
'PTF'
'PP_'
'PP'
'PLC_'
'PF'
'PB'
'Overs'
'Order_'
'Optimization_'
'Ol'
'Oi'
'Observe'
'Observat'
'OSCE_'
'ON'
'OECD_'
'OA'
'Nucle'
'Notes'
'Northe'
'Norm'
'None'
'Nin'
'Nigeria'
'Neural_'
'Natural_'
'Nam'
'NT'
'NIT'
'NE_'
'My'
'Muslim'
'Mun'
'Movement'
'Mot'
'Monte'
'Mom'
'Mohamed_'
'Moham'
'Moder'
'Mod'
'Miss'
'Michael_'
'Mes'
'Men_'
'Members_'
'Measures_'
'Mau'
'Matlab'
'Mass'
'Mary_'
'Mana'
'Man_'
'Mala'
'Making'
'Magne'
'Macedonia_'
'MU'
'MH'
'METHOD'
'MAN'
'Lux'
'Listen'
'Linear_'
'Letter_'
'Lesson'
'Leone_'
'Len'
'Lei'
'Lee'
'Leban'
'Latvia_'
'Lam_'
'LT'
'LP'
'LC_'
'L4'
'Ker'
'Kenya'
'KA'
'Jud'
'Joseph'
'Job'
'Jerusalem_'
'Jen'
'Jack'
'Iv'
'Item'
'Italy_'
'It'
'Issue'
'Islam_'
'Intelligen'
'Insp'
'Ins'
'Independen'
'Imm'
'Image'
'ITY'
'IF'
'ID_'
'Hydr'
'Hy'
'Hun'
'House_'
'Hos'
'Hom'
'Hei'
'Heat_'
'Headquarters_'
'Habit'
'HTTP'
'HTML'
'H1'
'Guo'
'Guide_'
'Gui'
'Green_'
'Greece_'
'Grad'
'Gla'
'Get_'
'George_'
'Genetic_'
'Gene'
'Gar'
'Games_'
'GaA'
'GF_'
'GDP'
'Further_'
'Fund'
'Function'
'Fri'
'Free'
'Francisco_'
'Fort'
'Former_'
'Ford'
'Food'
'Five_'
'Finance_'
'File'
'Fie'
'FR_'
'FORM'
'FER'
'FCC'
'FAO_'
'Experts_'
'Exper'
'Excel'
'Examin'
'Eva'
'Ethiopia'
'Estonia_'
'Establish'
'Eri'
'Equi'
'Equation_'
'Equat'
'Environmental_'
'Ent'
'Enco'
'Employ'
'Emer'
'Electric'
'Efficien'
'Edu'
'Econom'
'East'
'Ear'
'ERA'
'ENT'
'ECO'
'E2'
'Dynasty_'
'Dow'
'Does_'
'Division_'
'Disease'
'Diff'
'Diagnos'
'Dia'
'Detection_'
'Demo'
'Delegation'
'Defen'
'Dee'
'Decision'
'Decade_'
'David_'
'DV'
'DT'
'DSP_'
'DSP'
'DIF'
'DH'
'Cycl'
'Cup'
'Cs_'
'Cross'
'Cri'
'Corre'
'Corr'
'Coordinat'
'Conven'
'Conve'
'Controller'
'Contract'
'Conte'
'Consu'
'Construct'
'Const'
'Congo_'
'Computer'
'Community_'
'Communication'
'Commerc'
'Come_'
'Combined_'
'Combin'
'Colum'
'Colomb'
'Clinical_'
'China'
'Cheng'
'Chen'
'Chapter'
'Chai'
'Ceramic'
'Cath'
'Cata'
'Cast'
'Capt'
'Capi'
'Cab'
'CTI'
'CS_'
'COP_'
'CONF'
'COM'
'COD_'
'CB'
'CAM'
'CAL'
'Business'
'Bulgaria_'
'Budget'
'Brown'
'Bor'
'Bill_'
'Bay'
'Batt'
'Basic'
'Bab'
'BBC'
'A的'
'Az'
'Av'
'Automati'
'Austria'
'Aus'
'Atlant'
'Assist'
'Argentin'
'Appr'
'Applications_'
'Apart'
'Angel'
'Andre'
'Ana'
'Alloy'
'Ala'
'Agricultur'
'Age'
'Aer'
'Adviser_'
'Advance'
'Administration_'
'Admi'
'Accord'
'Abu'
'ANS'
'AM_'
'AL_'
'AG_'
'AF'
'ADA'
'>_'
';'
'9月3'
'9日至1'
'963_'
'96'
'93'
'8段'
'8条'
'8月2日'
'8年_'
'8年1'
'8号决议'
'8亿'
'80年代'
'80年'
'800_'
'7段'
'7月3'
'7月23日'
'7月1日'
'7年的'
'7年1'
'78_'
'6日第'
'650'
'60年'
'5月3'
'5日至'
'5日在'
'4月1日'
'4和'
'4A'
'3月31日_'
'3日至'
'3日第'
'373'
'360'
'30分'
'2段_'
'2年12月'
'2号文件'
'263'
'252'
'2500'
'24小时'
'22日'
'221'
'214_'
'20日'
'209'
'2017'
'2011'
'200美元_'
'2009年_'
'2006年7月'
'2002年5月'
'1条'
'1月_'
'1月11日'
'1和'
'1名'
'1人'
'1m'
'19th_'
'1998年_'
'1992年'
'1990'
'1986'
'1985'
'1981年'
'1981_'
'1980_'
'1980'
'1976'
'1975'
'1967'
'191'
'182'
'16号决'
'161'
'158_'
'157'
'147_'
'145'
'137_'
'133'
'131'
'12月2'
'12个月'
'11日'
'116'
'114'
'109'
'108'
'107'
'102_'
'100美元_'
'0公'
'09年'
'09_'
'08_'
'060'
'03_'
'004'
'000万'
'++'
'**'
''.'
'%) '
'% '
'"（_'
'", _'
'")'
'""'
'" , '
' ，_'
' （_'
' 。 _'
' ” _'
' ‘'
' :_'
' .'
' ) , _'
' &_'
'＜'
'２'
'鸽'
'鸭'
'鸣'
'鲸'
'驶'
'颖'
'顷'
'陶'
'锐'
'铃'
'钎'
'酿'
'酱'
'酬'
'酥'
'酗'
'遣'
'辰'
'贬'
'豫'
'豚'
'谦'
'详'
'讼'
'詹'
'褶'
'裹'
'衰'
'衍'
'衅'
'蝶'
'蜜'
'蜗'
'蚕'
'藤'
'薯'
'蔡'
'菱'
'苔'
'芝'
'舵'
'膛'
'脾'
'脖'
'肿'
'肇'
'肆'
'耍'
'翅'
'绞'
'绍'
'纷'
'絮'
'紊'
'粹'
'簿'
'箍'
'笨'
'窥'
'窝'
'穗'
'秘'
'碌'
'瞬'
'瞄'
'盼'
'畏'
'甄'
'瑰'
'瑚'
'猴'
'牵'
'熊'
'焰'
'滤'
'滅'
'溪'
'溜'
'渊'
'淇'
'淆'
'涨'
'涅'
'浏'
'泳'
'泪'
'汶'
'歧'
'橡'
'樣'
'椭'
'棘'
'栈'
'柏'
'柄'
'枯'
'杨'
'杏'
'晒'
'旺'
'旨'
'旦'
'斥'
'斤'
'斡'
'敞'
'敛'
'搅'
'掺'
'掠'
'挺'
'拾'
'拷'
'抖'
'抑'
'扑'
'扇'
'應'
'慑'
'慌'
'愧'
'愁'
'惹'
'悟'
'恕'
'恐'
'怖'
'徐'
'巡'
'川'
'屑'
'尝'
'將'
'寥'
'寓'
'宴'
'宋'
'孢'
'嫌'
'媚'
'媒'
'婴'
'奔'
'堵'
'堤'
'垒'
'坪'
'圭'
'困'
'噶'
'噢'
'嘿'
'喊'
'啮'
'唇'
'咱'
'吴'
'吡'
'叹'
'厘'
'創'
'剩'
'削'
'删'
'冻'
'兔'
'僻'
'來'
'伞'
'㈣'
'Ⅱ'
'Ⅰ'
'λ'
'α'
'*'
'&'
'#'
'］'
'［'
'練'
'量'
'鸦'
'魏'
'魂'
'髦'
'骚'
'飙'
'韩'
'霉'
'難'
'雏'
'雀'
'隙'
'闯'
'镍'
'锆'
'锂'
'铵'
'钾'
'钳'
'鉴'
'醚'
'酵'
'酪'
'郁'
'邓'
'辫'
'辈'
'轿'
'躯'
'踱'
'踩'
'赂'
'赁'
'贡'
'谤'
'诽'
'诞'
'讽'
'譬'
'衫'
'蝠'
'蜘'
'蛛'
'蚀'
'虹'
'蕉'
'葡'
'葛'
'萌'
'菊'
'荞'
'苗'
'芦'
'艰'
'膳'
'脐'
'肽'
'肘'
'聋'
'耻'
'耦'
'翁'
'羽'
'缕'
'综'
'绵'
'粮'
'粪'
'簧'
'筛'
'笛'
'窦'
'稠'
'秃'
'祷'
'礁'
'磺'
'砷'
'砖'
'砌'
'盔'
'皆'
'癖'
'瘦'
'痪'
'疣'
'畜'
'狼'
'爵'
'烤'
'烛'
'灼'
'灶'
'漂'
'溅'
'湍'
'渎'
'淬'
'涤'
'浑'
'浇'
'沸'
'沟'
'沛'
'汲'
'毯'
'殿'
'殴'
'殖'
'歸'
'檚'
'橄'
'槟'
'槛'
'榄'
'梭'
'栖'
'柴'
'柯'
'枕'
'朴'
'暇'
'晴'
'昨'
'攸'
'摘'
'摊'
'捣'
'捏'
'捆'
'挽'
'挫'
'挪'
'挠'
'抹'
'抨'
'戚'
'慈'
'愚'
'惶'
'恳'
'徽'
'御'
'弥'
'弛'
'弓'
'廓'
'廊'
'幽'
'崭'
'崩'
'尺'
'尸'
'寝'
'媛'
'娅'
'姊'
'塘'
'堕'
'坯'
'坠'
'坞'
'坝'
'嗽'
'嗜'
'嗅'
'喔'
'啶'
'啤'
'哮'
'咒'
'呱'
'呕'
'吾'
'吼'
'吻'
'吊'
'叨'
'厢'
'厕'
'卵'
'匮'
'匠'
'匆'
'匀'
'剔'
'券'
'凑'
'冯'
'兆'
'僚'
'倚'
'個'
'俊'
'伺'
'企'
'仰'
'仙'
'仑'
'仆'
'亟'
'乞'
'乓'
'乍'
'㈤'
'〉'
'　'
'≥'
'Ⅲ'
'′'
'ô'
'}'
'{'
'麽'
'鹅'
'魄'
'骏'
'骇'
'驰'
'馅'
'饵'
'饥'
'飾'
'飓'
'颂'
'順'
'雌'
'阪'
'阜'
'阑'
'锯'
'锣'
'锛'
'铎'
'酣'
'酋'
'郡'
'遠'
'逸'
'進'
'逛'
'迦'
'迅'
'辑'
'跻'
'赵'
'贼'
'贮'
'贤'
'谚'
'谘'
'诧'
'诡'
'謀'
'親'
'裸'
'袖'
'蟾'
'蝴'
'蝙'
'蝇'
'蛾'
'蚓'
'蚊'
'蚁'
'虾'
'虞'
'虔'
'蘭'
'葱'
'萬'
'萎'
'苷'
'苛'
'苄'
'芭'
'芜'
'芋'
'臣'
'膨'
'肃'
'聪'
'翔'
'羞'
'羁'
'罰'
'缚'
'绪'
'绣'
'纂'
'約'
'窑'
'稽'
'秽'
'秦'
'禅'
'祉'
'祈'
'祂'
'碟'
'硼'
'瞩'
'睾'
'睹'
'睫'
'睦'
'眷'
'發'
'瘢'
'瘟'
'瘘'
'疾'
'疹'
'琶'
'琵'
'玲'
'猿'
'狠'
'狐'
'牟'
'爪'
'熵'
'熬'
'煎'
'烹'
'烘'
'濒'
'漩'
'淹'
'淫'
'淤'
'洒'
'泣'
'沼'
'沌'
'汐'
'毀'
'殡'
'歉'
'檀'
'橙'
'榨'
'棕'
'棋'
'梵'
'梧'
'梢'
'桔'
'桐'
'栅'
'柳'
'柬'
'柚'
'杖'
'朽'
'晕'
'晃'
'時'
'敷'
'撼'
'撇'
'摔'
'搏'
'掷'
'掀'
'捡'
'拣'
'拙'
'拓'
'拐'
'拂'
'惰'
'悼'
'悦'
'悚'
'悖'
'怡'
'怜'
'怎'
'彻'
'庙'
'幔'
'帜'
'帖'
'帆'
'帅'
'巷'
'崛'
'崔'
'屡'
'寺'
'寨'
'孵'
'孜'
'嫩'
'嫁'
'娩'
'奸'
'奢'
'奕'
'夕'
'埔'
'坛'
'坊'
'嗨'
'嗣'
'嗎'
'喧'
'啸'
'啪'
'啦'
'啡'
'唑'
'哺'
'哲'
'哨'
'哇'
'咳'
'吝'
'叮'
'厦'
'卤'
'卑'
'匿'
'勋'
'励'
'刍'
'刃'
'凹'
'凳'
'凤'
'冶'
'冉'
'兜'
'儒'
'僕'
'傷'
'傩'
'傅'
'倦'
'倡'
'侨'
'侍'
'侈'
'伽'
'亭'
'丘'
'㈥'
'《'
'②'
'Ⅷ'
'—'
'–'
'ξ'
'θ'
'δ'
'Ψ'
'°'
'>'
'!'
'ａ'
'Ｈ'
'８'
'５'
'．'
'＂'
'﹣'
'﹔'
'︰'
''
''
''
'龟'
'麼'
'鹰'
'鹤'
'鸿'
'鳖'
'鳏'
'鲩'
'鲨'
'鲟'
'魁'
'鬃'
'骼'
'骂'
'驾'
'驼'
'驯'
'饷'
'饶'
'饲'
'颐'
'颁'
'類'
'願'
'鞘'
'靶'
'霹'
'霆'
'雹'
'雳'
'離'
'隘'
'陵'
'陰'
'陕'
'陋'
'阈'
'镖'
'锰'
'锭'
'锦'
'铰'
'铒'
'铐'
'铍'
'铋'
'铆'
'钴'
'钠'
'钞'
'釉'
'醜'
'醋'
'酞'
'酌'
'郭'
'郑'
'遴'
'遛'
'逢'
'辙'
'辍'
'躲'
'躏'
'躁'
'蹟'
'蹄'
'蹂'
'踝'
'跤'
'赠'
'赔'
'赎'
'賴'
'豹'
'豌'
'谬'
'谣'
'谑'
'诲'
'诫'
'變'
'謝'
'話'
'証'
'許'
'觑'
'褪'
'裨'
'裡'
'裘'
'袅'
'蠕'
'蟹'
'螯'
'蝎'
'蝉'
'蜍'
'蛮'
'蚂'
'藻'
'藓'
'蒲'
'蒋'
'董'
'萃'
'菠'
'莓'
'荚'
'荔'
'荐'
'茹'
'茫'
'茜'
'茅'
'茂'
'苞'
'芙'
'舶'
'舔'
'與'
'舅'
'腥'
'腑'
'腈'
'脲'
'脓'
'胰'
'肴'
'肱'
'肚'
'耿'
'羹'
'羡'
'罂'
'缠'
'缅'
'維'
'給'
'粟'
'籽'
'簸'
'簌'
'簇'
'箴'
'箭'
'筏'
'笞'
'竣'
'窘'
'窒'
'稼'
'稱'
'種'
'秸'
'秆'
'禧'
'祥'
'磅'
'碾'
'碲'
'硪'
'砼'
'砸'
'矣'
'瞻'
'瞠'
'瞎'
'睿'
'睐'
'眾'
'眸'
'眩'
'盎'
'皖'
'皑'
'癫'
'痹'
'痘'
'疼'
'疸'
'疚'
'甫'
'甩'
'獗'
'猾'
'猖'
'狸'
'狮'
'狭'
'狡'
'狈'
'牲'
'爹'
'燕'
'熄'
'煩'
'煌'
'煅'
'焕'
'烩'
'烙'
'烁'
'炽'
'炬'
'炫'
'灿'
'澜'
'澎'
'潘'
'潍'
'滕'
'滋'
'溷'
'溧'
'溃'
'湛'
'湃'
'渝'
'渍'
'淘'
'涩'
'涎'
'浩'
'浃'
'泾'
'泻'
'沵'
'沮'
'沦'
'汪'
'毗'
'毋'
'毅'
'殷'
'權'
'檬'
'樱'
'榴'
'楔'
'棵'
'桦'
'栽'
'栗'
'柠'
'枣'
'朊'
'會'
'曝'
'曙'
'昭'
'昧'
'昌'
'旷'
'斟'
'敝'
'撮'
'摧'
'搓'
'揽'
'揉'
'掳'
'捻'
'捧'
'挚'
'拮'
'拢'
'抬'
'抄'
'扮'
'戰'
'戊'
'懋'
'慨'
'慧'
'愤'
'愉'
'惭'
'惡'
'惕'
'恿'
'恭'
'恫'
'恪'
'怯'
'怂'
'忱'
'徹'
'從'
'彼'
'彰'
'彤'
'弦'
'庸'
'庇'
'帚'
'嵴'
'崖'
'崎'
'峙'
'岳'
'岭'
'岬'
'岐'
'岌'
'岂'
'屎'
'尴'
'尬'
'尉'
'寬'
'寅'
'宥'
'宅'
'孚'
'嫉'
'婿'
'婶'
'婪'
'婉'
'娴'
'娇'
'姥'
'姜'
'妩'
'妖'
'妓'
'妆'
'妄'
'奄'
'墩'
'墅'
'塌'
'堅'
'垮'
'垦'
'垛'
'坷'
'坑'
'囚'
'嚣'
'嘶'
'嘛'
'嗡'
'嗒'
'喋'
'喉'
'啬'
'啥'
'啉'
'啃'
'哼'
'哩'
'哗'
'咪'
'咐'
'呃'
'吭'
'吩'
'吁'
'叔'
'厮'
'卿'
'匹'
'勉'
'刁'
'冥'
'冕'
'允'
'兀'
'僵'
'傲'
'倘'
'俭'
'俏'
'侯'
'侮'
'侠'
'伎'
'仗'
'亵'
'亩'
'亥'
'亢'
'乾'
'乒'
'並'
'丐'
'丈'
'】'
'【'
'〇'
'□'
'■'
'⑤'
'⊙'
'∗'
'−'
'€'
'•'
'π'
'β'
'Ω'
'ë'
'è'
'ã'
'­'
'<'
'$'
'￣'
'ｕ'
'ｓ'
'ｐ'
'ｌ'
'ｋ'
'ｉ'
'ｄ'
'Ｓ'
'Ｎ'
'＝'
'４'
'３'
'／'
'＊'
'＇'
'﹥'
'﹤'
'﹑'
'﹐'
'理'
'易'
'年'
'兩'
'更'
''
''
''
''
''
''
''
''
''
''
''
''
''
''
''
''
'龋'
'龈'
'鼙'
'黯'
'黜'
'黛'
'麸'
'麝'
'鹦'
'鹑'
'鹏'
'鹌'
'鹉'
'鹃'
'鹂'
'鸥'
'鸠'
'鳞'
'鳕'
'鲱'
'鲔'
'魚'
'體'
'髋'
'骸'
'骞'
'骓'
'骈'
'骆'
'骅'
'骄'
'驿'
'驗'
'馨'
'馁'
'馀'
'饿'
'饪'
'飛'
'飑'
'颧'
'颞'
'颌'
'颊'
'颅'
'顯'
'項'
'鞣'
'靴'
'靡'
'靛'
'靖'
'靈'
'霾'
'霞'
'霖'
'霎'
'霈'
'霄'
'電'
'雉'
'隼'
'隱'
'隨'
'隧'
'隊'
'陡'
'陛'
'陇'
'阮'
'阡'
'阙'
'阐'
'阎'
'阁'
'闩'
'闡'
'閒'
'閉'
'镰'
'镕'
'镑'
'镉'
'镂'
'锹'
'锢'
'锚'
'锄'
'铯'
'铧'
'铟'
'铌'
'铈'
'铂'
'钼'
'钡'
'钜'
'钚'
'钕'
'鍋'
'鍊'
'錄'
'釜'
'醅'
'酝'
'鄙'
'邱'
'邢'
'邋'
'邂'
'遢'
'達'
'遏'
'遂'
'遁'
'逍'
'逅'
'迸'
'辦'
'辗'
'辋'
'轶'
'轭'
'轩'
'載'
'軍'
'蹲'
'蹭'
'蹑'
'踌'
'踊'
'跷'
'跶'
'跛'
'跋'
'趁'
'赭'
'赊'
'赈'
'赀'
'贲'
'贱'
'贞'
'賜'
'賑'
'貼'
'責'
'財'
'豁'
'谭'
'谜'
'谙'
'谍'
'谄'
'谀'
'诶'
'诵'
'诬'
'诩'
'诨'
'诣'
'诠'
'诟'
'讹'
'讳'
'讀'
'護'
'譴'
'識'
'謊'
'諫'
'請'
'誰'
'說'
'記'
'討'
'計'
'觅'
'視'
'褒'
'裴'
'袒'
'袁'
'術'
'螈'
'螂'
'蝾'
'蝗'
'蜴'
'蜥'
'蜣'
'蜃'
'蛰'
'蛭'
'蛙'
'蚱'
'蚩'
'蚤'
'虑'
'蘑'
'藐'
'薰'
'薏'
'蕨'
'蔼'
'蔗'
'蔑'
'蒽'
'蒜'
'蒎'
'葵'
'葫'
'萜'
'萘'
'萍'
'菩'
'莽'
'莆'
'荼'
'荫'
'荃'
'茸'
'茧'
'茄'
'茁'
'苹'
'苟'
'苋'
'芘'
'舆'
'臭'
'臨'
'臀'
'膻'
'腻'
'腱'
'腕'
'腓'
'腋'
'脒'
'胴'
'胫'
'胛'
'胍'
'胄'
'肮'
'肟'
'聿'
'聽'
'聲'
'聰'
'聯'
'耽'
'翡'
'翠'
'羧'
'罹'
'罷'
'缶'
'缮'
'缪'
'缄'
'绽'
'绰'
'绢'
'绎'
'绊'
'纾'
'纬'
'繼'
'締'
'線'
'絕'
'紗'
'糙'
'粳'
'粥'
'粤'
'粕'
'籐'
'篱'
'篝'
'節'
'箔'
'筐'
'笆'
'笃'
'窟'
'穹'
'積'
'稜'
'稚'
'稗'
'秩'
'秤'
'禄'
'祢'
'祗'
'祐'
'祁'
'祀'
'礙'
'磙'
'磕'
'碧'
'碇'
'硒'
'硂'
'砰'
'砜'
'砒'
'矜'
'瞭'
'瞪'
'瞥'
'瞒'
'睬'
'睑'
'眶'
'眨'
'眞'
'盹'
'盯'
'盤'
'盏'
'皿'
'皙'
'瘠'
'瘜'
'瘀'
'痰'
'痒'
'痊'
'疤'
'疡'
'疟'
'畔'
'甸'
'甭'
'甙'
'瓷'
'瑜'
'瑙'
'瑕'
'琪'
'琢'
'琛'
'琐'
'珈'
'珂'
'珀'
'玄'
'獾'
'獲'
'獭'
'獠'
'獒'
'猷'
'猬'
'猕'
'狙'
'犁'
'牒'
'爸'
'燥'
'燊'
'熏'
'煽'
'煳'
'煦'
'煞'
'無'
'焚'
'焙'
'焓'
'烫'
'炳'
'炒'
'災'
'瀑'
'濠'
'澤'
'澡'
'潭'
'潦'
'漓'
'滏'
'溯'
'溉'
'湘'
'湎'
'渲'
'渭'
'渤'
'渂'
'淳'
'淮'
'淑'
'淐'
'涛'
'涕'
'浊'
'沪'
'沈'
'決'
'汹'
'汝'
'汛'
'汕'
'氰'
'氩'
'氓'
'歹'
'歪'
'歡'
'檛'
'檐'
'橘'
'樟'
'樂'
'槲'
'槁'
'榭'
'榛'
'榖'
'榔'
'榈'
'楣'
'楠'
'椽'
'棺'
'棱'
'棂'
'梳'
'梨'
'梏'
'桨'
'桎'
'桁'
'柿'
'柒'
'枸'
'枷'
'枳'
'枫'
'枢'
'札'
'朋'
'曰'
'暮'
'暨'
'暧'
'暑'
'晾'
'晰'
'晦'
'晤'
'晏'
'昼'
'昵'
'昏'
'斩'
'斧'
'斌'
'斋'
'敵'
'撷'
'摺'
'摒'
'揶'
'揣'
'揍'
'揄'
'掸'
'掯'
'掇'
'拭'
'拎'
'拈'
'拄'
'抉'
'扦'
'戾'
'戳'
'戮'
'戕'
'戎'
'懲'
'懊'
'懈'
'憩'
'憨'
'憔'
'憎'
'慾'
'愣'
'愕'
'惱'
'惮'
'惟'
'惘'
'悴'
'悍'
'恻'
'恺'
'恢'
'恙'
'怠'
'忻'
'徵'
'復'
'徘'
'徊'
'徇'
'彷'
'彬'
'彪'
'彦'
'強'
'弩'
'弘'
'廿'
'廖'
'庚'
'幺'
'幫'
'幂'
'帷'
'帧'
'帘'
'巩'
'峭'
'峨'
'峦'
'岑'
'屯'
'屬'
'屜'
'屁'
'尹'
'尧'
'寰'
'審'
'寧'
'實'
'寞'
'寛'
'寐'
'寇'
'宵'
'宮'
'宠'
'宙'
'孝'
'嬉'
'嫦'
'嫖'
'婧'
'婦'
'婢'
'婊'
'娼'
'娶'
'娥'
'娄'
'姻'
'姨'
'姣'
'姗'
'妳'
'妨'
'妞'
'妒'
'夷'
'夯'
'夥'
'壹'
'壑'
'塬'
'埕'
'垢'
'坳'
'坆'
'圮'
'圖'
'國'
'噱'
'嘻'
'嘱'
'嘘'
'嘈'
'嘅'
'嘀'
'嗯'
'嗪'
'嗝'
'嗓'
'喹'
'喇'
'喃'
'啼'
'啕'
'問'
'啊'
'啄'
'唾'
'唯'
'唠'
'唔'
'唉'
'唁'
'哒'
'哑'
'哎'
'哌'
'哉'
'咽'
'咬'
'咧'
'咕'
'咏'
'咋'
'咀'
'呜'
'呛'
'呔'
'呓'
'呋'
'叭'
'叩'
'卟'
'卉'
'匣'
'匝'
'匙'
'匈'
'勺'
'勸'
'勰'
'勢'
'劈'
'劇'
'剌'
'則'
'凄'
'冀'
'兖'
'優'
'儀'
'僧'
'傾'
'倆'
'俺'
'俸'
'俯'
'俣'
'俘'
'侪'
'侥'
'侏'
'侄'
'佻'
'佔'
'佑'
'伱'
'仲'
'仟'
'仄'
'乖'
'丫'
'㈩'
'㈧'
'㈢'
'ㄓ'
'・'
'〈'
'♦'
'★'
'●'
'▪'
'━'
'⑽'
'⑸'
'⑷'
'⑴'
'④'
'③'
'≤'
'∕'
'∑'
'Ⅳ'
'℉'
'‧'
'‘'
'―'
'Ф'
'χ'
'φ'
'η'
'Φ'
'š'
'č'
'ć'
'ü'
'ø'
'ö'
'ï'
'ç'
'à'
'»'
'£'
'＞'
''
'魅'
'馈'
'陌'
'钮'
'逻'
'逮'
'迄'
'蹈'
'谴'
'谊'
'讶'
'蔬'
'萄'
'腊'
'胚'
'胁'
'肪'
'篷'
'稣'
'磋'
'碍'
'硕'
'矶'
'矛'
'睛'
'畴'
'璃'
'牺'
'澄'
'渴'
'渠'
'涯'
'沫'
'沥'
'汰'
'斐'
'擎'
'撑'
'捍'
'挝'
'拯'
'披'
'憾'
'慷'
'彗'
'弈'
'峻'
'宛'
'娱'
'娠'
'妊'
'奠'
'垄'
'垃'
'圾'
'圳'
'囱'
'哦'
'咖'
'呢'
'呀'
'㈡'
'㈠'
'〔'
'「'
'△'
'∶'
'ε'
'±'
'|'
'`'
'\'
'@'
